{
  "version": "1.0",
  "truncation": null,
  "padding": null,
  "added_tokens": [],
  "normalizer": null,
  "pre_tokenizer": {
    "type": "Whitespace"
  },
  "post_processor": null,
  "decoder": null,
  "model": {
    "type": "BPE",
    "dropout": null,
    "unk_token": null,
    "continuing_subword_prefix": null,
    "end_of_word_suffix": null,
    "fuse_unk": false,
    "byte_fallback": false,
    "vocab": {
      "a": 0,
      "b": 1,
      "c": 2,
      "d": 3,
      "e": 4,
      "f": 5,
      "g": 6,
      "h": 7,
      "i": 8,
      "j": 9,
      "k": 10,
      "l": 11,
      "m": 12,
      "n": 13,
      "o": 14,
      "p": 15,
      "q": 16,
      "r": 17,
      "s": 18,
      "t": 19,
      "u": 20,
      "v": 21,
      "w": 22,
      "x": 23,
      "y": 24,
      "z": 25,
      "á": 26,
      "ã": 27,
      "ç": 28,
      "è": 29,
      "é": 30,
      "ë": 31,
      "ñ": 32,
      "ó": 33,
      "õ": 34,
      "ŋ": 35,
      "ɓ": 36,
      "ẽ": 37,
      "aa": 38,
      "oo": 39,
      "ee": 40,
      "al": 41,
      "am": 42,
      "ci": 43,
      "na": 44,
      "an": 45,
      "kk": 46,
      "di": 47,
      "la": 48,
      "bi": 49,
      "ng": 50,
      "ne": 51,
      "te": 52,
      "ar": 53,
      "ko": 54,
      "mu": 55,
      "ak": 56,
      "ñu": 57,
      "ax": 58,
      "ay": 59,
      "een": 60,
      "bu": 61,
      "ée": 62,
      "oon": 63,
      "li": 64,
      "yi": 65,
      "lu": 66,
      "de": 67,
      "ma": 68,
      "gg": 69,
      "ba": 70,
      "nd": 71,
      "pp": 72,
      "tu": 73,
      "ni": 74,
      "gi": 75,
      "aay": 76,
      "oom": 77,
      "nu": 78,
      "su": 79,
      "du": 80,
      "en": 81,
      "aar": 82,
      "da": 83,
      "ngi": 84,
      "yu": 85,
      "naa": 86,
      "ju": 87,
      "mi": 88,
      "at": 89,
      "aw": 90,
      "alla": 91,
      "or": 92,
      "xam": 93,
      "ku": 94,
      "ii": 95,
      "fa": 96,
      "mb": 97,
      "leen": 98,
      "yalla": 99,
      "loo": 100,
      "jë": 101,
      "wax": 102,
      "moo": 103,
      "ca": 104,
      "gu": 105,
      "le": 106,
      "ti": 107,
      "enn": 108,
      "wu": 109,
      "ox": 110,
      "ab": 111,
      "aan": 112,
      "si": 113,
      "el": 114,
      "sa": 115,
      "aal": 116,
      "on": 117,
      "ol": 118,
      "re": 119,
      "def": 120,
      "nekk": 121,
      "ta": 122,
      "ri": 123,
      "ñi": 124,
      "ji": 125,
      "ëgg": 126,
      "opp": 127,
      "nga": 128,
      "waay": 129,
      "seen": 130,
      "gë": 131,
      "nag": 132,
      "man": 133,
      "ki": 134,
      "épp": 135,
      "sam": 136,
      "ru": 137,
      "ndax": 138,
      "it": 139,
      "se": 140,
      "fe": 141,
      "moom": 142,
      "ngir": 143,
      "waa": 144,
      "maa": 145,
      "waaye": 146,
      "ja": 147,
      "ale": 148,
      "ya": 149,
      "ul": 150,
      "óo": 151,
      "baa": 152,
      "yee": 153,
      "ër": 154,
      "laa": 155,
      "éew": 156,
      "dd": 157,
      "nj": 158,
      "bar": 159,
      "boo": 160,
      "fu": 161,
      "bii": 162,
      "woon": 163,
      "gis": 164,
      "tax": 165,
      "nit": 166,
      "okk": 167,
      "fi": 168,
      "eex": 169,
      "éen": 170,
      "gal": 171,
      "lee": 172,
      "ka": 173,
      "mooy": 174,
      "dina": 175,
      "war": 176,
      "cc": 177,
      "kat": 178,
      "dafa": 179,
      "wi": 180,
      "ra": 181,
      "ñaar": 182,
      "benn": 183,
      "doon": 184,
      "dë": 185,
      "ang": 186,
      "et": 187,
      "tee": 188,
      "mel": 189,
      "tal": 190,
      "dal": 191,
      "ñoo": 192,
      "bëgg": 193,
      "én": 194,
      "as": 195,
      "ñuy": 196,
      "doo": 197,
      "dem": 198,
      "koo": 199,
      "jur": 200,
      "oonu": 201,
      "ngeen": 202,
      "ur": 203,
      "ngu": 204,
      "sama": 205,
      "loolu": 206,
      "er": 207,
      "daa": 208,
      "ga": 209,
      "jo": 210,
      "saa": 211,
      "ara": 212,
      "taa": 213,
      "wal": 214,
      "kan": 215,
      "eel": 216,
      "bor": 217,
      "réew": 218,
      "nañu": 219,
      "dé": 220,
      "gën": 221,
      "oy": 222,
      "too": 223,
      "bokk": 224,
      "yaa": 225,
      "më": 226,
      "ge": 227,
      "ye": 228,
      "muy": 229,
      "ante": 230,
      "sax": 231,
      "yeesu": 232,
      "jam": 233,
      "so": 234,
      "ña": 235,
      "tam": 236,
      "noonu": 237,
      "kki": 238,
      "óor": 239,
      "sunu": 240,
      "nat": 241,
      "lii": 242,
      "koy": 243,
      "mbi": 244,
      "naaw": 245,
      "see": 246,
      "boroom": 247,
      "ag": 248,
      "dam": 249,
      "bal": 250,
      "ad": 251,
      "ël": 252,
      "bopp": 253,
      "dëgg": 254,
      "xe": 255,
      "woo": 256,
      "kenn": 257,
      "dee": 258,
      "wa": 259,
      "yoon": 260,
      "tan": 261,
      "rekk": 262,
      "dëkk": 263,
      "eneen": 264,
      "je": 265,
      "may": 266,
      "bé": 267,
      "do": 268,
      "xar": 269,
      "ndi": 270,
      "nee": 271,
      "baax": 272,
      "ñoom": 273,
      "jaa": 274,
      "alaa": 275,
      "yoo": 276,
      "jox": 277,
      "kaw": 278,
      "bay": 279,
      "me": 280,
      "wee": 281,
      "fan": 282,
      "gaal": 283,
      "dii": 284,
      "to": 285,
      "ali": 286,
      "juróo": 287,
      "mboo": 288,
      "teg": 289,
      "ndaxte": 290,
      "daldi": 291,
      "së": 292,
      "kon": 293,
      "nataal": 294,
      "xaa": 295,
      "gan": 296,
      "dund": 297,
      "fee": 298,
      "yo": 299,
      "ëm": 300,
      "san": 301,
      "ñaari": 302,
      "biir": 303,
      "dul": 304,
      "tée": 305,
      "bë": 306,
      "yë": 307,
      "doom": 308,
      "xel": 309,
      "yaw": 310,
      "jëm": 311,
      "we": 312,
      "japp": 313,
      "ligg": 314,
      "be": 315,
      "oppi": 316,
      "wo": 317,
      "jii": 318,
      "ari": 319,
      "sene": 320,
      "kaay": 321,
      "mag": 322,
      "kër": 323,
      "gaa": 324,
      "ñë": 325,
      "magg": 326,
      "yó": 327,
      "dox": 328,
      "xee": 329,
      "suu": 330,
      "dara": 331,
      "bari": 332,
      "day": 333,
      "tey": 334,
      "naan": 335,
      "sol": 336,
      "ug": 337,
      "liggée": 338,
      "lay": 339,
      "bind": 340,
      "and": 341,
      "senegaal": 342,
      "jig": 343,
      "të": 344,
      "njii": 345,
      "nde": 346,
      "ub": 347,
      "mën": 348,
      "fekk": 349,
      "far": 350,
      "joo": 351,
      "taxaw": 352,
      "dégg": 353,
      "jël": 354,
      "lool": 355,
      "jëkk": 356,
      "wul": 357,
      "ñépp": 358,
      "yéen": 359,
      "fay": 360,
      "jó": 361,
      "gén": 362,
      "juróom": 363,
      "ddu": 364,
      "st": 365,
      "walla": 366,
      "seeni": 367,
      "jj": 368,
      "lépp": 369,
      "wé": 370,
      "ke": 371,
      "ro": 372,
      "nii": 373,
      "ree": 374,
      "yépp": 375,
      "sar": 376,
      "waaw": 377,
      "lis": 378,
      "lë": 379,
      "ñëw": 380,
      "xol": 381,
      "kanam": 382,
      "mbaa": 383,
      "ñakk": 384,
      "ndaw": 385,
      "bee": 386,
      "daan": 387,
      "co": 388,
      "ban": 389,
      "ool": 390,
      "jigéen": 391,
      "sal": 392,
      "nanu": 393,
      "lan": 394,
      "baay": 395,
      "ati": 396,
      "ñet": 397,
      "jaar": 398,
      "jan": 399,
      "atu": 400,
      "addina": 401,
      "neex": 402,
      "gëm": 403,
      "faa": 404,
      "bayyi": 405,
      "lée": 406,
      "tol": 407,
      "jub": 408,
      "jamon": 409,
      "topp": 410,
      "takk": 411,
      "itam": 412,
      "digg": 413,
      "yit": 414,
      "leer": 415,
      "suuf": 416,
      "mucc": 417,
      "jal": 418,
      "gin": 419,
      "po": 420,
      "liggéey": 421,
      "yar": 422,
      "lañu": 423,
      "bare": 424,
      "bañ": 425,
      "bakk": 426,
      "del": 427,
      "nt": 428,
      "jang": 429,
      "ib": 430,
      "amul": 431,
      "jot": 432,
      "yée": 433,
      "yé": 434,
      "laay": 435,
      "rig": 436,
      "soo": 437,
      "olli": 438,
      "yor": 439,
      "ut": 440,
      "noo": 441,
      "lox": 442,
      "pi": 443,
      "mbir": 444,
      "sox": 445,
      "xalaa": 446,
      "ré": 447,
      "rée": 448,
      "mar": 449,
      "ciy": 450,
      "tedd": 451,
      "rë": 452,
      "aaru": 453,
      "daal": 454,
      "rafe": 455,
      "dugg": 456,
      "kaa": 457,
      "atte": 458,
      "yii": 459,
      "ñaan": 460,
      "jëf": 461,
      "dolli": 462,
      "laaj": 463,
      "góor": 464,
      "ëpp": 465,
      "xéew": 466,
      "ginnaaw": 467,
      "lo": 468,
      "sii": 469,
      "ñeen": 470,
      "dama": 471,
      "fii": 472,
      "tali": 473,
      "yón": 474,
      "pe": 475,
      "jé": 476,
      "mbu": 477,
      "askan": 478,
      "um": 479,
      "fukki": 480,
      "mat": 481,
      "nguur": 482,
      "lam": 483,
      "fukk": 484,
      "af": 485,
      "noppi": 486,
      "kaar": 487,
      "go": 488,
      "ddi": 489,
      "lekk": 490,
      "toog": 491,
      "gar": 492,
      "riñ": 493,
      "mujj": 494,
      "ame": 495,
      "say": 496,
      "jamono": 497,
      "aki": 498,
      "ñaa": 499,
      "rafet": 500,
      "doole": 501,
      "ént": 502,
      "tii": 503,
      "gii": 504,
      "kiri": 505,
      "yooyu": 506,
      "ell": 507,
      "dang": 508,
      "of": 509,
      "dan": 510,
      "gee": 511,
      "xéewël": 512,
      "dañu": 513,
      "ton": 514,
      "tuu": 515,
      "xale": 516,
      "kirist": 517,
      "taali": 518,
      "des": 519,
      "nun": 520,
      "nangu": 521,
      "mbooloo": 522,
      "amoon": 523,
      "xalaat": 524,
      "boppam": 525,
      "mee": 526,
      "us": 527,
      "bul": 528,
      "boobu": 529,
      "mii": 530,
      "atum": 531,
      "jeex": 532,
      "alal": 533,
      "goo": 534,
      "xaalis": 535,
      "kili": 536,
      "gée": 537,
      "maanaa": 538,
      "wallu": 539,
      "xu": 540,
      "foo": 541,
      "njiitu": 542,
      "ndam": 543,
      "tay": 544,
      "bés": 545,
      "kku": 546,
      "weex": 547,
      "ngay": 548,
      "jóge": 549,
      "koom": 550,
      "nuy": 551,
      "dañoo": 552,
      "defar": 553,
      "sé": 554,
      "yaram": 555,
      "ndox": 556,
      "jafe": 557,
      "sell": 558,
      "tudd": 559,
      "seet": 560,
      "xal": 561,
      "afrig": 562,
      "gannaaw": 563,
      "jul": 564,
      "xa": 565,
      "aat": 566,
      "génn": 567,
      "léegi": 568,
      "nekkoon": 569,
      "loxo": 570,
      "mo": 571,
      "yagg": 572,
      "tollu": 573,
      "léen": 574,
      "ñiy": 575,
      "tab": 576,
      "xool": 577,
      "met": 578,
      "kii": 579,
      "in": 580,
      "way": 581,
      "gër": 582,
      "dellu": 583,
      "rab": 584,
      "téem": 585,
      "yal": 586,
      "no": 587,
      "att": 588,
      "nge": 589,
      "wacc": 590,
      "ñetti": 591,
      "tar": 592,
      "xare": 593,
      "raw": 594,
      "naka": 595,
      "yeneen": 596,
      "yokk": 597,
      "jamm": 598,
      "uru": 599,
      "té": 600,
      "xeex": 601,
      "kaddu": 602,
      "diggante": 603,
      "qu": 604,
      "xaw": 605,
      "weer": 606,
      "téemée": 607,
      "alu": 608,
      "dinaa": 609,
      "damaa": 610,
      "doomu": 611,
      "dinañu": 612,
      "yiy": 613,
      "yaakaar": 614,
      "cig": 615,
      "solo": 616,
      "ñuul": 617,
      "maanaam": 618,
      "joxe": 619,
      "feeñ": 620,
      "pa": 621,
      "njëkk": 622,
      "wër": 623,
      "agg": 624,
      "wone": 625,
      "xamxam": 626,
      "addu": 627,
      "julli": 628,
      "son": 629,
      "tur": 630,
      "mbind": 631,
      "jun": 632,
      "kay": 633,
      "garab": 634,
      "oro": 635,
      "cee": 636,
      "éem": 637,
      "dikoo": 638,
      "sañ": 639,
      "ññ": 640,
      "anam": 641,
      "indi": 642,
      "buur": 643,
      "sëriñ": 644,
      "yn": 645,
      "bakkaar": 646,
      "bbu": 647,
      "moy": 648,
      "née": 649,
      "yër": 650,
      "bb": 651,
      "xë": 652,
      "taan": 653,
      "dañuy": 654,
      "yoonu": 655,
      "néew": 656,
      "ce": 657,
      "is": 658,
      "tamit": 659,
      "tom": 660,
      "bo": 661,
      "wan": 662,
      "daj": 663,
      "tig": 664,
      "nan": 665,
      "waxtu": 666,
      "yawut": 667,
      "law": 668,
      "ól": 669,
      "tontu": 670,
      "xew": 671,
      "lakk": 672,
      "kuy": 673,
      "adduna": 674,
      "dafay": 675,
      "daw": 676,
      "waral": 677,
      "kar": 678,
      "mba": 679,
      "xan": 680,
      "kë": 681,
      "mis": 682,
      "ngëm": 683,
      "ragal": 684,
      "tas": 685,
      "ndey": 686,
      "tt": 687,
      "xeet": 688,
      "tagg": 689,
      "soppi": 690,
      "kilifa": 691,
      "bees": 692,
      "baat": 693,
      "ynént": 694,
      "kawe": 695,
      "yëg": 696,
      "lal": 697,
      "wuu": 698,
      "dugal": 699,
      "ter": 700,
      "doy": 701,
      "mana": 702,
      "jaay": 703,
      "xo": 704,
      "wet": 705,
      "ñam": 706,
      "wér": 707,
      "taalibe": 708,
      "asam": 709,
      "boole": 710,
      "hi": 711,
      "jaam": 712,
      "sopp": 713,
      "eelu": 714,
      "bon": 715,
      "gé": 716,
      "par": 717,
      "buy": 718,
      "rus": 719,
      "mënu": 720,
      "bun": 721,
      "aji": 722,
      "tul": 723,
      "mil": 724,
      "asamaan": 725,
      "jëfan": 726,
      "dar": 727,
      "aayu": 728,
      "ginaaw": 729,
      "metti": 730,
      "xib": 731,
      "réewu": 732,
      "ndu": 733,
      "wall": 734,
      "bët": 735,
      "xanaa": 736,
      "baar": 737,
      "aam": 738,
      "ham": 739,
      "yax": 740,
      "sëñ": 741,
      "tambal": 742,
      "beneen": 743,
      "nam": 744,
      "woy": 745,
      "maam": 746,
      "tank": 747,
      "coo": 748,
      "guddi": 749,
      "rum": 750,
      "fée": 751,
      "aww": 752,
      "rey": 753,
      "aas": 754,
      "géej": 755,
      "lanu": 756,
      "fat": 757,
      "yaar": 758,
      "doomi": 759,
      "daar": 760,
      "ññi": 761,
      "nguuru": 762,
      "ñooy": 763,
      "kattan": 764,
      "dée": 765,
      "ariñ": 766,
      "defee": 767,
      "soxla": 768,
      "bis": 769,
      "gox": 770,
      "glu": 771,
      "yaay": 772,
      "duñu": 773,
      "samay": 774,
      "uñu": 775,
      "ñeent": 776,
      "leegi": 777,
      "yam": 778,
      "ñii": 779,
      "net": 780,
      "xon": 781,
      "lum": 782,
      "jar": 783,
      "jum": 784,
      "ñe": 785,
      "daq": 786,
      "wer": 787,
      "olof": 788,
      "junni": 789,
      "yon": 790,
      "laam": 791,
      "yëngu": 792,
      "ray": 793,
      "mbë": 794,
      "wóor": 795,
      "tukaay": 796,
      "lim": 797,
      "booba": 798,
      "sor": 799,
      "waat": 800,
      "ubbi": 801,
      "téere": 802,
      "ker": 803,
      "ggi": 804,
      "jëfandikoo": 805,
      "ngoo": 806,
      "tër": 807,
      "tuuti": 808,
      "fo": 809,
      "xaar": 810,
      "manu": 811,
      "cu": 812,
      "wala": 813,
      "nañ": 814,
      "waar": 815,
      "tub": 816,
      "xoo": 817,
      "miy": 818,
      "es": 819,
      "juroom": 820,
      "leeral": 821,
      "samm": 822,
      "sarax": 823,
      "tugal": 824,
      "iin": 825,
      "pas": 826,
      "sang": 827,
      "luy": 828,
      "melo": 829,
      "taar": 830,
      "weeru": 831,
      "mbëgg": 832,
      "dañ": 833,
      "mbokk": 834,
      "jiitu": 835,
      "sant": 836,
      "naq": 837,
      "jikk": 838,
      "faww": 839,
      "nda": 840,
      "teel": 841,
      "jën": 842,
      "ana": 843,
      "ch": 844,
      "aboo": 845,
      "sall": 846,
      "téeméer": 847,
      "malaa": 848,
      "sakk": 849,
      "ñaaw": 850,
      "maan": 851,
      "dimb": 852,
      "teer": 853,
      "xibaar": 854,
      "wor": 855,
      "sin": 856,
      "óolu": 857,
      "njaay": 858,
      "eem": 859,
      "jege": 860,
      "diine": 861,
      "bëj": 862,
      "baab": 863,
      "dén": 864,
      "won": 865,
      "dëkku": 866,
      "maki": 867,
      "xonq": 868,
      "në": 869,
      "paa": 870,
      "óob": 871,
      "il": 872,
      "mukk": 873,
      "genn": 874,
      "waan": 875,
      "dikk": 876,
      "ndo": 877,
      "dëgër": 878,
      "ñeenti": 879,
      "yóbbu": 880,
      "bam": 881,
      "yan": 882,
      "yow": 883,
      "raay": 884,
      "biy": 885,
      "waxtaan": 886,
      "oor": 887,
      "lislaam": 888,
      "katu": 889,
      "uraan": 890,
      "taane": 891,
      "nopp": 892,
      "stu": 893,
      "nar": 894,
      "saan": 895,
      "duma": 896,
      "dogal": 897,
      "uma": 898,
      "ap": 899,
      "yuy": 900,
      "mor": 901,
      "njiit": 902,
      "soxna": 903,
      "tti": 904,
      "amee": 905,
      "taw": 906,
      "fas": 907,
      "sunuy": 908,
      "fattali": 909,
      "raa": 910,
      "musaa": 911,
      "mbe": 912,
      "mad": 913,
      "fal": 914,
      "jaamu": 915,
      "wéy": 916,
      "ram": 917,
      "xii": 918,
      "pen": 919,
      "jullit": 920,
      "wut": 921,
      "yenn": 922,
      "sul": 923,
      "cé": 924,
      "fatte": 925,
      "nent": 926,
      "aju": 927,
      "mer": 928,
      "pool": 929,
      "ala": 930,
      "buleen": 931,
      "sukk": 932,
      "tekki": 933,
      "ñett": 934,
      "yeer": 935,
      "tubaab": 936,
      "yónént": 937,
      "njaboo": 938,
      "den": 939,
      "caa": 940,
      "naar": 941,
      "gënë": 942,
      "xi": 943,
      "njang": 944,
      "ndigal": 945,
      "fé": 946,
      "gam": 947,
      "yem": 948,
      "lañ": 949,
      "déglu": 950,
      "rëy": 951,
      "wolof": 952,
      "tann": 953,
      "tabax": 954,
      "ees": 955,
      "jëw": 956,
      "ñeel": 957,
      "dees": 958,
      "jublu": 959,
      "fees": 960,
      "gaaw": 961,
      "aali": 962,
      "mas": 963,
      "joŋ": 964,
      "faatu": 965,
      "saw": 966,
      "wii": 967,
      "jóg": 968,
      "wara": 969,
      "jëmm": 970,
      "dénk": 971,
      "sanni": 972,
      "ngo": 973,
      "mbo": 974,
      "bépp": 975,
      "jële": 976,
      "qi": 977,
      "amal": 978,
      "ent": 979,
      "ook": 980,
      "looloo": 981,
      "lenn": 982,
      "jab": 983,
      "fr": 984,
      "yaq": 985,
      "rawati": 986,
      "gle": 987,
      "pól": 988,
      "saar": 989,
      "andoo": 990,
      "muham": 991,
      "gul": 992,
      "séen": 993,
      "jakk": 994,
      "kati": 995,
      "xarit": 996,
      "doxal": 997,
      "póló": 998,
      "jax": 999,
      "mbé": 1000,
      "fit": 1001,
      "defe": 1002,
      "yonent": 1003,
      "njaa": 1004,
      "jee": 1005,
      "googu": 1006,
      "yuu": 1007,
      "juu": 1008,
      "leel": 1009,
      "cam": 1010,
      "jooy": 1011,
      "waxe": 1012,
      "sakku": 1013,
      "joŋante": 1014,
      "turu": 1015,
      "ëllë": 1016,
      "sen": 1017,
      "dagg": 1018,
      "wée": 1019,
      "ñax": 1020,
      "ris": 1021,
      "njariñ": 1022,
      "waanu": 1023,
      "dinga": 1024,
      "fir": 1025,
      "mus": 1026,
      "ndaje": 1027,
      "dde": 1028,
      "jéem": 1029,
      "dóor": 1030,
      "nne": 1031,
      "lañuy": 1032,
      "piyeer": 1033,
      "defal": 1034,
      "tamb": 1035,
      "jje": 1036,
      "bunt": 1037,
      "faj": 1038,
      "nettali": 1039,
      "farã": 1040,
      "kow": 1041,
      "neena": 1042,
      "génne": 1043,
      "dëggdëgg": 1044,
      "eef": 1045,
      "der": 1046,
      "né": 1047,
      "woote": 1048,
      "malaaka": 1049,
      "nant": 1050,
      "éef": 1051,
      "réy": 1052,
      "biti": 1053,
      "niki": 1054,
      "maggal": 1055,
      "mé": 1056,
      "sh": 1057,
      "ah": 1058,
      "mbal": 1059,
      "moomu": 1060,
      "joor": 1061,
      "jumtukaay": 1062,
      "kiy": 1063,
      "një": 1064,
      "moroom": 1065,
      "mbirum": 1066,
      "xamal": 1067,
      "pu": 1068,
      "juróomb": 1069,
      "don": 1070,
      "eek": 1071,
      "all": 1072,
      "nanga": 1073,
      "dëpp": 1074,
      "tere": 1075,
      "door": 1076,
      "kopp": 1077,
      "xarnu": 1078,
      "leem": 1079,
      "daanu": 1080,
      "loom": 1081,
      "yónnee": 1082,
      "misaal": 1083,
      "danu": 1084,
      "kam": 1085,
      "per": 1086,
      "ño": 1087,
      "bakkan": 1088,
      "noon": 1089,
      "réewum": 1090,
      "judd": 1091,
      "xamle": 1092,
      "damay": 1093,
      "bir": 1094,
      "xamu": 1095,
      "set": 1096,
      "jiite": 1097,
      "jabar": 1098,
      "xamul": 1099,
      "saf": 1100,
      "yoŋ": 1101,
      "teelu": 1102,
      "guy": 1103,
      "lem": 1104,
      "faral": 1105,
      "wuute": 1106,
      "pén": 1107,
      "xay": 1108,
      "néeg": 1109,
      "akug": 1110,
      "neen": 1111,
      "taal": 1112,
      "alem": 1113,
      "muñ": 1114,
      "tukki": 1115,
      "pólótig": 1116,
      "pexe": 1117,
      "lé": 1118,
      "ruu": 1119,
      "fut": 1120,
      "gor": 1121,
      "wë": 1122,
      "xaali": 1123,
      "doxali": 1124,
      "poli": 1125,
      "yónni": 1126,
      "andi": 1127,
      "daje": 1128,
      "tor": 1129,
      "liy": 1130,
      "weesu": 1131,
      "mbooloom": 1132,
      "dere": 1133,
      "ndé": 1134,
      "mbëj": 1135,
      "almaa": 1136,
      "enni": 1137,
      "óot": 1138,
      "fekkee": 1139,
      "tëj": 1140,
      "lor": 1141,
      "tooñ": 1142,
      "laal": 1143,
      "rax": 1144,
      "delloo": 1145,
      "mbay": 1146,
      "réer": 1147,
      "yiw": 1148,
      "taxawal": 1149,
      "gërëm": 1150,
      "alq": 1151,
      "gisee": 1152,
      "mboot": 1153,
      "giy": 1154,
      "yeek": 1155,
      "bég": 1156,
      "képp": 1157,
      "yaatu": 1158,
      "jooju": 1159,
      "yére": 1160,
      "gay": 1161,
      "demee": 1162,
      "liggéeyu": 1163,
      "dig": 1164,
      "taq": 1165,
      "bésu": 1166,
      "reew": 1167,
      "nasar": 1168,
      "aj": 1169,
      "tën": 1170,
      "saytu": 1171,
      "ver": 1172,
      "futbal": 1173,
      "ndak": 1174,
      "yokku": 1175,
      "fen": 1176,
      "wetu": 1177,
      "miñ": 1178,
      "olo": 1179,
      "bëggoon": 1180,
      "danoo": 1181,
      "yore": 1182,
      "wat": 1183,
      "alekat": 1184,
      "ñeneen": 1185,
      "bbal": 1186,
      "yel": 1187,
      "bant": 1188,
      "dajale": 1189,
      "sée": 1190,
      "jant": 1191,
      "réewi": 1192,
      "waxam": 1193,
      "ngal": 1194,
      "naal": 1195,
      "jall": 1196,
      "aadama": 1197,
      "waroon": 1198,
      "kkal": 1199,
      "almaañ": 1200,
      "ngiy": 1201,
      "seede": 1202,
      "bataa": 1203,
      "tudde": 1204,
      "ëllëg": 1205,
      "ëmb": 1206,
      "rek": 1207,
      "tambalee": 1208,
      "bbi": 1209,
      "wante": 1210,
      "doomam": 1211,
      "xas": 1212,
      "antu": 1213,
      "seex": 1214,
      "look": 1215,
      "gudd": 1216,
      "yéene": 1217,
      "rii": 1218,
      "oog": 1219,
      "gëstu": 1220,
      "gone": 1221,
      "waxi": 1222,
      "diiwaanu": 1223,
      "téeméeri": 1224,
      "dana": 1225,
      "mili": 1226,
      "kooku": 1227,
      "saaru": 1228,
      "jug": 1229,
      "juddu": 1230,
      "naqar": 1231,
      "diir": 1232,
      "fon": 1233,
      "juge": 1234,
      "jënd": 1235,
      "jamonoy": 1236,
      "koppar": 1237,
      "alquraan": 1238,
      "atti": 1239,
      "saalum": 1240,
      "jaw": 1241,
      "xeetu": 1242,
      "bër": 1243,
      "hu": 1244,
      "ërëm": 1245,
      "teek": 1246,
      "usmaan": 1247,
      "muhammad": 1248,
      "só": 1249,
      "rusalem": 1250,
      "wwu": 1251,
      "ñee": 1252,
      "are": 1253,
      "yerusalem": 1254,
      "banneex": 1255,
      "mandar": 1256,
      "jafejafe": 1257,
      "nelaw": 1258,
      "ttu": 1259,
      "waxee": 1260,
      "bet": 1261,
      "kól": 1262,
      "tang": 1263,
      "vi": 1264,
      "jokk": 1265,
      "xé": 1266,
      "xara": 1267,
      "kanamu": 1268,
      "pénc": 1269,
      "dimbali": 1270,
      "wote": 1271,
      "aale": 1272,
      "matal": 1273,
      "waññi": 1274,
      "suñu": 1275,
      "foofu": 1276,
      "daara": 1277,
      "baña": 1278,
      "ndakaaru": 1279,
      "amerig": 1280,
      "danga": 1281,
      "aka": 1282,
      "mënul": 1283,
      "déet": 1284,
      "milyaar": 1285,
      "eeku": 1286,
      "lënd": 1287,
      "jangu": 1288,
      "yonnant": 1289,
      "jag": 1290,
      "diis": 1291,
      "cosaan": 1292,
      "sey": 1293,
      "weddi": 1294,
      "oto": 1295,
      "juróomi": 1296,
      "laayay": 1297,
      "cib": 1298,
      "gëna": 1299,
      "sedd": 1300,
      "tambali": 1301,
      "pó": 1302,
      "wuñu": 1303,
      "mingi": 1304,
      "wir": 1305,
      "sanc": 1306,
      "rub": 1307,
      "dangeen": 1308,
      "aange": 1309,
      "farãas": 1310,
      "ligee": 1311,
      "xaaj": 1312,
      "loxoom": 1313,
      "xaalisu": 1314,
      "sur": 1315,
      "gépp": 1316,
      "njub": 1317,
      "ngaa": 1318,
      "musal": 1319,
      "denc": 1320,
      "dog": 1321,
      "sédd": 1322,
      "laat": 1323,
      "sab": 1324,
      "kinne": 1325,
      "keneen": 1326,
      "mon": 1327,
      "om": 1328,
      "waayu": 1329,
      "buntub": 1330,
      "kkati": 1331,
      "jangal": 1332,
      "sos": 1333,
      "waxoon": 1334,
      "éel": 1335,
      "nekkul": 1336,
      "ñaareelu": 1337,
      "penku": 1338,
      "indil": 1339,
      "rawatina": 1340,
      "nja": 1341,
      "amna": 1342,
      "for": 1343,
      "dangaa": 1344,
      "yees": 1345,
      "doj": 1346,
      "xat": 1347,
      "mul": 1348,
      "kurée": 1349,
      "nay": 1350,
      "agsi": 1351,
      "roo": 1352,
      "ñenn": 1353,
      "sonn": 1354,
      "defa": 1355,
      "mbég": 1356,
      "baal": 1357,
      "allaa": 1358,
      "tele": 1359,
      "jekk": 1360,
      "feebar": 1361,
      "bak": 1362,
      "nañoo": 1363,
      "fey": 1364,
      "teef": 1365,
      "jëwriñ": 1366,
      "defoon": 1367,
      "démb": 1368,
      "gannaar": 1369,
      "wane": 1370,
      "nasaraan": 1371,
      "jappe": 1372,
      "jébbal": 1373,
      "xaj": 1374,
      "mbëggeel": 1375,
      "dingeen": 1376,
      "barab": 1377,
      "yaxya": 1378,
      "tegu": 1379,
      "tool": 1380,
      "ha": 1381,
      "ligée": 1382,
      "laata": 1383,
      "ber": 1384,
      "xamante": 1385,
      "jaax": 1386,
      "amu": 1387,
      "baayam": 1388,
      "njël": 1389,
      "këram": 1390,
      "ngan": 1391,
      "buntu": 1392,
      "nax": 1393,
      "dëggu": 1394,
      "ron": 1395,
      "ëe": 1396,
      "dex": 1397,
      "dunu": 1398,
      "kaso": 1399,
      "toll": 1400,
      "toor": 1401,
      "xeeti": 1402,
      "tiit": 1403,
      "daawu": 1404,
      "ran": 1405,
      "mburu": 1406,
      "daanaka": 1407,
      "mbooleem": 1408,
      "siin": 1409,
      "jégg": 1410,
      "wacce": 1411,
      "këru": 1412,
      "fattaliku": 1413,
      "jenn": 1414,
      "cci": 1415,
      "aab": 1416,
      "tëdd": 1417,
      "fari": 1418,
      "bark": 1419,
      "bas": 1420,
      "pay": 1421,
      "itaali": 1422,
      "tiis": 1423,
      "taggat": 1424,
      "són": 1425,
      "yégle": 1426,
      "bataaxal": 1427,
      "teem": 1428,
      "togg": 1429,
      "dellusi": 1430,
      "sotti": 1431,
      "kaayu": 1432,
      "ccu": 1433,
      "ñooñu": 1434,
      "tuubaa": 1435,
      "pal": 1436,
      "féete": 1437,
      "dof": 1438,
      "téef": 1439,
      "mam": 1440,
      "dun": 1441,
      "sónko": 1442,
      "ngë": 1443,
      "niru": 1444,
      "kuré": 1445,
      "moytu": 1446,
      "gël": 1447,
      "woowu": 1448,
      "bindéef": 1449,
      "juróombenn": 1450,
      "gen": 1451,
      "léeg": 1452,
      "nekke": 1453,
      "romb": 1454,
      "tin": 1455,
      "kaddug": 1456,
      "dooley": 1457,
      "dale": 1458,
      "deme": 1459,
      "xelam": 1460,
      "seetlu": 1461,
      "sori": 1462,
      "lëndëm": 1463,
      "nattu": 1464,
      "jëkkër": 1465,
      "seenug": 1466,
      "ank": 1467,
      "kaaraange": 1468,
      "jagleel": 1469,
      "gaañu": 1470,
      "ble": 1471,
      "nju": 1472,
      "bokkoon": 1473,
      "dayo": 1474,
      "cér": 1475,
      "gatt": 1476,
      "maay": 1477,
      "meel": 1478,
      "bée": 1479,
      "abdu": 1480,
      "saraxalekat": 1481,
      "béré": 1482,
      "mal": 1483,
      "saba": 1484,
      "res": 1485,
      "njaboot": 1486,
      "th": 1487,
      "lul": 1488,
      "jóob": 1489,
      "dawal": 1490,
      "rik": 1491,
      "lóolu": 1492,
      "nak": 1493,
      "déggee": 1494,
      "mungi": 1495,
      "juróomñaar": 1496,
      "foofa": 1497,
      "leneen": 1498,
      "sóo": 1499,
      "bala": 1500,
      "jée": 1501,
      "torox": 1502,
      "ren": 1503,
      "ndaa": 1504,
      "baree": 1505,
      "alaat": 1506,
      "junniy": 1507,
      "xamee": 1508,
      "tef": 1509,
      "takku": 1510,
      "jéggi": 1511,
      "fara": 1512,
      "firnde": 1513,
      "sacc": 1514,
      "tiim": 1515,
      "ñatti": 1516,
      "natt": 1517,
      "xoolee": 1518,
      "bóo": 1519,
      "aajo": 1520,
      "suba": 1521,
      "xame": 1522,
      "sellal": 1523,
      "jaaxle": 1524,
      "asi": 1525,
      "ndawi": 1526,
      "gub": 1527,
      "nekkee": 1528,
      "beem": 1529,
      "naay": 1530,
      "saxal": 1531,
      "juddoo": 1532,
      "farisen": 1533,
      "coon": 1534,
      "kaan": 1535,
      "texe": 1536,
      "deret": 1537,
      "dindi": 1538,
      "rakk": 1539,
      "séy": 1540,
      "fexe": 1541,
      "taxoon": 1542,
      "kañ": 1543,
      "waajal": 1544,
      "keroog": 1545,
      "koomkoom": 1546,
      "ayu": 1547,
      "tërali": 1548,
      "jëfe": 1549,
      "demal": 1550,
      "isray": 1551,
      "abu": 1552,
      "alee": 1553,
      "barkeel": 1554,
      "teewul": 1555,
      "eer": 1556,
      "araab": 1557,
      "seefaa": 1558,
      "yéeg": 1559,
      "tamblee": 1560,
      "ibraay": 1561,
      "yërmë": 1562,
      "yërëm": 1563,
      "ger": 1564,
      "jari": 1565,
      "lakku": 1566,
      "kum": 1567,
      "dok": 1568,
      "meer": 1569,
      "au": 1570,
      "feel": 1571,
      "adi": 1572,
      "jëme": 1573,
      "sil": 1574,
      "mbëggéel": 1575,
      "israyil": 1576,
      "ibraayma": 1577,
      "tuub": 1578,
      "dangay": 1579,
      "pit": 1580,
      "ëg": 1581,
      "kur": 1582,
      "taalu": 1583,
      "jaare": 1584,
      "yuuxu": 1585,
      "mbax": 1586,
      "faraas": 1587,
      "laaya": 1588,
      "xolam": 1589,
      "por": 1590,
      "pare": 1591,
      "pastef": 1592,
      "kkee": 1593,
      "koor": 1594,
      "ngelaw": 1595,
      "lees": 1596,
      "doonte": 1597,
      "dundug": 1598,
      "ful": 1599,
      "óol": 1600,
      "tegg": 1601,
      "rug": 1602,
      "turam": 1603,
      "las": 1604,
      "mbubb": 1605,
      "nos": 1606,
      "werante": 1607,
      "can": 1608,
      "diw": 1609,
      "ppu": 1610,
      "doonoon": 1611,
      "ll": 1612,
      "xelum": 1613,
      "pon": 1614,
      "xamoon": 1615,
      "wadd": 1616,
      "politig": 1617,
      "muj": 1618,
      "simili": 1619,
      "jaloo": 1620,
      "bula": 1621,
      "ñaanal": 1622,
      "nof": 1623,
      "mandi": 1624,
      "gali": 1625,
      "raññ": 1626,
      "jaarale": 1627,
      "haa": 1628,
      "gise": 1629,
      "waaj": 1630,
      "cofeel": 1631,
      "feeñal": 1632,
      "juróomñaari": 1633,
      "xëcc": 1634,
      "añ": 1635,
      "mune": 1636,
      "tug": 1637,
      "sub": 1638,
      "noflaay": 1639,
      "yërmëndé": 1640,
      "cë": 1641,
      "ot": 1642,
      "makk": 1643,
      "gaajo": 1644,
      "yób": 1645,
      "taalibeem": 1646,
      "sore": 1647,
      "jat": 1648,
      "nuyu": 1649,
      "bennoo": 1650,
      "tënk": 1651,
      "ggan": 1652,
      "yomb": 1653,
      "wirgo": 1654,
      "naw": 1655,
      "yaama": 1656,
      "ndank": 1657,
      "aada": 1658,
      "rin": 1659,
      "gém": 1660,
      "milyoŋ": 1661,
      "ligeey": 1662,
      "nn": 1663,
      "limu": 1664,
      "degg": 1665,
      "sag": 1666,
      "bëcc": 1667,
      "nanoo": 1668,
      "lug": 1669,
      "askanu": 1670,
      "mbas": 1671,
      "aq": 1672,
      "jaan": 1673,
      "tóor": 1674,
      "tit": 1675,
      "aans": 1676,
      "sida": 1677,
      "sëkk": 1678,
      "yaxantu": 1679,
      "koro": 1680,
      "fes": 1681,
      "bérab": 1682,
      "soppiku": 1683,
      "que": 1684,
      "xiif": 1685,
      "sun": 1686,
      "ñaarfukki": 1687,
      "yëf": 1688,
      "lub": 1689,
      "kanamam": 1690,
      "yéena": 1691,
      "nul": 1692,
      "aloon": 1693,
      "fer": 1694,
      "bitim": 1695,
      "sañu": 1696,
      "diiwaan": 1697,
      "doktoor": 1698,
      "lif": 1699,
      "feeñu": 1700,
      "coow": 1701,
      "fonk": 1702,
      "bërë": 1703,
      "mp": 1704,
      "móo": 1705,
      "yaqu": 1706,
      "ibn": 1707,
      "buu": 1708,
      "yegg": 1709,
      "sart": 1710,
      "jangale": 1711,
      "room": 1712,
      "nang": 1713,
      "jappale": 1714,
      "faal": 1715,
      "gat": 1716,
      "mali": 1717,
      "lat": 1718,
      "buuru": 1719,
      "dekki": 1720,
      "moodi": 1721,
      "seetaan": 1722,
      "naam": 1723,
      "meññ": 1724,
      "attekat": 1725,
      "paañ": 1726,
      "fë": 1727,
      "gara": 1728,
      "omar": 1729,
      "tale": 1730,
      "xali": 1731,
      "madu": 1732,
      "bëggee": 1733,
      "diggu": 1734,
      "sheex": 1735,
      "xóot": 1736,
      "bayyil": 1737,
      "siiw": 1738,
      "jariñ": 1739,
      "ãa": 1740,
      "óon": 1741,
      "masi": 1742,
      "suf": 1743,
      "naat": 1744,
      "abdul": 1745,
      "gas": 1746,
      "ho": 1747,
      "masu": 1748,
      "diirub": 1749,
      "andikoo": 1750,
      "xarala": 1751,
      "ndimbal": 1752,
      "fraans": 1753,
      "gisu": 1754,
      "wuma": 1755,
      "leeg": 1756,
      "jikko": 1757,
      "gune": 1758,
      "parti": 1759,
      "angal": 1760,
      "coppi": 1761,
      "xut": 1762,
      "wallug": 1763,
      "coono": 1764,
      "lante": 1765,
      "taaru": 1766,
      "mbiri": 1767,
      "cou": 1768,
      "ñetteelu": 1769,
      "daawuda": 1770,
      "yen": 1771,
      "gumba": 1772,
      "sekk": 1773,
      "cax": 1774,
      "dige": 1775,
      "ndar": 1776,
      "balaa": 1777,
      "maggat": 1778,
      "jigeen": 1779,
      "sukkandikoo": 1780,
      "allaaxi": 1781,
      "deel": 1782,
      "alx": 1783,
      "ort": 1784,
      "firi": 1785,
      "takkder": 1786,
      "rëcc": 1787,
      "samp": 1788,
      "njée": 1789,
      "dalal": 1790,
      "wert": 1791,
      "daf": 1792,
      "ñibbi": 1793,
      "xob": 1794,
      "bammeel": 1795,
      "xebaar": 1796,
      "mbootaayu": 1797,
      "musi": 1798,
      "juma": 1799,
      "dall": 1800,
      "saay": 1801,
      "ŋŋ": 1802,
      "galile": 1803,
      "soon": 1804,
      "liku": 1805,
      "jeexii": 1806,
      "sóob": 1807,
      "uf": 1808,
      "barke": 1809,
      "atul": 1810,
      "yégal": 1811,
      "lammiñ": 1812,
      "fenn": 1813,
      "baane": 1814,
      "xëtu": 1815,
      "soppe": 1816,
      "doxalin": 1817,
      "ate": 1818,
      "fatt": 1819,
      "bakke": 1820,
      "seytaane": 1821,
      "suul": 1822,
      "song": 1823,
      "woor": 1824,
      "yooyee": 1825,
      "yég": 1826,
      "juuf": 1827,
      "mbootaay": 1828,
      "koronaa": 1829,
      "waru": 1830,
      "jangoro": 1831,
      "mun": 1832,
      "tuur": 1833,
      "dégén": 1834,
      "dey": 1835,
      "bokkul": 1836,
      "wenn": 1837,
      "yewwu": 1838,
      "pacc": 1839,
      "geneen": 1840,
      "waaru": 1841,
      "jallo": 1842,
      "ñun": 1843,
      "tëral": 1844,
      "gaynde": 1845,
      "alxuraan": 1846,
      "car": 1847,
      "ñor": 1848,
      "lumu": 1849,
      "aayam": 1850,
      "ero": 1851,
      "dëggal": 1852,
      "rëdd": 1853,
      "sonal": 1854,
      "wuutu": 1855,
      "lër": 1856,
      "mbakke": 1857,
      "les": 1858,
      "tani": 1859,
      "liggéeyukaay": 1860,
      "ami": 1861,
      "bur": 1862,
      "xeer": 1863,
      "juróomñeent": 1864,
      "reelu": 1865,
      "woyof": 1866,
      "manuta": 1867,
      "kol": 1868,
      "bat": 1869,
      "baatu": 1870,
      "talu": 1871,
      "lëre": 1872,
      "taalif": 1873,
      "sawara": 1874,
      "kee": 1875,
      "roy": 1876,
      "badu": 1877,
      "tund": 1878,
      "sikk": 1879,
      "ser": 1880,
      "fiy": 1881,
      "sabab": 1882,
      "pée": 1883,
      "wam": 1884,
      "muri": 1885,
      "wiy": 1886,
      "tollook": 1887,
      "xawma": 1888,
      "coobare": 1889,
      "bit": 1890,
      "booy": 1891,
      "seer": 1892,
      "yanke": 1893,
      "pt": 1894,
      "ve": 1895,
      "seeti": 1896,
      "kaas": 1897,
      "mbedd": 1898,
      "bëccëg": 1899,
      "bawoo": 1900,
      "ndeel": 1901,
      "fann": 1902,
      "andiku": 1903,
      "andal": 1904,
      "ndamu": 1905,
      "menn": 1906,
      "mbóo": 1907,
      "wow": 1908,
      "waxambaane": 1909,
      "cay": 1910,
      "muu": 1911,
      "wurus": 1912,
      "bri": 1913,
      "yay": 1914,
      "amuñu": 1915,
      "dungeen": 1916,
      "wuññi": 1917,
      "jaaxal": 1918,
      "weeri": 1919,
      "reer": 1920,
      "jaxas": 1921,
      "lempo": 1922,
      "yeen": 1923,
      "dëddu": 1924,
      "mbaam": 1925,
      "nooy": 1926,
      "siiwal": 1927,
      "musiba": 1928,
      "tekk": 1929,
      "mujje": 1930,
      "cce": 1931,
      "pilaat": 1932,
      "eki": 1933,
      "tëgg": 1934,
      "ñó": 1935,
      "nir": 1936,
      "yërman": 1937,
      "jikkó": 1938,
      "bax": 1939,
      "ngali": 1940,
      "juróomñett": 1941,
      "sañsañ": 1942,
      "xiir": 1943,
      "ppi": 1944,
      "gadd": 1945,
      "taange": 1946,
      "suufu": 1947,
      "kuréel": 1948,
      "kal": 1949,
      "pee": 1950,
      "lax": 1951,
      "tallal": 1952,
      "digal": 1953,
      "kepp": 1954,
      "tasaar": 1955,
      "yoy": 1956,
      "din": 1957,
      "dakk": 1958,
      "teew": 1959,
      "picc": 1960,
      "yelloo": 1961,
      "sufyanke": 1962,
      "ngóor": 1963,
      "taax": 1964,
      "mboq": 1965,
      "xarañ": 1966,
      "lëré": 1967,
      "men": 1968,
      "nug": 1969,
      "waajur": 1970,
      "jëmale": 1971,
      "soldaar": 1972,
      "laan": 1973,
      "nen": 1974,
      "waxal": 1975,
      "leur": 1976,
      "gënoon": 1977,
      "jëmé": 1978,
      "kese": 1979,
      "yékkati": 1980,
      "moŋ": 1981,
      "surga": 1982,
      "angalteer": 1983,
      "poo": 1984,
      "ëndi": 1985,
      "tion": 1986,
      "jjan": 1987,
      "bank": 1988,
      "doxalinu": 1989,
      "borom": 1990,
      "toogu": 1991,
      "woowe": 1992,
      "wetam": 1993,
      "njéeme": 1994,
      "adu": 1995,
      "koon": 1996,
      "ñaw": 1997,
      "bëggbëgg": 1998,
      "tabbi": 1999,
      "ceeb": 2000,
      "njaq": 2001,
      "ngoon": 2002,
      "tolluwaay": 2003,
      "dëppoo": 2004,
      "jokkoo": 2005,
      "otris": 2006,
      "singali": 2007,
      "dinanu": 2008,
      "weñ": 2009,
      "kem": 2010,
      "xarekat": 2011,
      "xéy": 2012,
      "jépp": 2013,
      "kujje": 2014,
      "teeru": 2015,
      "maye": 2016,
      "yitte": 2017,
      "jiy": 2018,
      "booloo": 2019,
      "warul": 2020,
      "xelu": 2021,
      "bey": 2022,
      "ligéey": 2023,
      "yab": 2024,
      "lig": 2025,
      "nje": 2026,
      "dootu": 2027,
      "dootul": 2028,
      "wom": 2029,
      "téye": 2030,
      "coppite": 2031,
      "digën": 2032,
      "ata": 2033,
      "rusi": 2034,
      "yallaa": 2035,
      "maane": 2036,
      "kóllëre": 2037,
      "béréb": 2038,
      "sóobu": 2039,
      "nangoo": 2040,
      "tus": 2041,
      "gaddu": 2042,
      "kaati": 2043,
      "nguurug": 2044,
      "danuy": 2045,
      "jiital": 2046,
      "tankam": 2047,
      "un": 2048,
      "ggu": 2049,
      "kéem": 2050,
      "lon": 2051,
      "salaa": 2052,
      "waal": 2053,
      "yox": 2054,
      "diku": 2055,
      "manees": 2056,
      "génnee": 2057,
      "sarxal": 2058,
      "móodu": 2059,
      "ñse": 2060,
      "alkaati": 2061,
      "kos": 2062,
      "gindi": 2063,
      "sukkandiku": 2064,
      "donn": 2065,
      "anta": 2066,
      "lin": 2067,
      "farlu": 2068,
      "banni": 2069,
      "nataalu": 2070,
      "baale": 2071,
      "xayma": 2072,
      "kurél": 2073,
      "garabu": 2074,
      "liis": 2075,
      "rafetal": 2076,
      "déedéet": 2077,
      "jakkaar": 2078,
      "allaaxira": 2079,
      "almasi": 2080,
      "laq": 2081,
      "bati": 2082,
      "maak": 2083,
      "xet": 2084,
      "faju": 2085,
      "elaa": 2086,
      "maangi": 2087,
      "wooye": 2088,
      "ñëwee": 2089,
      "xañ": 2090,
      "bakat": 2091,
      "app": 2092,
      "dak": 2093,
      "gët": 2094,
      "rajo": 2095,
      "ñaareel": 2096,
      "reewi": 2097,
      "amerik": 2098,
      "kóllëré": 2099,
      "mm": 2100,
      "mépp": 2101,
      "mari": 2102,
      "oona": 2103,
      "walli": 2104,
      "liggéeykat": 2105,
      "ñaxtu": 2106,
      "xéewal": 2107,
      "jeexit": 2108,
      "xareb": 2109,
      "sel": 2110,
      "aate": 2111,
      "aasi": 2112,
      "muur": 2113,
      "wuy": 2114,
      "óom": 2115,
      "bëgga": 2116,
      "téeré": 2117,
      "melokaan": 2118,
      "tambli": 2119,
      "sas": 2120,
      "yebal": 2121,
      "sowwu": 2122,
      "juróombenni": 2123,
      "ir": 2124,
      "muus": 2125,
      "aaya": 2126,
      "wiris": 2127,
      "janq": 2128,
      "lamp": 2129,
      "xamxamu": 2130,
      "xutbakat": 2131,
      "jolof": 2132,
      "qali": 2133,
      "ludul": 2134,
      "niy": 2135,
      "sum": 2136,
      "boobee": 2137,
      "jambaar": 2138,
      "andak": 2139,
      "këri": 2140,
      "njëg": 2141,
      "béen": 2142,
      "con": 2143,
      "fab": 2144,
      "demo": 2145,
      "bayyee": 2146,
      "maryaama": 2147,
      "ñatt": 2148,
      "waale": 2149,
      "jeexal": 2150,
      "ire": 2151,
      "mook": 2152,
      "manee": 2153,
      "manul": 2154,
      "rul": 2155,
      "ngiraan": 2156,
      "santaane": 2157,
      "siise": 2158,
      "naqari": 2159,
      "wéet": 2160,
      "ben": 2161,
      "gaar": 2162,
      "nangeen": 2163,
      "tall": 2164,
      "fanweeri": 2165,
      "séq": 2166,
      "nangul": 2167,
      "ukaay": 2168,
      "dibi": 2169,
      "yuusu": 2170,
      "niti": 2171,
      "dooleel": 2172,
      "saag": 2173,
      "déggoo": 2174,
      "gaddaay": 2175,
      "fépp": 2176,
      "jon": 2177,
      "bëgge": 2178,
      "gina": 2179,
      "jana": 2180,
      "njari": 2181,
      "daaj": 2182,
      "sowu": 2183,
      "reem": 2184,
      "bayyileen": 2185,
      "ñów": 2186,
      "ngor": 2187,
      "iir": 2188,
      "saggan": 2189,
      "lamin": 2190,
      "teral": 2191,
      "dend": 2192,
      "simoŋ": 2193,
      "bool": 2194,
      "taxul": 2195,
      "déggal": 2196,
      "jógee": 2197,
      "safaan": 2198,
      "dajaloo": 2199,
      "atoo": 2200,
      "mbam": 2201,
      "yapp": 2202,
      "yepp": 2203,
      "baaxul": 2204,
      "kilif": 2205,
      "yaayam": 2206,
      "lang": 2207,
      "ture": 2208,
      "yakk": 2209,
      "kaayi": 2210,
      "goor": 2211,
      "ngannaay": 2212,
      "jataay": 2213,
      "cër": 2214,
      "xoro": 2215,
      "laqu": 2216,
      "buum": 2217,
      "tuum": 2218,
      "gum": 2219,
      "taxawu": 2220,
      "fésal": 2221,
      "wutal": 2222,
      "asan": 2223,
      "boppu": 2224,
      "njiiti": 2225,
      "poñ": 2226,
      "xewxew": 2227,
      "couleur": 2228,
      "kó": 2229,
      "kadd": 2230,
      "toj": 2231,
      "dawaan": 2232,
      "espaañ": 2233,
      "kh": 2234,
      "ndee": 2235,
      "deful": 2236,
      "maandu": 2237,
      "daamar": 2238,
      "kawam": 2239,
      "xoolal": 2240,
      "téereb": 2241,
      "séddale": 2242,
      "mëna": 2243,
      "jëmmi": 2244,
      "léeb": 2245,
      "googee": 2246,
      "safara": 2247,
      "sépp": 2248,
      "mbar": 2249,
      "riñu": 2250,
      "saali": 2251,
      "njiil": 2252,
      "nasaraanal": 2253,
      "mbaxana": 2254,
      "bile": 2255,
      "lepp": 2256,
      "kilo": 2257,
      "baam": 2258,
      "boog": 2259,
      "sot": 2260,
      "agsee": 2261,
      "damm": 2262,
      "fanaan": 2263,
      "alukaay": 2264,
      "wërsë": 2265,
      "fran": 2266,
      "ndajem": 2267,
      "pólo": 2268,
      "pë": 2269,
      "wóolu": 2270,
      "xamuñu": 2271,
      "let": 2272,
      "sew": 2273,
      "dég": 2274,
      "raaya": 2275,
      "féq": 2276,
      "firndeel": 2277,
      "yokkute": 2278,
      "yallay": 2279,
      "tim": 2280,
      "yaasin": 2281,
      "dëkke": 2282,
      "wecc": 2283,
      "taxawaay": 2284,
      "matt": 2285,
      "meetar": 2286,
      "kayit": 2287,
      "aatu": 2288,
      "tel": 2289,
      "tes": 2290,
      "ation": 2291,
      "raxas": 2292,
      "tëralin": 2293,
      "itu": 2294,
      "jara": 2295,
      "bin": 2296,
      "laahi": 2297,
      "dogu": 2298,
      "tëx": 2299,
      "daaneel": 2300,
      "yéeme": 2301,
      "ndab": 2302,
      "dab": 2303,
      "waxu": 2304,
      "dell": 2305,
      "marse": 2306,
      "mbur": 2307,
      "ñaata": 2308,
      "miir": 2309,
      "kilifay": 2310,
      "taari": 2311,
      "britani": 2312,
      "jaxasoo": 2313,
      "inu": 2314,
      "max": 2315,
      "pël": 2316,
      "ropp": 2317,
      "juy": 2318,
      "loola": 2319,
      "wum": 2320,
      "fili": 2321,
      "metit": 2322,
      "lëkk": 2323,
      "fitna": 2324,
      "jariñu": 2325,
      "jol": 2326,
      "andul": 2327,
      "dekk": 2328,
      "sunug": 2329,
      "tawat": 2330,
      "mandarga": 2331,
      "béer": 2332,
      "digënté": 2333,
      "jay": 2334,
      "une": 2335,
      "wol": 2336,
      "yilif": 2337,
      "nday": 2338,
      "andandoo": 2339,
      "wéeru": 2340,
      "wépp": 2341,
      "was": 2342,
      "kureelu": 2343,
      "ñaq": 2344,
      "aajowoo": 2345,
      "yul": 2346,
      "naaféq": 2347,
      "looy": 2348,
      "ngañ": 2349,
      "taat": 2350,
      "sëy": 2351,
      "ginnaawam": 2352,
      "dajeek": 2353,
      "raññee": 2354,
      "wopp": 2355,
      "site": 2356,
      "ëro": 2357,
      "njort": 2358,
      "xaaju": 2359,
      "dundu": 2360,
      "teraa": 2361,
      "taarii": 2362,
      "injiil": 2363,
      "ayib": 2364,
      "buñ": 2365,
      "yiwu": 2366,
      "matu": 2367,
      "awar": 2368,
      "bart": 2369,
      "ynéntab": 2370,
      "kéemaan": 2371,
      "albu": 2372,
      "leb": 2373,
      "neef": 2374,
      "jaadu": 2375,
      "jigée": 2376,
      "jógé": 2377,
      "xibaaru": 2378,
      "makka": 2379,
      "zi": 2380,
      "ngii": 2381,
      "jotee": 2382,
      "xaajub": 2383,
      "juróomfukk": 2384,
      "gog": 2385,
      "orob": 2386,
      "lanuy": 2387,
      "nëbbu": 2388,
      "dëgëral": 2389,
      "yemale": 2390,
      "njaaloo": 2391,
      "afi": 2392,
      "pet": 2393,
      "nuru": 2394,
      "nees": 2395,
      "beek": 2396,
      "soog": 2397,
      "mbugal": 2398,
      "agu": 2399,
      "ket": 2400,
      "kóolu": 2401,
      "maar": 2402,
      "ndefar": 2403,
      "palaa": 2404,
      "ndon": 2405,
      "jib": 2406,
      "taabal": 2407,
      "jottali": 2408,
      "pite": 2409,
      "waare": 2410,
      "gémmiñ": 2411,
      "bel": 2412,
      "tli": 2413,
      "bij": 2414,
      "reg": 2415,
      "waana": 2416,
      "teey": 2417,
      "mes": 2418,
      "wottu": 2419,
      "mbiram": 2420,
      "lolu": 2421,
      "mujjee": 2422,
      "ñoñam": 2423,
      "ñen": 2424,
      "diwaan": 2425,
      "tukkee": 2426,
      "kune": 2427,
      "tapp": 2428,
      "réccu": 2429,
      "nëbb": 2430,
      "ŋa": 2431,
      "bisub": 2432,
      "matukaay": 2433,
      "safaa": 2434,
      "njam": 2435,
      "toolu": 2436,
      "mom": 2437,
      "néegu": 2438,
      "jaamam": 2439,
      "ph": 2440,
      "toon": 2441,
      "ux": 2442,
      "kolo": 2443,
      "mug": 2444,
      "sipt": 2445,
      "kool": 2446,
      "dékku": 2447,
      "yëngal": 2448,
      "gaayi": 2449,
      "caax": 2450,
      "waalo": 2451,
      "sarxalkat": 2452,
      "iinu": 2453,
      "jëfi": 2454,
      "rah": 2455,
      "erodd": 2456,
      "andoon": 2457,
      "teggi": 2458,
      "xammee": 2459,
      "sikki": 2460,
      "gerte": 2461,
      "yërmande": 2462,
      "ngërëm": 2463,
      "nett": 2464,
      "ggal": 2465,
      "dundi": 2466,
      "fetal": 2467,
      "dëkki": 2468,
      "ndimb": 2469,
      "jaasi": 2470,
      "cere": 2471,
      "kattanu": 2472,
      "demokar": 2473,
      "yuusufa": 2474,
      "sëgg": 2475,
      "ani": 2476,
      "deñ": 2477,
      "siyaar": 2478,
      "gisoon": 2479,
      "kaf": 2480,
      "ñakka": 2481,
      "jabaram": 2482,
      "wóo": 2483,
      "lar": 2484,
      "waxuma": 2485,
      "demba": 2486,
      "saajo": 2487,
      "tooy": 2488,
      "liggéeyam": 2489,
      "yées": 2490,
      "kaala": 2491,
      "yaramam": 2492,
      "mbindeef": 2493,
      "cammoo": 2494,
      "féew": 2495,
      "aloo": 2496,
      "dekkal": 2497,
      "ndë": 2498,
      "satu": 2499,
      "kin": 2500,
      "njal": 2501,
      "reetaan": 2502,
      "lamb": 2503,
      "bob": 2504,
      "noppee": 2505,
      "ñeewan": 2506,
      "dakaar": 2507,
      "ké": 2508,
      "tefes": 2509,
      "njé": 2510,
      "raŋ": 2511,
      "demoon": 2512,
      "boroomam": 2513,
      "gancax": 2514,
      "feek": 2515,
      "jiiñ": 2516,
      "banq": 2517,
      "soow": 2518,
      "yoroon": 2519,
      "léegléeg": 2520,
      "eg": 2521,
      "kël": 2522,
      "suwe": 2523,
      "mbaar": 2524,
      "saaba": 2525,
      "mbiru": 2526,
      "faat": 2527,
      "kaani": 2528,
      "paj": 2529,
      "xëy": 2530,
      "waraloon": 2531,
      "fitnaal": 2532,
      "musta": 2533,
      "tege": 2534,
      "lik": 2535,
      "iis": 2536,
      "waññ": 2537,
      "fanweer": 2538,
      "xeeb": 2539,
      "rump": 2540,
      "afirig": 2541,
      "ck": 2542,
      "nekku": 2543,
      "leena": 2544,
      "daawul": 2545,
      "seedeel": 2546,
      "xem": 2547,
      "tegtal": 2548,
      "jammaar": 2549,
      "njaqare": 2550,
      "kab": 2551,
      "sã": 2552,
      "trump": 2553,
      "woom": 2554,
      "mini": 2555,
      "tine": 2556,
      "yowaana": 2557,
      "ñew": 2558,
      "njuum": 2559,
      "tum": 2560,
      "bëggul": 2561,
      "gann": 2562,
      "fiir": 2563,
      "soppeeku": 2564,
      "séentu": 2565,
      "kureel": 2566,
      "kóolute": 2567,
      "njo": 2568,
      "fil": 2569,
      "seetu": 2570,
      "bëre": 2571,
      "alalu": 2572,
      "ndeysaan": 2573,
      "ndongo": 2574,
      "brusi": 2575,
      "kook": 2576,
      "sancu": 2577,
      "xeltu": 2578,
      "woto": 2579,
      "toppatoo": 2580,
      "ubbil": 2581,
      "ñoñ": 2582,
      "kaddoom": 2583,
      "pólotig": 2584,
      "golo": 2585,
      "aana": 2586,
      "akub": 2587,
      "niroo": 2588,
      "dugub": 2589,
      "gëdd": 2590,
      "samba": 2591,
      "ñaarfukk": 2592,
      "doŋŋ": 2593,
      "loxoy": 2594,
      "jél": 2595,
      "njëgu": 2596,
      "mala": 2597,
      "dese": 2598,
      "yeg": 2599,
      "wattu": 2600,
      "pat": 2601,
      "teen": 2602,
      "waxul": 2603,
      "yeewu": 2604,
      "gane": 2605,
      "bakkanam": 2606,
      "bërëb": 2607,
      "ds": 2608,
      "oñ": 2609,
      "teewal": 2610,
      "mës": 2611,
      "rëb": 2612,
      "paab": 2613,
      "njur": 2614,
      "jinne": 2615,
      "waani": 2616,
      "maas": 2617,
      "gisgis": 2618,
      "royu": 2619,
      "noot": 2620,
      "junne": 2621,
      "ahmad": 2622,
      "ajjana": 2623,
      "futbalkat": 2624,
      "séex": 2625,
      "dunde": 2626,
      "min": 2627,
      "samag": 2628,
      "tanki": 2629,
      "dundal": 2630,
      "lëer": 2631,
      "tuddoon": 2632,
      "rabb": 2633,
      "jumtu": 2634,
      "brusiya": 2635,
      "dërëm": 2636,
      "feneen": 2637,
      "qat": 2638,
      "tox": 2639,
      "sago": 2640,
      "fuu": 2641,
      "bëggu": 2642,
      "yedd": 2643,
      "mboolaay": 2644,
      "ahmadu": 2645,
      "farañse": 2646,
      "abdulaay": 2647,
      "filib": 2648,
      "siyaare": 2649,
      "kalaa": 2650,
      "wël": 2651,
      "nes": 2652,
      "saalumu": 2653,
      "kawar": 2654,
      "tolloo": 2655,
      "dëggdëggi": 2656,
      "méngoo": 2657,
      "sunna": 2658,
      "lijjan": 2659,
      "suqali": 2660,
      "awi": 2661,
      "jëlee": 2662,
      "waxtaane": 2663,
      "yoonal": 2664,
      "bëti": 2665,
      "doxe": 2666,
      "ndeke": 2667,
      "miin": 2668,
      "këyit": 2669,
      "safaanu": 2670,
      "faay": 2671,
      "mokk": 2672,
      "kajoor": 2673,
      "yonant": 2674,
      "weg": 2675,
      "kera": 2676,
      "namm": 2677,
      "kersa": 2678,
      "xoole": 2679,
      "sawar": 2680,
      "juuti": 2681,
      "ao": 2682,
      "reen": 2683,
      "ciw": 2684,
      "kor": 2685,
      "pom": 2686,
      "liggéeyal": 2687,
      "jange": 2688,
      "not": 2689,
      "taggoo": 2690,
      "féex": 2691,
      "biral": 2692,
      "gattal": 2693,
      "nand": 2694,
      "ngéen": 2695,
      "jom": 2696,
      "réewam": 2697,
      "yaatal": 2698,
      "fekke": 2699,
      "jëfam": 2700,
      "xuloo": 2701,
      "yeneeni": 2702,
      "banneexu": 2703,
      "rendi": 2704,
      "dóo": 2705,
      "isaa": 2706,
      "aaf": 2707,
      "bara": 2708,
      "woolu": 2709,
      "bëtu": 2710,
      "juróomñetti": 2711,
      "cosaa": 2712,
      "foog": 2713,
      "politi": 2714,
      "ajjuma": 2715,
      "cée": 2716,
      "sak": 2717,
      "xaal": 2718,
      "mudaldi": 2719,
      "tukk": 2720,
      "sah": 2721,
      "fudd": 2722,
      "meloon": 2723,
      "saasenegaal": 2724,
      "soble": 2725,
      "yooni": 2726,
      "diggan": 2727,
      "njaati": 2728,
      "teggiin": 2729,
      "bil": 2730,
      "dakkal": 2731,
      "yude": 2732,
      "yudaa": 2733,
      "wuti": 2734,
      "liggee": 2735,
      "ugh": 2736,
      "mbindéef": 2737,
      "neel": 2738,
      "ou": 2739,
      "weneen": 2740,
      "nekkal": 2741,
      "jadd": 2742,
      "yoor": 2743,
      "bes": 2744,
      "rom": 2745,
      "agul": 2746,
      "wén": 2747,
      "lab": 2748,
      "deñoo": 2749,
      "béy": 2750,
      "japple": 2751,
      "aggale": 2752,
      "musóor": 2753,
      "moroomam": 2754,
      "cant": 2755,
      "bijjaa": 2756,
      "imb": 2757,
      "yeew": 2758,
      "teere": 2759,
      "gereg": 2760,
      "yëgu": 2761,
      "lëf": 2762,
      "faale": 2763,
      "alalam": 2764,
      "ngënée": 2765,
      "jariñoo": 2766,
      "jji": 2767,
      "mó": 2768,
      "nitu": 2769,
      "mbër": 2770,
      "lewet": 2771,
      "laab": 2772,
      "tegoon": 2773,
      "bës": 2774,
      "xeeñ": 2775,
      "faatoo": 2776,
      "seetsi": 2777,
      "ndeyjoor": 2778,
      "njabootam": 2779,
      "jawwu": 2780,
      "bett": 2781,
      "pitaal": 2782,
      "pari": 2783,
      "new": 2784,
      "macc": 2785,
      "kulëer": 2786,
      "fepp": 2787,
      "woowee": 2788,
      "tof": 2789,
      "beer": 2790,
      "xalaatu": 2791,
      "pere": 2792,
      "sañsañu": 2793,
      "gore": 2794,
      "tuumaal": 2795,
      "ñeewant": 2796,
      "jeem": 2797,
      "noy": 2798,
      "napp": 2799,
      "suur": 2800,
      "manoon": 2801,
      "barabu": 2802,
      "soqi": 2803,
      "pour": 2804,
      "xët": 2805,
      "njangale": 2806,
      "kumpa": 2807,
      "gannaaru": 2808,
      "gale": 2809,
      "nóo": 2810,
      "pax": 2811,
      "ën": 2812,
      "alante": 2813,
      "andee": 2814,
      "batay": 2815,
      "juboo": 2816,
      "gunge": 2817,
      "talaa": 2818,
      "saxaar": 2819,
      "dong": 2820,
      "neeti": 2821,
      "weesoo": 2822,
      "jappoon": 2823,
      "ndegam": 2824,
      "tolluwaayu": 2825,
      "woroom": 2826,
      "bésub": 2827,
      "lijjanti": 2828,
      "eco": 2829,
      "ini": 2830,
      "ok": 2831,
      "pro": 2832,
      "artu": 2833,
      "suufe": 2834,
      "wayjur": 2835,
      "céy": 2836,
      "tóortóor": 2837,
      "caaxaan": 2838,
      "dagan": 2839,
      "xami": 2840,
      "siggi": 2841,
      "soob": 2842,
      "dëkkuwaay": 2843,
      "añs": 2844,
      "eu": 2845,
      "wel": 2846,
      "bitti": 2847,
      "luñ": 2848,
      "madi": 2849,
      "gëmu": 2850,
      "sosu": 2851,
      "yoonam": 2852,
      "tane": 2853,
      "doxale": 2854,
      "gént": 2855,
      "pole": 2856,
      "utoon": 2857,
      "ñeenteelu": 2858,
      "baaraam": 2859,
      "ñeme": 2860,
      "fent": 2861,
      "tël": 2862,
      "ãs": 2863,
      "ngóo": 2864,
      "bérëb": 2865,
      "doya": 2866,
      "joxoon": 2867,
      "mere": 2868,
      "yobbu": 2869,
      "cos": 2870,
      "léem": 2871,
      "yéemu": 2872,
      "lammi": 2873,
      "taskati": 2874,
      "jakka": 2875,
      "xaritoo": 2876,
      "xaraf": 2877,
      "fël": 2878,
      "geen": 2879,
      "maal": 2880,
      "pé": 2881,
      "altine": 2882,
      "ngé": 2883,
      "muna": 2884,
      "sipp": 2885,
      "njan": 2886,
      "demleen": 2887,
      "dénd": 2888,
      "diiné": 2889,
      "xaatim": 2890,
      "fattliku": 2891,
      "araam": 2892,
      "deao": 2893,
      "tuut": 2894,
      "nin": 2895,
      "kuur": 2896,
      "tis": 2897,
      "gaas": 2898,
      "janook": 2899,
      "fukkeelu": 2900,
      "ndamam": 2901,
      "defare": 2902,
      "njalbéen": 2903,
      "dol": 2904,
      "ëttu": 2905,
      "digle": 2906,
      "laxas": 2907,
      "bisaa": 2908,
      "temb": 2909,
      "luu": 2910,
      "njaam": 2911,
      "koomu": 2912,
      "ëppu": 2913,
      "donte": 2914,
      "riir": 2915,
      "mbégte": 2916,
      "ase": 2917,
      "cfa": 2918,
      "rang": 2919,
      "aame": 2920,
      "napole": 2921,
      "ñungi": 2922,
      "buñu": 2923,
      "ndoor": 2924,
      "gëmul": 2925,
      "jaarjaar": 2926,
      "afri": 2927,
      "meew": 2928,
      "che": 2929,
      "xamuleen": 2930,
      "tëralinu": 2931,
      "napoleon": 2932,
      "ãas": 2933,
      "eena": 2934,
      "njeex": 2935,
      "gacce": 2936,
      "yengu": 2937,
      "xewoon": 2938,
      "banti": 2939,
      "neexal": 2940,
      "yitté": 2941,
      "jallee": 2942,
      "yaramu": 2943,
      "jeexital": 2944,
      "teraanga": 2945,
      "bijjaakon": 2946,
      "he": 2947,
      "ñan": 2948,
      "ñul": 2949,
      "yiwi": 2950,
      "dananu": 2951,
      "wis": 2952,
      "sallaa": 2953,
      "cedeao": 2954,
      "misra": 2955,
      "ndeyam": 2956,
      "ñaawteef": 2957,
      "fés": 2958,
      "wënd": 2959,
      "vert": 2960,
      "baxa": 2961,
      "cal": 2962,
      "laŋ": 2963,
      "fecc": 2964,
      "aliku": 2965,
      "wél": 2966,
      "baayu": 2967,
      "ibraa": 2968,
      "tuuma": 2969,
      "ndigalu": 2970,
      "cës": 2971,
      "njuumte": 2972,
      "gab": 2973,
      "aanu": 2974,
      "nas": 2975,
      "bukki": 2976,
      "kafe": 2977,
      "liir": 2978,
      "addiis": 2979,
      "ndigg": 2980,
      "jooja": 2981,
      "nosu": 2982,
      "gémmi": 2983,
      "jumtukaayi": 2984,
      "depite": 2985,
      "moona": 2986,
      "tir": 2987,
      "jiwu": 2988,
      "sampi": 2989,
      "melne": 2990,
      "gaañ": 2991,
      "mënoon": 2992,
      "neexul": 2993,
      "mbub": 2994,
      "mboolooy": 2995,
      "guddig": 2996,
      "jaraaf": 2997,
      "mbokkam": 2998,
      "genne": 2999,
      "egg": 3000,
      "har": 3001,
      "ste": 3002,
      "dib": 3003,
      "ërë": 3004,
      "boobaa": 3005,
      "leef": 3006,
      "daaw": 3007,
      "addin": 3008,
      "jem": 3009,
      "liggéeye": 3010,
      "tëju": 3011,
      "afrik": 3012,
      "tënku": 3013,
      "vid": 3014,
      "ayubés": 3015,
      "tasaaroo": 3016,
      "cammooñ": 3017,
      "fuddën": 3018,
      "col": 3019,
      "cawar": 3020,
      "ele": 3021,
      "rat": 3022,
      "xërëm": 3023,
      "mase": 3024,
      "dag": 3025,
      "juum": 3026,
      "saabaam": 3027,
      "deesu": 3028,
      "joxoñ": 3029,
      "mboolem": 3030,
      "com": 3031,
      "géy": 3032,
      "sangara": 3033,
      "bamba": 3034,
      "verte": 3035,
      "ñenti": 3036,
      "ndekete": 3037,
      "talaata": 3038,
      "ëtt": 3039,
      "leble": 3040,
      "seri": 3041,
      "waawaaw": 3042,
      "boolee": 3043,
      "yeyoo": 3044,
      "doxand": 3045,
      "jëflë": 3046,
      "ñaawal": 3047,
      "yëgyëg": 3048,
      "noppalu": 3049,
      "nettli": 3050,
      "mustafaa": 3051,
      "doxandéem": 3052,
      "bumu": 3053,
      "éelu": 3054,
      "fekki": 3055,
      "jambur": 3056,
      "maggalu": 3057,
      "njiital": 3058,
      "jottli": 3059,
      "siidi": 3060,
      "giir": 3061,
      "defaraat": 3062,
      "xalifa": 3063,
      "cer": 3064,
      "toom": 3065,
      "giñ": 3066,
      "ente": 3067,
      "defu": 3068,
      "wex": 3069,
      "fekkoon": 3070,
      "jógal": 3071,
      "stri": 3072,
      "matale": 3073,
      "orop": 3074,
      "ndombo": 3075,
      "péeyu": 3076,
      "bre": 3077,
      "genni": 3078,
      "ttali": 3079,
      "ñat": 3080,
      "ñent": 3081,
      "gisul": 3082,
      "junj": 3083,
      "kumba": 3084,
      "ril": 3085,
      "baatam": 3086,
      "sosoo": 3087,
      "seere": 3088,
      "mboor": 3089,
      "bën": 3090,
      "joolaa": 3091,
      "ññiku": 3092,
      "yóbbaale": 3093,
      "njekk": 3094,
      "lli": 3095,
      "andu": 3096,
      "dexu": 3097,
      "loor": 3098,
      "waxtaa": 3099,
      "taf": 3100,
      "moomeel": 3101,
      "laah": 3102,
      "bokku": 3103,
      "xaadi": 3104,
      "gangune": 3105,
      "dundëm": 3106,
      "suukar": 3107,
      "jotoon": 3108,
      "karaw": 3109,
      "og": 3110,
      "masul": 3111,
      "attan": 3112,
      "mbaal": 3113,
      "waxaat": 3114,
      "teemeer": 3115,
      "xaritam": 3116,
      "sangu": 3117,
      "yëfi": 3118,
      "web": 3119,
      "begg": 3120,
      "jangle": 3121,
      "nguuram": 3122,
      "kattanug": 3123,
      "deretu": 3124,
      "taariix": 3125,
      "soqikoo": 3126,
      "masedu": 3127,
      "jaww": 3128,
      "kolaa": 3129,
      "waayam": 3130,
      "fur": 3131,
      "jong": 3132,
      "solu": 3133,
      "bindkat": 3134,
      "rongoo": 3135,
      "tuuru": 3136,
      "xumb": 3137,
      "yaggul": 3138,
      "narelaa": 3139,
      "jëkkëram": 3140,
      "bóoy": 3141,
      "munna": 3142,
      "wërsëg": 3143,
      "palaas": 3144,
      "sén": 3145,
      "lasu": 3146,
      "kom": 3147,
      "moor": 3148,
      "wug": 3149,
      "wuñ": 3150,
      "taaw": 3151,
      "yëkkati": 3152,
      "bindal": 3153,
      "ndekki": 3154,
      "taxawaayu": 3155,
      "góorlu": 3156,
      "geek": 3157,
      "aggee": 3158,
      "taggatu": 3159,
      "wérgu": 3160,
      "woykat": 3161,
      "diiney": 3162,
      "séeréer": 3163,
      "the": 3164,
      "yittewoo": 3165,
      "cëslaay": 3166,
      "nem": 3167,
      "koñ": 3168,
      "nekkin": 3169,
      "samaas": 3170,
      "fippu": 3171,
      "warug": 3172,
      "raglu": 3173,
      "saafara": 3174,
      "xere": 3175,
      "wéyal": 3176,
      "jeexi": 3177,
      "mos": 3178,
      "cosaanoo": 3179,
      "moon": 3180,
      "saal": 3181,
      "sël": 3182,
      "ttub": 3183,
      "ameel": 3184,
      "tefe": 3185,
      "mata": 3186,
      "iim": 3187,
      "kav": 3188,
      "ras": 3189,
      "angale": 3190,
      "jappee": 3191,
      "mbaax": 3192,
      "neexee": 3193,
      "jubbanti": 3194,
      "topptoo": 3195,
      "duggu": 3196,
      "lamboo": 3197,
      "doxaliin": 3198,
      "péncum": 3199,
      "koronaawiris": 3200,
      "duñ": 3201,
      "siri": 3202,
      "taamu": 3203,
      "tanq": 3204,
      "wees": 3205,
      "diiwaani": 3206,
      "jankoon": 3207,
      "jangalekat": 3208,
      "noor": 3209,
      "jëflante": 3210,
      "giiru": 3211,
      "yënguyëngu": 3212,
      "nëtëx": 3213,
      "jollasu": 3214,
      "ise": 3215,
      "meneen": 3216,
      "amti": 3217,
      "binde": 3218,
      "mur": 3219,
      "kuu": 3220,
      "ley": 3221,
      "wuyu": 3222,
      "jiroom": 3223,
      "saaga": 3224,
      "yéwén": 3225,
      "kurélu": 3226,
      "teggin": 3227,
      "jarag": 3228,
      "lëkkale": 3229,
      "ŋaññ": 3230,
      "cosaanu": 3231,
      "benni": 3232,
      "kang": 3233,
      "ps": 3234,
      "amiin": 3235,
      "andoom": 3236,
      "matul": 3237,
      "ggat": 3238,
      "basa": 3239,
      "jëli": 3240,
      "setal": 3241,
      "biiñ": 3242,
      "teefu": 3243,
      "teewe": 3244,
      "xaat": 3245,
      "daraja": 3246,
      "ndeyu": 3247,
      "noona": 3248,
      "sakka": 3249,
      "caabi": 3250,
      "toroxal": 3251,
      "yayoo": 3252,
      "walliyu": 3253,
      "ropplaan": 3254,
      "demokaraasi": 3255,
      "isipt": 3256,
      "tte": 3257,
      "yet": 3258,
      "sapp": 3259,
      "rim": 3260,
      "fedd": 3261,
      "dél": 3262,
      "tegee": 3263,
      "lopitaal": 3264,
      "ndamp": 3265,
      "taskatu": 3266,
      "ternet": 3267,
      "wéral": 3268,
      "namaa": 3269,
      "yaari": 3270,
      "wommat": 3271,
      "yoxo": 3272,
      "gaw": 3273,
      "lalu": 3274,
      "oli": 3275,
      "xul": 3276,
      "égal": 3277,
      "aaw": 3278,
      "ner": 3279,
      "aku": 3280,
      "naalu": 3281,
      "sig": 3282,
      "óoy": 3283,
      "dëkkoon": 3284,
      "tegoo": 3285,
      "yëkk": 3286,
      "njabootu": 3287,
      "barkeb": 3288,
      "cim": 3289,
      "lakki": 3290,
      "suma": 3291,
      "fajar": 3292,
      "fipp": 3293,
      "leerug": 3294,
      "jote": 3295,
      "deef": 3296,
      "darajay": 3297,
      "niir": 3298,
      "soxnaam": 3299,
      "mbuus": 3300,
      "cees": 3301,
      "gambi": 3302,
      "khari": 3303,
      "wérguyaram": 3304,
      "cat": 3305,
      "eko": 3306,
      "haal": 3307,
      "mk": 3308,
      "palaat": 3309,
      "salaat": 3310,
      "lasaar": 3311,
      "musul": 3312,
      "maw": 3313,
      "seŋ": 3314,
      "boor": 3315,
      "galag": 3316,
      "jaale": 3317,
      "sanku": 3318,
      "joojee": 3319,
      "wékk": 3320,
      "réem": 3321,
      "sammoon": 3322,
      "ñaawtéef": 3323,
      "albukhari": 3324,
      "suweŋ": 3325,
      "fuuta": 3326,
      "taay": 3327,
      "nawet": 3328,
      "lak": 3329,
      "nel": 3330,
      "nuyoo": 3331,
      "naataa": 3332,
      "ruus": 3333,
      "gallan": 3334,
      "ware": 3335,
      "dooleem": 3336,
      "gaf": 3337,
      "saaku": 3338,
      "yey": 3339,
      "yamale": 3340,
      "anaugh": 3341,
      "fajkat": 3342,
      "sénégal": 3343,
      "kavanaugh": 3344,
      "been": 3345,
      "qale": 3346,
      "kore": 3347,
      "ayi": 3348,
      "lil": 3349,
      "tubéy": 3350,
      "jumaa": 3351,
      "wunu": 3352,
      "yas": 3353,
      "fuuf": 3354,
      "dënn": 3355,
      "daam": 3356,
      "sow": 3357,
      "sokolaa": 3358,
      "jeqi": 3359,
      "mayu": 3360,
      "gaawu": 3361,
      "kere": 3362,
      "kaasamaas": 3363,
      "tiitaange": 3364,
      "wérgi": 3365,
      "foto": 3366,
      "beykat": 3367,
      "njaatige": 3368,
      "ddina": 3369,
      "ere": 3370,
      "fëgg": 3371,
      "fale": 3372,
      "góob": 3373,
      "tari": 3374,
      "ancos": 3375,
      "biri": 3376,
      "tegal": 3377,
      "mac": 3378,
      "faf": 3379,
      "gënu": 3380,
      "mango": 3381,
      "biige": 3382,
      "yaak": 3383,
      "téel": 3384,
      "tëb": 3385,
      "suufeel": 3386,
      "jékki": 3387,
      "ndustri": 3388,
      "jakkar": 3389,
      "ligéeyal": 3390,
      "rakkam": 3391,
      "sippax": 3392,
      "goro": 3393,
      "os": 3394,
      "wit": 3395,
      "naññ": 3396,
      "bunu": 3397,
      "masa": 3398,
      "badi": 3399,
      "ndare": 3400,
      "jubal": 3401,
      "tigu": 3402,
      "yenu": 3403,
      "sog": 3404,
      "fekksi": 3405,
      "lëj": 3406,
      "jalal": 3407,
      "ginaar": 3408,
      "jébb": 3409,
      "ndoxum": 3410,
      "xasida": 3411,
      "doylu": 3412,
      "yamoo": 3413,
      "jarul": 3414,
      "naroon": 3415,
      "jëwriñu": 3416,
      "nosteg": 3417,
      "gisuma": 3418,
      "mbóotam": 3419,
      "xorom": 3420,
      "cor": 3421,
      "kóo": 3422,
      "pul": 3423,
      "tó": 3424,
      "yaan": 3425,
      "diko": 3426,
      "lajj": 3427,
      "teree": 3428,
      "bune": 3429,
      "ndóol": 3430,
      "atee": 3431,
      "saq": 3432,
      "maasallaa": 3433,
      "addi": 3434,
      "melax": 3435,
      "diisoo": 3436,
      "rafetlu": 3437,
      "kilifag": 3438,
      "daqe": 3439,
      "ngomb": 3440,
      "póli": 3441,
      "noyyi": 3442,
      "ind": 3443,
      "qar": 3444,
      "ñar": 3445,
      "aani": 3446,
      "eet": 3447,
      "dibéer": 3448,
      "nesi": 3449,
      "naaj": 3450,
      "atlas": 3451,
      "allar": 3452,
      "wuleen": 3453,
      "óoba": 3454,
      "wil": 3455,
      "deem": 3456,
      "xelal": 3457,
      "doxalukaay": 3458,
      "loxol": 3459,
      "tiijaan": 3460,
      "njiitul": 3461,
      "kadduy": 3462,
      "pañe": 3463,
      "ñepp": 3464,
      "bëjsaalum": 3465,
      "mbote": 3466,
      "yokkuteg": 3467,
      "ngalteer": 3468,
      "mamadu": 3469,
      "batiku": 3470,
      "ërob": 3471,
      "cawarte": 3472,
      "gallankoor": 3473,
      "boy": 3474,
      "lóo": 3475,
      "nabas": 3476,
      "digël": 3477,
      "liñ": 3478,
      "mate": 3479,
      "nig": 3480,
      "aari": 3481,
      "awa": 3482,
      "leg": 3483,
      "itali": 3484,
      "baaxe": 3485,
      "barnabas": 3486,
      "gana": 3487,
      "araf": 3488,
      "sëq": 3489,
      "xalaatam": 3490,
      "xalam": 3491,
      "nowam": 3492,
      "mënuñu": 3493,
      "darma": 3494,
      "ubbiku": 3495,
      "yewwute": 3496,
      "taarix": 3497,
      "aamerig": 3498,
      "xereñ": 3499,
      "ggante": 3500,
      "defay": 3501,
      "tabas": 3502,
      "raf": 3503,
      "covid": 3504,
      "yaroo": 3505,
      "soxal": 3506,
      "manula": 3507,
      "yanq": 3508,
      "jaxase": 3509,
      "bóom": 3510,
      "bërëbu": 3511,
      "jammaarloo": 3512,
      "warugar": 3513,
      "pub": 3514,
      "sta": 3515,
      "dio": 3516,
      "laggi": 3517,
      "tundu": 3518,
      "oppit": 3519,
      "ange": 3520,
      "soloo": 3521,
      "soññ": 3522,
      "xarkanam": 3523,
      "jaañ": 3524,
      "sës": 3525,
      "ros": 3526,
      "langu": 3527,
      "mars": 3528,
      "waxtuw": 3529,
      "xoolaat": 3530,
      "paaka": 3531,
      "ndogal": 3532,
      "monte": 3533,
      "kuréelu": 3534,
      "jongante": 3535,
      "endustri": 3536,
      "ken": 3537,
      "poor": 3538,
      "bid": 3539,
      "tek": 3540,
      "aksi": 3541,
      "nite": 3542,
      "aare": 3543,
      "kub": 3544,
      "mane": 3545,
      "joge": 3546,
      "taas": 3547,
      "tamm": 3548,
      "yool": 3549,
      "juróomñeenti": 3550,
      "sartu": 3551,
      "geej": 3552,
      "geestu": 3553,
      "bulaan": 3554,
      "wuuteek": 3555,
      "ndaamar": 3556,
      "tasaare": 3557,
      "njangum": 3558,
      "mbubboo": 3559,
      "gati": 3560,
      "hii": 3561,
      "kees": 3562,
      "patt": 3563,
      "raat": 3564,
      "uri": 3565,
      "ëw": 3566,
      "nation": 3567,
      "tuddu": 3568,
      "awma": 3569,
      "xamne": 3570,
      "seenub": 3571,
      "samdi": 3572,
      "taatu": 3573,
      "jekki": 3574,
      "juróomfukki": 3575,
      "ndawal": 3576,
      "lank": 3577,
      "tuddee": 3578,
      "melow": 3579,
      "xér": 3580,
      "telefon": 3581,
      "juróombennfukk": 3582,
      "jakkaarlook": 3583,
      "maneesu": 3584,
      "waññeeku": 3585,
      "ngóone": 3586,
      "sampiyoŋ": 3587,
      "tefesu": 3588,
      "ry": 3589,
      "yite": 3590,
      "yuñ": 3591,
      "mbet": 3592,
      "caggante": 3593,
      "jah": 3594,
      "joh": 3595,
      "mël": 3596,
      "dundam": 3597,
      "bos": 3598,
      "sangam": 3599,
      "jëmmal": 3600,
      "murid": 3601,
      "jakkaarloo": 3602,
      "toftal": 3603,
      "im": 3604,
      "róo": 3605,
      "yatt": 3606,
      "amatul": 3607,
      "nijaay": 3608,
      "sulet": 3609,
      "waxna": 3610,
      "sib": 3611,
      "jaune": 3612,
      "saas": 3613,
      "sobe": 3614,
      "biiram": 3615,
      "wotey": 3616,
      "bindu": 3617,
      "bayyikoo": 3618,
      "jëfëndi": 3619,
      "malaakam": 3620,
      "yanu": 3621,
      "muslim": 3622,
      "jafejafey": 3623,
      "bakar": 3624,
      "faayda": 3625,
      "basaŋ": 3626,
      "dax": 3627,
      "dër": 3628,
      "kalla": 3629,
      "depp": 3630,
      "xamente": 3631,
      "simon": 3632,
      "jaambur": 3633,
      "tomb": 3634,
      "sëf": 3635,
      "jappal": 3636,
      "ubbee": 3637,
      "rou": 3638,
      "jalgati": 3639,
      "soxor": 3640,
      "kaane": 3641,
      "góorgóorlu": 3642,
      "tayyi": 3643,
      "melosuuf": 3644,
      "persida": 3645,
      "nasaret": 3646,
      "wata": 3647,
      "latjoor": 3648,
      "murit": 3649,
      "yegsi": 3650,
      "royukaay": 3651,
      "va": 3652,
      "masaa": 3653,
      "orge": 3654,
      "señ": 3655,
      "waayi": 3656,
      "kacc": 3657,
      "rabi": 3658,
      "jural": 3659,
      "seetal": 3660,
      "jeego": 3661,
      "loru": 3662,
      "aduna": 3663,
      "doyadi": 3664,
      "idi": 3665,
      "ngale": 3666,
      "danañu": 3667,
      "midi": 3668,
      "sesaar": 3669,
      "dën": 3670,
      "dundël": 3671,
      "nanguwul": 3672,
      "kayitu": 3673,
      "fulla": 3674,
      "yóbbe": 3675,
      "muuñ": 3676,
      "waajuram": 3677,
      "kilomet": 3678,
      "tabaski": 3679,
      "cel": 3680,
      "hal": 3681,
      "kari": 3682,
      "sóor": 3683,
      "usi": 3684,
      "kowe": 3685,
      "laabal": 3686,
      "taayi": 3687,
      "duggee": 3688,
      "tabbal": 3689,
      "bbax": 3690,
      "sakkan": 3691,
      "jumtukaayu": 3692,
      "njënd": 3693,
      "xarnub": 3694,
      "payoor": 3695,
      "nawle": 3696,
      "ngënéel": 3697,
      "yanqóoba": 3698,
      "polo": 3699,
      "biñ": 3700,
      "guñu": 3701,
      "siti": 3702,
      "gënal": 3703,
      "soŋ": 3704,
      "xaru": 3705,
      "feese": 3706,
      "liggéeyi": 3707,
      "wersite": 3708,
      "manuma": 3709,
      "cuur": 3710,
      "dikkal": 3711,
      "fallu": 3712,
      "puul": 3713,
      "moytuleen": 3714,
      "ayubes": 3715,
      "ekib": 3716,
      "njambaar": 3717,
      "dóomu": 3718,
      "ñarelaa": 3719,
      "gre": 3720,
      "aasu": 3721,
      "cin": 3722,
      "ane": 3723,
      "ano": 3724,
      "antal": 3725,
      "dikaa": 3726,
      "mah": 3727,
      "duy": 3728,
      "siy": 3729,
      "yombal": 3730,
      "gaawan": 3731,
      "doxantu": 3732,
      "jaaro": 3733,
      "génné": 3734,
      "xotti": 3735,
      "wormaal": 3736,
      "céndu": 3737,
      "farãs": 3738,
      "jeexiital": 3739,
      "jigéenu": 3740,
      "photo": 3741,
      "kée": 3742,
      "loy": 3743,
      "mc": 3744,
      "oŋ": 3745,
      "yat": 3746,
      "alku": 3747,
      "naf": 3748,
      "armi": 3749,
      "mati": 3750,
      "sut": 3751,
      "suy": 3752,
      "jukki": 3753,
      "wute": 3754,
      "kana": 3755,
      "bayi": 3756,
      "yëre": 3757,
      "yéenee": 3758,
      "star": 3759,
      "defaral": 3760,
      "tabb": 3761,
      "wonee": 3762,
      "gammu": 3763,
      "wéer": 3764,
      "buuri": 3765,
      "feex": 3766,
      "géew": 3767,
      "jeneen": 3768,
      "poro": 3769,
      "tra": 3770,
      "xab": 3771,
      "amug": 3772,
      "nara": 3773,
      "yile": 3774,
      "yah": 3775,
      "bëggante": 3776,
      "boroo": 3777,
      "gejje": 3778,
      "george": 3779,
      "damu": 3780,
      "doomaadama": 3781,
      "ñëwal": 3782,
      "ndawam": 3783,
      "ceebu": 3784,
      "xaaral": 3785,
      "goreel": 3786,
      "delloosi": 3787,
      "jéggal": 3788,
      "mujju": 3789,
      "nirook": 3790,
      "digganteem": 3791,
      "iniwersite": 3792,
      "waxtaanu": 3793,
      "maseduwan": 3794,
      "allarba": 3795,
      "biddii": 3796,
      "ine": 3797,
      "ty": 3798,
      "uk": 3799,
      "vo": 3800,
      "aama": 3801,
      "bidiw": 3802,
      "nis": 3803,
      "nus": 3804,
      "faggu": 3805,
      "mbali": 3806,
      "tilaa": 3807,
      "jiyaar": 3808,
      "taxu": 3809,
      "waree": 3810,
      "gannaay": 3811,
      "gaam": 3812,
      "gaale": 3813,
      "stor": 3814,
      "xuux": 3815,
      "xajj": 3816,
      "waccu": 3817,
      "taalibey": 3818,
      "bataaxel": 3819,
      "jawriñ": 3820,
      "bérébu": 3821,
      "mandiŋ": 3822,
      "fësal": 3823,
      "kalaame": 3824,
      "ndampaay": 3825,
      "indaale": 3826,
      "fm": 3827,
      "ili": 3828,
      "lol": 3829,
      "nangay": 3830,
      "dim": 3831,
      "ten": 3832,
      "akar": 3833,
      "tiye": 3834,
      "tilim": 3835,
      "maale": 3836,
      "laaf": 3837,
      "melal": 3838,
      "bëggë": 3839,
      "éntam": 3840,
      "balu": 3841,
      "bayit": 3842,
      "magam": 3843,
      "bindoo": 3844,
      "faran": 3845,
      "toppoon": 3846,
      "nté": 3847,
      "coor": 3848,
      "ngoog": 3849,
      "neenal": 3850,
      "limub": 3851,
      "jataayub": 3852,
      "njobbax": 3853,
      "liggeey": 3854,
      "jeqiku": 3855,
      "wérgiyaram": 3856,
      "ngomblaan": 3857,
      "jolli": 3858,
      "lëm": 3859,
      "ofi": 3860,
      "aaday": 3861,
      "diwaar": 3862,
      "bato": 3863,
      "caf": 3864,
      "lekool": 3865,
      "yeex": 3866,
      "wareef": 3867,
      "bëgguma": 3868,
      "bokkeef": 3869,
      "dëkkandoo": 3870,
      "jeng": 3871,
      "téeréem": 3872,
      "joob": 3873,
      "jëkka": 3874,
      "ndawu": 3875,
      "ginne": 3876,
      "kaam": 3877,
      "mujjoon": 3878,
      "dajee": 3879,
      "ndeyjoo": 3880,
      "joŋanteb": 3881,
      "jeexiit": 3882,
      "ngañdemba": 3883,
      "gó": 3884,
      "loppit": 3885,
      "aalu": 3886,
      "alali": 3887,
      "layoo": 3888,
      "ngërë": 3889,
      "giléem": 3890,
      "aaye": 3891,
      "dadaan": 3892,
      "lebal": 3893,
      "nekkinu": 3894,
      "mani": 3895,
      "rap": 3896,
      "doonul": 3897,
      "asaka": 3898,
      "toogal": 3899,
      "tëer": 3900,
      "ston": 3901,
      "wéddi": 3902,
      "diggi": 3903,
      "pot": 3904,
      "pose": 3905,
      "ibliis": 3906,
      "ump": 3907,
      "sayi": 3908,
      "tiir": 3909,
      "meeri": 3910,
      "rawante": 3911,
      "ñeentfukk": 3912,
      "dénkaane": 3913,
      "ndigali": 3914,
      "jaxate": 3915,
      "terewul": 3916,
      "tangoor": 3917,
      "taggatkat": 3918,
      "haaji": 3919,
      "dibidibi": 3920,
      "mawdo": 3921,
      "jor": 3922,
      "kallaa": 3923,
      "rmidi": 3924,
      "eeli": 3925,
      "ndoo": 3926,
      "ppaa": 3927,
      "aaral": 3928,
      "timo": 3929,
      "defleen": 3930,
      "fexee": 3931,
      "raññiku": 3932,
      "suux": 3933,
      "jëlé": 3934,
      "yéenay": 3935,
      "mbul": 3936,
      "mbubbu": 3937,
      "dangeena": 3938,
      "jëfandiku": 3939,
      "coona": 3940,
      "goxu": 3941,
      "kamb": 3942,
      "yéenekaay": 3943,
      "attirmidi": 3944,
      "waññiku": 3945,
      "sottal": 3946,
      "dolaar": 3947,
      "timote": 3948,
      "az": 3949,
      "nor": 3950,
      "aljuma": 3951,
      "ling": 3952,
      "luga": 3953,
      "daŋ": 3954,
      "kun": 3955,
      "jërë": 3956,
      "tiwaaw": 3957,
      "jotu": 3958,
      "mem": 3959,
      "kontar": 3960,
      "rot": 3961,
      "tolof": 3962,
      "tiitar": 3963,
      "wallum": 3964,
      "sér": 3965,
      "kattanam": 3966,
      "soree": 3967,
      "juroomi": 3968,
      "kamara": 3969,
      "raxci": 3970,
      "sidaŋ": 3971,
      "dundin": 3972,
      "nóonu": 3973,
      "batayit": 3974,
      "njeexit": 3975,
      "nowambar": 3976,
      "cuuraay": 3977,
      "cang": 3978,
      "id": 3979,
      "jort": 3980,
      "ant": 3981,
      "dibeer": 3982,
      "nela": 3983,
      "musu": 3984,
      "buso": 3985,
      "attee": 3986,
      "ordina": 3987,
      "taxna": 3988,
      "ers": 3989,
      "saaj": 3990,
      "yaas": 3991,
      "jefan": 3992,
      "bét": 3993,
      "béri": 3994,
      "ganaar": 3995,
      "bere": 3996,
      "reewum": 3997,
      "tont": 3998,
      "ters": 3999,
      "féey": 4000,
      "cho": 4001,
      "pólótigu": 4002,
      "saggane": 4003,
      "koloñ": 4004,
      "xemmee": 4005,
      "mokkal": 4006,
      "siidiya": 4007,
      "rongooñ": 4008,
      "faranse": 4009,
      "cent": 4010,
      "falu": 4011,
      "isin": 4012,
      "ment": 4013,
      "ëb": 4014,
      "amuma": 4015,
      "biram": 4016,
      "yima": 4017,
      "mabb": 4018,
      "sutu": 4019,
      "naak": 4020,
      "gëme": 4021,
      "waañ": 4022,
      "óok": 4023,
      "rabu": 4024,
      "neek": 4025,
      "neew": 4026,
      "jëloon": 4027,
      "sooy": 4028,
      "kaasu": 4029,
      "siis": 4030,
      "garu": 4031,
      "loxob": 4032,
      "pakk": 4033,
      "kayi": 4034,
      "daaray": 4035,
      "njaayum": 4036,
      "yiwam": 4037,
      "toroxlu": 4038,
      "porti": 4039,
      "yakkamti": 4040,
      "caar": 4041,
      "fati": 4042,
      "imaam": 4043,
      "xeel": 4044,
      "nakk": 4045,
      "diwaanu": 4046,
      "deg": 4047,
      "magi": 4048,
      "yun": 4049,
      "yeene": 4050,
      "kas": 4051,
      "dalee": 4052,
      "yekkati": 4053,
      "gëmoon": 4054,
      "kaanu": 4055,
      "dégluleen": 4056,
      "sababu": 4057,
      "amina": 4058,
      "ndimbalu": 4059,
      "xaadir": 4060,
      "raxcidolli": 4061,
      "efes": 4062,
      "jen": 4063,
      "aram": 4064,
      "komi": 4065,
      "naataange": 4066,
      "jubadi": 4067,
      "kim": 4068,
      "sambar": 4069,
      "fuglu": 4070,
      "ñaare": 4071,
      "dëfël": 4072,
      "bokkaale": 4073,
      "jaami": 4074,
      "xaacu": 4075,
      "xeewal": 4076,
      "wéyee": 4077,
      "lëñ": 4078,
      "xolli": 4079,
      "ñetteel": 4080,
      "faati": 4081,
      "toppe": 4082,
      "takkal": 4083,
      "xoolleen": 4084,
      "xeexal": 4085,
      "xamxamam": 4086,
      "turki": 4087,
      "goxgox": 4088,
      "tërë": 4089,
      "apr": 4090,
      "camp": 4091,
      "xamunu": 4092,
      "naqarlu": 4093,
      "gaañugaañu": 4094,
      "silla": 4095,
      "salaam": 4096,
      "céet": 4097,
      "kale": 4098,
      "njuu": 4099,
      "olig": 4100,
      "raal": 4101,
      "sër": 4102,
      "yóo": 4103,
      "awu": 4104,
      "wund": 4105,
      "abóo": 4106,
      "ablaay": 4107,
      "sir": 4108,
      "seenu": 4109,
      "samb": 4110,
      "leek": 4111,
      "bennal": 4112,
      "sank": 4113,
      "xeetam": 4114,
      "farat": 4115,
      "sargal": 4116,
      "pepp": 4117,
      "toogee": 4118,
      "bakkaarkat": 4119,
      "waxtuy": 4120,
      "xolu": 4121,
      "daraa": 4122,
      "raaf": 4123,
      "amunu": 4124,
      "juróomñaarfukk": 4125,
      "bitimréew": 4126,
      "mbambulaan": 4127,
      "jigéeni": 4128,
      "mbetteel": 4129,
      "afan": 4130,
      "uni": 4131,
      "allu": 4132,
      "aysatu": 4133,
      "baadoo": 4134,
      "bareem": 4135,
      "book": 4136,
      "katolig": 4137,
      "koolu": 4138,
      "took": 4139,
      "jambat": 4140,
      "ñaŋ": 4141,
      "tant": 4142,
      "tantal": 4143,
      "sëtu": 4144,
      "bëñ": 4145,
      "dduna": 4146,
      "duggal": 4147,
      "coobareem": 4148,
      "paspas": 4149,
      "pert": 4150,
      "wird": 4151,
      "jéggalu": 4152,
      "jaaduwul": 4153,
      "suqaliku": 4154,
      "feddali": 4155,
      "seŋoor": 4156,
      "portigaal": 4157,
      "bale": 4158,
      "daay": 4159,
      "foon": 4160,
      "fóon": 4161,
      "pho": 4162,
      "ue": 4163,
      "alh": 4164,
      "ndokk": 4165,
      "enternet": 4166,
      "misi": 4167,
      "faq": 4168,
      "sid": 4169,
      "defaat": 4170,
      "jirim": 4171,
      "fum": 4172,
      "ccax": 4173,
      "walbatiku": 4174,
      "bokki": 4175,
      "sosal": 4176,
      "meñ": 4177,
      "bindoon": 4178,
      "farata": 4179,
      "wékku": 4180,
      "dessin": 4181,
      "géwél": 4182,
      "ñeentfukki": 4183,
      "maande": 4184,
      "jegesi": 4185,
      "mbérin": 4186,
      "dayob": 4187,
      "ekip": 4188,
      "larme": 4189,
      "tilaabéri": 4190,
      "caaroy": 4191,
      "aba": 4192,
      "dó": 4193,
      "dda": 4194,
      "ski": 4195,
      "dia": 4196,
      "lafa": 4197,
      "ngton": 4198,
      "bah": 4199,
      "ndal": 4200,
      "ppe": 4201,
      "tuxu": 4202,
      "sutur": 4203,
      "defi": 4204,
      "nekkiin": 4205,
      "tase": 4206,
      "samari": 4207,
      "jagoo": 4208,
      "yendu": 4209,
      "bëtam": 4210,
      "solal": 4211,
      "neexoon": 4212,
      "xalaati": 4213,
      "dugge": 4214,
      "ëppoon": 4215,
      "xall": 4216,
      "yaakaaroon": 4217,
      "néewu": 4218,
      "lawbe": 4219,
      "mënuñoo": 4220,
      "féeté": 4221,
      "sancaan": 4222,
      "noste": 4223,
      "ponk": 4224,
      "xëccoo": 4225,
      "juróomñettfukk": 4226,
      "sottee": 4227,
      "ninki": 4228,
      "jërëjëf": 4229,
      "ekool": 4230,
      "her": 4231,
      "jgé": 4232,
      "sat": 4233,
      "wale": 4234,
      "amaana": 4235,
      "bisu": 4236,
      "kul": 4237,
      "cacc": 4238,
      "timis": 4239,
      "sigi": 4240,
      "ses": 4241,
      "segg": 4242,
      "xaritu": 4243,
      "meti": 4244,
      "alikoo": 4245,
      "yóbb": 4246,
      "tëye": 4247,
      "jëlal": 4248,
      "yaru": 4249,
      "kaamil": 4250,
      "seetleen": 4251,
      "mbagg": 4252,
      "yëgyëgu": 4253,
      "nampal": 4254,
      "mbokki": 4255,
      "digoon": 4256,
      "mandargaal": 4257,
      "mandargam": 4258,
      "palan": 4259,
      "xemmem": 4260,
      "mbérinsaaj": 4261,
      "esayi": 4262,
      "hol": 4263,
      "stal": 4264,
      "big": 4265,
      "biya": 4266,
      "yin": 4267,
      "xamuma": 4268,
      "manoo": 4269,
      "maalig": 4270,
      "gisaat": 4271,
      "galloo": 4272,
      "saam": 4273,
      "tandarma": 4274,
      "dëkkub": 4275,
      "doggan": 4276,
      "merum": 4277,
      "farandoo": 4278,
      "dégge": 4279,
      "bañoon": 4280,
      "yégee": 4281,
      "pie": 4282,
      "jikkoom": 4283,
      "sakkoo": 4284,
      "njabootug": 4285,
      "dencu": 4286,
      "njangat": 4287,
      "muñal": 4288,
      "ford": 4289,
      "sagoom": 4290,
      "summi": 4291,
      "gaaral": 4292,
      "ndekkite": 4293,
      "nafsu": 4294,
      "doggantal": 4295,
      "mbañ": 4296,
      "tat": 4297,
      "uu": 4298,
      "yëgg": 4299,
      "anteek": 4300,
      "bulaa": 4301,
      "dema": 4302,
      "sad": 4303,
      "tag": 4304,
      "rit": 4305,
      "laabiir": 4306,
      "taxa": 4307,
      "daloon": 4308,
      "bokkna": 4309,
      "bégal": 4310,
      "baaxoo": 4311,
      "toq": 4312,
      "sarti": 4313,
      "faam": 4314,
      "yéem": 4315,
      "mart": 4316,
      "saytaane": 4317,
      "meek": 4318,
      "ustaas": 4319,
      "namp": 4320,
      "sendikaa": 4321,
      "dëppook": 4322,
      "ndékki": 4323,
      "kilifteef": 4324,
      "gënuta": 4325,
      "ek": 4326,
      "end": 4327,
      "meen": 4328,
      "aamu": 4329,
      "oot": 4330,
      "lit": 4331,
      "liver": 4332,
      "ndóor": 4333,
      "tuñu": 4334,
      "turi": 4335,
      "yug": 4336,
      "xamni": 4337,
      "fase": 4338,
      "mool": 4339,
      "sis": 4340,
      "run": 4341,
      "baati": 4342,
      "yeesal": 4343,
      "njaar": 4344,
      "bali": 4345,
      "tegtale": 4346,
      "ñakkul": 4347,
      "mbugël": 4348,
      "ñaale": 4349,
      "xadii": 4350,
      "waccee": 4351,
      "xobi": 4352,
      "daqaar": 4353,
      "cha": 4354,
      "jeema": 4355,
      "settantal": 4356,
      "wëlif": 4357,
      "riisi": 4358,
      "coobarey": 4359,
      "barabi": 4360,
      "politik": 4361,
      "john": 4362,
      "cell": 4363,
      "liit": 4364,
      "nisi": 4365,
      "dugu": 4366,
      "kuraŋ": 4367,
      "mbóot": 4368,
      "moos": 4369,
      "gundóor": 4370,
      "tapoo": 4371,
      "moomee": 4372,
      "dinañ": 4373,
      "dallu": 4374,
      "gakk": 4375,
      "taañ": 4376,
      "jangi": 4377,
      "atteb": 4378,
      "géeju": 4379,
      "mottali": 4380,
      "waypólótig": 4381,
      "téy": 4382,
      "nettal": 4383,
      "ndonesi": 4384,
      "muhamma": 4385,
      "mandargay": 4386,
      "amuloo": 4387,
      "jéema": 4388,
      "yërmëndéy": 4389,
      "latkoloñ": 4390,
      "yewwuteg": 4391,
      "péyu": 4392,
      "gaawantu": 4393,
      "lëmm": 4394,
      "palanteer": 4395,
      "aqi": 4396,
      "lolli": 4397,
      "ndem": 4398,
      "tro": 4399,
      "wó": 4400,
      "aaki": 4401,
      "muuru": 4402,
      "bagaas": 4403,
      "iit": 4404,
      "mooma": 4405,
      "ler": 4406,
      "sena": 4407,
      "waaso": 4408,
      "bokkal": 4409,
      "mënees": 4410,
      "sofi": 4411,
      "ñagas": 4412,
      "seek": 4413,
      "ballu": 4414,
      "addii": 4415,
      "baykat": 4416,
      "beru": 4417,
      "dayoo": 4418,
      "tële": 4419,
      "muccayib": 4420,
      "poliis": 4421,
      "soosu": 4422,
      "marog": 4423,
      "rëëw": 4424,
      "lott": 4425,
      "jéll": 4426,
      "toogoon": 4427,
      "meeku": 4428,
      "defaru": 4429,
      "xeexu": 4430,
      "wonena": 4431,
      "mbindum": 4432,
      "maamam": 4433,
      "mbëkk": 4434,
      "musalkat": 4435,
      "dencal": 4436,
      "njëlbéen": 4437,
      "mandin": 4438,
      "nosukaay": 4439,
      "kangam": 4440,
      "lëñbët": 4441,
      "liverpool": 4442,
      "ms": 4443,
      "pré": 4444,
      "ñay": 4445,
      "amaat": 4446,
      "newoon": 4447,
      "eente": 4448,
      "ato": 4449,
      "waxati": 4450,
      "tahaal": 4451,
      "kippaa": 4452,
      "warna": 4453,
      "warees": 4454,
      "wide": 4455,
      "meloom": 4456,
      "askanam": 4457,
      "gënn": 4458,
      "geres": 4459,
      "tanku": 4460,
      "yooya": 4461,
      "diiru": 4462,
      "taxawoon": 4463,
      "xuus": 4464,
      "attaaya": 4465,
      "feeñe": 4466,
      "nante": 4467,
      "nanka": 4468,
      "yonnee": 4469,
      "melokaanu": 4470,
      "jëmmam": 4471,
      "puu": 4472,
      "aux": 4473,
      "xettali": 4474,
      "njariñu": 4475,
      "kabweer": 4476,
      "kallaama": 4477,
      "lafañ": 4478,
      "tahaalaa": 4479,
      "dor": 4480,
      "kri": 4481,
      "paan": 4482,
      "umar": 4483,
      "uuf": 4484,
      "bug": 4485,
      "dadaa": 4486,
      "mbaay": 4487,
      "waxante": 4488,
      "gun": 4489,
      "lec": 4490,
      "tijji": 4491,
      "abal": 4492,
      "rumi": 4493,
      "fexeel": 4494,
      "yeel": 4495,
      "laataa": 4496,
      "fim": 4497,
      "tangal": 4498,
      "xeej": 4499,
      "njiiteef": 4500,
      "faram": 4501,
      "janoo": 4502,
      "léebu": 4503,
      "jangat": 4504,
      "mark": 4505,
      "rëbb": 4506,
      "duggsi": 4507,
      "goxub": 4508,
      "yonni": 4509,
      "dikkee": 4510,
      "muhammadu": 4511,
      "njaax": 4512,
      "kowam": 4513,
      "yelleef": 4514,
      "jaloore": 4515,
      "haana": 4516,
      "subhaana": 4517,
      "feeñug": 4518,
      "mbambulaa": 4519,
      "bó": 4520,
      "gol": 4521,
      "nk": 4522,
      "nale": 4523,
      "ëti": 4524,
      "mais": 4525,
      "baŋ": 4526,
      "sumb": 4527,
      "naax": 4528,
      "mine": 4529,
      "gërë": 4530,
      "maana": 4531,
      "jañ": 4532,
      "aleg": 4533,
      "baatub": 4534,
      "leeru": 4535,
      "dëj": 4536,
      "gañ": 4537,
      "seetee": 4538,
      "ëlé": 4539,
      "kawlax": 4540,
      "west": 4541,
      "mënmën": 4542,
      "déggoon": 4543,
      "kebe": 4544,
      "colat": 4545,
      "jaarul": 4546,
      "yéet": 4547,
      "nooteel": 4548,
      "attekaay": 4549,
      "dolliku": 4550,
      "laajee": 4551,
      "bour": 4552,
      "xolub": 4553,
      "ginaawam": 4554,
      "jeeg": 4555,
      "xayna": 4556,
      "jébbalu": 4557,
      "sottiku": 4558,
      "rakkaa": 4559,
      "ppite": 4560,
      "gémmiñu": 4561,
      "chocolat": 4562,
      "ec": 4563,
      "pan": 4564,
      "paas": 4565,
      "toro": 4566,
      "ama": 4567,
      "naxe": 4568,
      "nasaxal": 4569,
      "diy": 4570,
      "diri": 4571,
      "munu": 4572,
      "ñuŋ": 4573,
      "desee": 4574,
      "dent": 4575,
      "yur": 4576,
      "xamoo": 4577,
      "wujj": 4578,
      "sit": 4579,
      "riyee": 4580,
      "ruq": 4581,
      "fegal": 4582,
      "teewaayu": 4583,
      "ash": 4584,
      "saxul": 4585,
      "jamano": 4586,
      "jegee": 4587,
      "joxee": 4588,
      "alis": 4589,
      "yëgal": 4590,
      "bekk": 4591,
      "bepp": 4592,
      "xees": 4593,
      "defaree": 4594,
      "moa": 4595,
      "yërmaande": 4596,
      "karoot": 4597,
      "jikkoy": 4598,
      "bëjgannaar": 4599,
      "randu": 4600,
      "ranke": 4601,
      "suufus": 4602,
      "xéyna": 4603,
      "yabal": 4604,
      "saalihu": 4605,
      "jibrii": 4606,
      "juutikat": 4607,
      "imbraat": 4608,
      "poloñ": 4609,
      "had": 4610,
      "jel": 4611,
      "luñu": 4612,
      "tuxal": 4613,
      "yuur": 4614,
      "tigi": 4615,
      "siyoŋ": 4616,
      "ria": 4617,
      "samab": 4618,
      "jaq": 4619,
      "wallam": 4620,
      "yew": 4621,
      "soci": 4622,
      "boroomi": 4623,
      "wanag": 4624,
      "diina": 4625,
      "dundé": 4626,
      "bëg": 4627,
      "bëy": 4628,
      "bariy": 4629,
      "ndege": 4630,
      "taxawe": 4631,
      "jangor": 4632,
      "york": 4633,
      "siif": 4634,
      "jéng": 4635,
      "gees": 4636,
      "waykat": 4637,
      "dellusee": 4638,
      "télé": 4639,
      "aggoon": 4640,
      "këyi": 4641,
      "taggu": 4642,
      "déglul": 4643,
      "séddoo": 4644,
      "montar": 4645,
      "njëlbée": 4646,
      "mujjug": 4647,
      "xiirtal": 4648,
      "petor": 4649,
      "ndono": 4650,
      "junney": 4651,
      "arminaa": 4652,
      "biddiiw": 4653,
      "iliyas": 4654,
      "aŋ": 4655,
      "bla": 4656,
      "caam": 4657,
      "han": 4658,
      "ló": 4659,
      "raam": 4660,
      "ñang": 4661,
      "anti": 4662,
      "dekku": 4663,
      "masin": 4664,
      "niseri": 4665,
      "manga": 4666,
      "maamur": 4667,
      "biig": 4668,
      "wiki": 4669,
      "teewoon": 4670,
      "doore": 4671,
      "joj": 4672,
      "mësul": 4673,
      "woona": 4674,
      "alin": 4675,
      "tëkku": 4676,
      "yéené": 4677,
      "sare": 4678,
      "ñakke": 4679,
      "atuñu": 4680,
      "maraa": 4681,
      "lekke": 4682,
      "usaan": 4683,
      "néegam": 4684,
      "kariim": 4685,
      "jaru": 4686,
      "limaan": 4687,
      "taaral": 4688,
      "cambar": 4689,
      "noonoo": 4690,
      "tëjoon": 4691,
      "taqale": 4692,
      "riisa": 4693,
      "daawur": 4694,
      "yenngu": 4695,
      "weccee": 4696,
      "matuwaay": 4697,
      "ganesi": 4698,
      "jëflënté": 4699,
      "piemonte": 4700,
      "jibriil": 4701,
      "jaal": 4702,
      "mak": 4703,
      "teur": 4704,
      "arrumi": 4705,
      "liwë": 4706,
      "lewi": 4707,
      "baaba": 4708,
      "gisiin": 4709,
      "warnanoo": 4710,
      "dëfal": 4711,
      "seey": 4712,
      "deer": 4713,
      "deewu": 4714,
      "jaat": 4715,
      "yonen": 4716,
      "seneraal": 4717,
      "suuxat": 4718,
      "takkusaan": 4719,
      "rawna": 4720,
      "dajeel": 4721,
      "këriñ": 4722,
      "doyloo": 4723,
      "mettit": 4724,
      "dimbale": 4725,
      "paap": 4726,
      "yaqq": 4727,
      "mbëjfepp": 4728,
      "pitax": 4729,
      "jataayu": 4730,
      "jeexitalu": 4731,
      "sakari": 4732,
      "oliw": 4733,
      "maalekum": 4734,
      "njobbaxtan": 4735,
      "tiwaawon": 4736,
      "imbraatóor": 4737,
      "baan": 4738,
      "dra": 4739,
      "kali": 4740,
      "land": 4741,
      "xad": 4742,
      "cii": 4743,
      "nab": 4744,
      "ard": 4745,
      "limat": 4746,
      "deñu": 4747,
      "desambar": 4748,
      "majah": 4749,
      "ndof": 4750,
      "niko": 4751,
      "mbell": 4752,
      "caq": 4753,
      "sion": 4754,
      "nekkaat": 4755,
      "firawna": 4756,
      "xarkanamam": 4757,
      "sët": 4758,
      "téemeer": 4759,
      "bariwul": 4760,
      "faye": 4761,
      "cong": 4762,
      "gëmgëm": 4763,
      "ëppal": 4764,
      "ñeenteel": 4765,
      "giiñ": 4766,
      "jullee": 4767,
      "kiis": 4768,
      "kiiraay": 4769,
      "manumaa": 4770,
      "ille": 4771,
      "stus": 4772,
      "jallale": 4773,
      "pólis": 4774,
      "coobareg": 4775,
      "banqaas": 4776,
      "isaaxa": 4777,
      "paris": 4778,
      "ngér": 4779,
      "sammoonteek": 4780,
      "ninkinanka": 4781,
      "sigicoor": 4782,
      "njaaréem": 4783,
      "bba": 4784,
      "bang": 4785,
      "esipt": 4786,
      "foy": 4787,
      "gaayam": 4788,
      "nër": 4789,
      "palu": 4790,
      "sante": 4791,
      "aamadu": 4792,
      "alag": 4793,
      "biddi": 4794,
      "lijaa": 4795,
      "gine": 4796,
      "aayoo": 4797,
      "xammi": 4798,
      "siye": 4799,
      "taccu": 4800,
      "laax": 4801,
      "dëg": 4802,
      "sose": 4803,
      "tamaate": 4804,
      "doyul": 4805,
      "ndiru": 4806,
      "jaata": 4807,
      "santi": 4808,
      "jiit": 4809,
      "sala": 4810,
      "jamonoom": 4811,
      "jangee": 4812,
      "soor": 4813,
      "tiital": 4814,
      "giirug": 4815,
      "tono": 4816,
      "inter": 4817,
      "téq": 4818,
      "junneek": 4819,
      "xobam": 4820,
      "mënuma": 4821,
      "mbët": 4822,
      "jegeñ": 4823,
      "frãs": 4824,
      "huu": 4825,
      "feebaru": 4826,
      "jéggël": 4827,
      "bérébi": 4828,
      "buumu": 4829,
      "buurub": 4830,
      "saaysaay": 4831,
      "teewlu": 4832,
      "pënd": 4833,
      "callal": 4834,
      "ibraayima": 4835,
      "jëflën": 4836,
      "yéwénal": 4837,
      "dënnu": 4838,
      "yurdan": 4839,
      "add": 4840,
      "bol": 4841,
      "eur": 4842,
      "jenni": 4843,
      "sy": 4844,
      "uhu": 4845,
      "yaayu": 4846,
      "zu": 4847,
      "aamiin": 4848,
      "nah": 4849,
      "ayda": 4850,
      "sungu": 4851,
      "dah": 4852,
      "ngistal": 4853,
      "abo": 4854,
      "ngatu": 4855,
      "melki": 4856,
      "gestu": 4857,
      "deeleen": 4858,
      "dëkkam": 4859,
      "xari": 4860,
      "tegale": 4861,
      "sandar": 4862,
      "téereem": 4863,
      "ñëwoon": 4864,
      "comp": 4865,
      "leeralal": 4866,
      "réere": 4867,
      "pegg": 4868,
      "delluwaat": 4869,
      "qui": 4870,
      "juntu": 4871,
      "anami": 4872,
      "kart": 4873,
      "ngëmam": 4874,
      "yëgyë": 4875,
      "doyal": 4876,
      "cuu": 4877,
      "waaraate": 4878,
      "dogalu": 4879,
      "ndigalam": 4880,
      "judduwaale": 4881,
      "nangam": 4882,
      "salaamaalekum": 4883,
      "njariñul": 4884,
      "bisaab": 4885,
      "nemmeeku": 4886,
      "yëkkëti": 4887,
      "ekost": 4888,
      "rouge": 4889,
      "campeef": 4890,
      "afandii": 4891,
      "cro": 4892,
      "joom": 4893,
      "njapp": 4894,
      "ose": 4895,
      "ween": 4896,
      "ngee": 4897,
      "neneen": 4898,
      "deppite": 4899,
      "ndén": 4900,
      "ndóoy": 4901,
      "niseer": 4902,
      "abd": 4903,
      "sili": 4904,
      "sidaa": 4905,
      "sagar": 4906,
      "mande": 4907,
      "ité": 4908,
      "dalu": 4909,
      "jeŋ": 4910,
      "bére": 4911,
      "alaaji": 4912,
      "mboolo": 4913,
      "gantu": 4914,
      "lënt": 4915,
      "soxlay": 4916,
      "geem": 4917,
      "njiitum": 4918,
      "tayu": 4919,
      "kiir": 4920,
      "inndi": 4921,
      "nob": 4922,
      "sonko": 4923,
      "këf": 4924,
      "jaayante": 4925,
      "xonqu": 4926,
      "ëllëgu": 4927,
      "wéetal": 4928,
      "pexey": 4929,
      "létt": 4930,
      "guddaay": 4931,
      "xatal": 4932,
      "ngën": 4933,
      "bleu": 4934,
      "taalube": 4935,
      "cëy": 4936,
      "toogukaay": 4937,
      "féewi": 4938,
      "woomle": 4939,
      "jankoonte": 4940,
      "pulaar": 4941,
      "xemmeem": 4942,
      "gañcax": 4943,
      "arminaatu": 4944,
      "jennifer": 4945,
      "eli": 4946,
      "faw": 4947,
      "góo": 4948,
      "tata": 4949,
      "ww": 4950,
      "xóo": 4951,
      "ët": 4952,
      "alxam": 4953,
      "alas": 4954,
      "antee": 4955,
      "ppee": 4956,
      "sug": 4957,
      "ngiñ": 4958,
      "kuree": 4959,
      "wuut": 4960,
      "jigg": 4961,
      "dooni": 4962,
      "melni": 4963,
      "déy": 4964,
      "óori": 4965,
      "tomaa": 4966,
      "yëpp": 4967,
      "jiitël": 4968,
      "key": 4969,
      "jaaru": 4970,
      "jotaay": 4971,
      "soobee": 4972,
      "xawa": 4973,
      "miskin": 4974,
      "jaaykat": 4975,
      "nami": 4976,
      "ñemee": 4977,
      "ester": 4978,
      "xibaari": 4979,
      "sinkun": 4980,
      "terete": 4981,
      "jabaru": 4982,
      "digante": 4983,
      "betani": 4984,
      "dunndu": 4985,
      "nattuwaay": 4986,
      "roytéef": 4987,
      "féewaloo": 4988,
      "sãawi": 4989,
      "jaarjaaram": 4990,
      "elek": 4991,
      "sutura": 4992,
      "muhammadul": 4993,
      "subhaanahu": 4994,
      "jangoroy": 4995,
      "bbe": 4996,
      "cur": 4997,
      "chi": 4998,
      "floy": 4999,
      "gon": 5000,
      "xraaf": 5001,
      "aane": 5002,
      "city": 5003,
      "layu": 5004,
      "teqale": 5005,
      "yisoppi": 5006,
      "babi": 5007,
      "ndeem": 5008,
      "tux": 5009,
      "dajal": 5010,
      "juru": 5011,
      "juxraaf": 5012,
      "kubéer": 5013,
      "face": 5014,
      "wukaay": 5015,
      "simis": 5016,
      "sapo": 5017,
      "njax": 5018,
      "biiru": 5019,
      "dala": 5020,
      "daamaar": 5021,
      "toolam": 5022,
      "saxar": 5023,
      "liif": 5024,
      "tanneef": 5025,
      "bëkk": 5026,
      "gaat": 5027,
      "magget": 5028,
      "ñëwleen": 5029,
      "banku": 5030,
      "toppandoo": 5031,
      "pey": 5032,
      "affa": 5033,
      "yooyule": 5034,
      "table": 5035,
      "rawale": 5036,
      "malaakaam": 5037,
      "xippi": 5038,
      "juddóo": 5039,
      "njublaŋ": 5040,
      "dexug": 5041,
      "makkaanu": 5042,
      "milyoŋi": 5043,
      "fajukaay": 5044,
      "daajoon": 5045,
      "washi": 5046,
      "këll": 5047,
      "musóoru": 5048,
      "délsi": 5049,
      "ubbeeku": 5050,
      "gómis": 5051,
      "ngërëmul": 5052,
      "niseriyaa": 5053,
      "floyd": 5054,
      "est": 5055,
      "nawum": 5056,
      "ans": 5057,
      "dis": 5058,
      "laf": 5059,
      "lah": 5060,
      "bidd": 5061,
      "kocc": 5062,
      "buddi": 5063,
      "madiina": 5064,
      "gisuñu": 5065,
      "duus": 5066,
      "mbon": 5067,
      "waxtoom": 5068,
      "sai": 5069,
      "manaam": 5070,
      "fecci": 5071,
      "moomeelu": 5072,
      "waax": 5073,
      "maani": 5074,
      "njool": 5075,
      "booru": 5076,
      "gisgisu": 5077,
      "kaper": 5078,
      "dëng": 5079,
      "énn": 5080,
      "taawu": 5081,
      "bokkam": 5082,
      "yaam": 5083,
      "yaani": 5084,
      "tambaa": 5085,
      "xetu": 5086,
      "mayoon": 5087,
      "beddi": 5088,
      "gaawal": 5089,
      "gaawe": 5090,
      "baril": 5091,
      "kebóoy": 5092,
      "gëmm": 5093,
      "yéemé": 5094,
      "xalaate": 5095,
      "laman": 5096,
      "xéewëlale": 5097,
      "nanguwu": 5098,
      "boobule": 5099,
      "tolluu": 5100,
      "nodd": 5101,
      "sëriñam": 5102,
      "néewal": 5103,
      "soppee": 5104,
      "jubluwaay": 5105,
      "mébét": 5106,
      "digale": 5107,
      "njëlbeen": 5108,
      "nattale": 5109,
      "masula": 5110,
      "mbóoti": 5111,
      "jikkóy": 5112,
      "taarixu": 5113,
      "reetaanlu": 5114,
      "royuwaay": 5115,
      "imbraa": 5116,
      "dagaan": 5117,
      "tërëlii": 5118,
      "liwëpuul": 5119,
      "féewiriyee": 5120,
      "kapernawum": 5121,
      "by": 5122,
      "lla": 5123,
      "pres": 5124,
      "xur": 5125,
      "nacc": 5126,
      "digaale": 5127,
      "kott": 5128,
      "nim": 5129,
      "num": 5130,
      "duu": 5131,
      "dumana": 5132,
      "iid": 5133,
      "fajal": 5134,
      "waxiin": 5135,
      "lebu": 5136,
      "repub": 5137,
      "ruur": 5138,
      "waaja": 5139,
      "laabii": 5140,
      "wisaar": 5141,
      "ñooña": 5142,
      "nguuri": 5143,
      "toobar": 5144,
      "yemul": 5145,
      "ndim": 5146,
      "fani": 5147,
      "xeem": 5148,
      "mënti": 5149,
      "neexe": 5150,
      "ibnu": 5151,
      "yéreem": 5152,
      "desoon": 5153,
      "koomkoomu": 5154,
      "mou": 5155,
      "paccu": 5156,
      "cedd": 5157,
      "taggook": 5158,
      "hamdu": 5159,
      "reylu": 5160,
      "déey": 5161,
      "tukkib": 5162,
      "yéeney": 5163,
      "kërug": 5164,
      "dindil": 5165,
      "meññeef": 5166,
      "ñibbisi": 5167,
      "jonn": 5168,
      "këlëb": 5169,
      "jammaarlook": 5170,
      "toxal": 5171,
      "tukke": 5172,
      "oktoobar": 5173,
      "gémmiñam": 5174,
      "jébbale": 5175,
      "rafle": 5176,
      "njuuj": 5177,
      "bekkoor": 5178,
      "washington": 5179,
      "ac": 5180,
      "fóo": 5181,
      "jóo": 5182,
      "móolu": 5183,
      "nal": 5184,
      "ona": 5185,
      "ñeex": 5186,
      "ñas": 5187,
      "amoo": 5188,
      "latin": 5189,
      "ngée": 5190,
      "ngalla": 5191,
      "arte": 5192,
      "munul": 5193,
      "tuñ": 5194,
      "cas": 5195,
      "capp": 5196,
      "guddu": 5197,
      "tif": 5198,
      "til": 5199,
      "rid": 5200,
      "ñingi": 5201,
      "sampu": 5202,
      "maat": 5203,
      "yeesoo": 5204,
      "laahu": 5205,
      "nitam": 5206,
      "figg": 5207,
      "rapp": 5208,
      "jog": 5209,
      "jota": 5210,
      "bokkuñu": 5211,
      "jamp": 5212,
      "ball": 5213,
      "xeli": 5214,
      "xewu": 5215,
      "deet": 5216,
      "dundat": 5217,
      "wey": 5218,
      "daanoo": 5219,
      "takkandee": 5220,
      "kaare": 5221,
      "lekkool": 5222,
      "garmi": 5223,
      "ñaas": 5224,
      "ñaane": 5225,
      "bakkaaram": 5226,
      "jaaye": 5227,
      "déeg": 5228,
      "goxi": 5229,
      "este": 5230,
      "wutoon": 5231,
      "wooteb": 5232,
      "puur": 5233,
      "ndéggat": 5234,
      "ngëneel": 5235,
      "mbubbam": 5236,
      "canc": 5237,
      "taariixu": 5238,
      "rangoo": 5239,
      "yittéwóo": 5240,
      "gafaka": 5241,
      "njeexital": 5242,
      "aakimoo": 5243,
      "petorol": 5244,
      "sãawiyee": 5245,
      "bóot": 5246,
      "cre": 5247,
      "sool": 5248,
      "ts": 5249,
      "val": 5250,
      "vet": 5251,
      "amati": 5252,
      "nabu": 5253,
      "bitéel": 5254,
      "libi": 5255,
      "bawol": 5256,
      "nur": 5257,
      "xamale": 5258,
      "jënde": 5259,
      "defati": 5260,
      "ndaxam": 5261,
      "yeete": 5262,
      "fiñ": 5263,
      "finaal": 5264,
      "déndu": 5265,
      "yaat": 5266,
      "mënee": 5267,
      "agari": 5268,
      "dottub": 5269,
      "ndii": 5270,
      "jappu": 5271,
      "wodd": 5272,
      "senegale": 5273,
      "magdala": 5274,
      "andare": 5275,
      "reet": 5276,
      "jaara": 5277,
      "jaaroon": 5278,
      "atuma": 5279,
      "bayyima": 5280,
      "jubsi": 5281,
      "yéex": 5282,
      "picci": 5283,
      "pes": 5284,
      "waybokk": 5285,
      "feeñte": 5286,
      "agge": 5287,
      "xamxami": 5288,
      "mbindaan": 5289,
      "worma": 5290,
      "noonam": 5291,
      "njaga": 5292,
      "ligeeykat": 5293,
      "allaaxiraa": 5294,
      "nirool": 5295,
      "lonkoy": 5296,
      "saaliwu": 5297,
      "ndëgër": 5298,
      "woomal": 5299,
      "ndoorte": 5300,
      "africa": 5301,
      "ñatteelu": 5302,
      "naataango": 5303,
      "idiriisa": 5304,
      "kippaango": 5305,
      "laabiire": 5306,
      "eti": 5307,
      "gres": 5308,
      "kaal": 5309,
      "yell": 5310,
      "anduñu": 5311,
      "temm": 5312,
      "musa": 5313,
      "dekkee": 5314,
      "mada": 5315,
      "bañu": 5316,
      "ndée": 5317,
      "tuma": 5318,
      "misaa": 5319,
      "ori": 5320,
      "orange": 5321,
      "xamleen": 5322,
      "fakk": 5323,
      "jëmbët": 5324,
      "waxaale": 5325,
      "cakku": 5326,
      "abb": 5327,
      "abet": 5328,
      "sidd": 5329,
      "gënul": 5330,
      "manman": 5331,
      "sammu": 5332,
      "kapit": 5333,
      "waroona": 5334,
      "gañe": 5335,
      "ñag": 5336,
      "dom": 5337,
      "dow": 5338,
      "doju": 5339,
      "dongo": 5340,
      "sanke": 5341,
      "magge": 5342,
      "bayyiwul": 5343,
      "jubale": 5344,
      "liggéeykati": 5345,
      "yéngu": 5346,
      "soof": 5347,
      "marck": 5348,
      "tontoo": 5349,
      "moytul": 5350,
      "ragaloon": 5351,
      "féexal": 5352,
      "bismarck": 5353,
      "fomp": 5354,
      "pasti": 5355,
      "jëwri": 5356,
      "kampaañ": 5357,
      "xamuloo": 5358,
      "gëstukat": 5359,
      "ngant": 5360,
      "yeggale": 5361,
      "andaloon": 5362,
      "welo": 5363,
      "dimmbali": 5364,
      "aminata": 5365,
      "naaxsaay": 5366,
      "ceddo": 5367,
      "njuujnjaa": 5368,
      "ey": 5369,
      "gawar": 5370,
      "njëwriñ": 5371,
      "qii": 5372,
      "rlu": 5373,
      "ëer": 5374,
      "alseri": 5375,
      "nari": 5376,
      "bili": 5377,
      "ngoom": 5378,
      "ney": 5379,
      "kori": 5380,
      "matug": 5381,
      "duwaar": 5382,
      "dusen": 5383,
      "naanu": 5384,
      "naagu": 5385,
      "xamadi": 5386,
      "sadusen": 5387,
      "kiñaan": 5388,
      "sedeg": 5389,
      "baana": 5390,
      "laale": 5391,
      "fuur": 5392,
      "yeesum": 5393,
      "natte": 5394,
      "xarbaax": 5395,
      "week": 5396,
      "mbootaayi": 5397,
      "bëri": 5398,
      "senelec": 5399,
      "maggalukaay": 5400,
      "lëjal": 5401,
      "toppee": 5402,
      "jalloo": 5403,
      "delsi": 5404,
      "sooga": 5405,
      "marsan": 5406,
      "xadi": 5407,
      "sakkal": 5408,
      "xira": 5409,
      "wëy": 5410,
      "yellee": 5411,
      "surgaam": 5412,
      "ndaanaan": 5413,
      "ponkal": 5414,
      "xalima": 5415,
      "soppey": 5416,
      "mbootaayug": 5417,
      "yërmandeem": 5418,
      "xarañte": 5419,
      "garabug": 5420,
      "kilifteefu": 5421,
      "tappe": 5422,
      "wëndeelu": 5423,
      "mkyaama": 5424,
      "gafak": 5425,
      "pólitig": 5426,
      "leget": 5427,
      "cangaay": 5428,
      "abadan": 5429,
      "melkisedeg": 5430,
      "oseyaani": 5431,
      "sapoŋ": 5432,
      "affaire": 5433,
      "agaripa": 5434,
      "ae": 5435,
      "abii": 5436,
      "baaru": 5437,
      "cet": 5438,
      "daaru": 5439,
      "gaay": 5440,
      "mpi": 5441,
      "pala": 5442,
      "senn": 5443,
      "ñal": 5444,
      "aayi": 5445,
      "alkan": 5446,
      "dil": 5447,
      "dugël": 5448,
      "yukaay": 5449,
      "iinam": 5450,
      "defuma": 5451,
      "rikk": 5452,
      "sesare": 5453,
      "fere": 5454,
      "boot": 5455,
      "leerul": 5456,
      "jammi": 5457,
      "nattukaay": 5458,
      "seeri": 5459,
      "donga": 5460,
      "neenañu": 5461,
      "you": 5462,
      "yombul": 5463,
      "sanq": 5464,
      "jappandi": 5465,
      "layal": 5466,
      "kele": 5467,
      "banaana": 5468,
      "gëmloo": 5469,
      "toppal": 5470,
      "bañee": 5471,
      "peau": 5472,
      "askani": 5473,
      "ins": 5474,
      "inture": 5475,
      "nank": 5476,
      "yëgle": 5477,
      "ubbite": 5478,
      "pasteef": 5479,
      "ñaawlu": 5480,
      "sulli": 5481,
      "caada": 5482,
      "pexem": 5483,
      "loraange": 5484,
      "dunyaa": 5485,
      "sóobe": 5486,
      "jéego": 5487,
      "mbaxane": 5488,
      "keeñaa": 5489,
      "bëggbëggu": 5490,
      "xettli": 5491,
      "xoromu": 5492,
      "ŋaññi": 5493,
      "kéwél": 5494,
      "tisbaar": 5495,
      "boroomug": 5496,
      "umple": 5497,
      "prési": 5498,
      "juntuwaay": 5499,
      "babilon": 5500,
      "bël": 5501,
      "dóom": 5502,
      "gang": 5503,
      "has": 5504,
      "len": 5505,
      "mbii": 5506,
      "pre": 5507,
      "pib": 5508,
      "ration": 5509,
      "xus": 5510,
      "ooru": 5511,
      "amam": 5512,
      "anda": 5513,
      "antoo": 5514,
      "ance": 5515,
      "bilik": 5516,
      "mage": 5517,
      "dawaanu": 5518,
      "orãas": 5519,
      "fasu": 5520,
      "waxleen": 5521,
      "guma": 5522,
      "gurub": 5523,
      "sine": 5524,
      "fun": 5525,
      "kasaw": 5526,
      "radi": 5527,
      "teeg": 5528,
      "bëggé": 5529,
      "addinaa": 5530,
      "tegaat": 5531,
      "maggug": 5532,
      "fayal": 5533,
      "ñakkum": 5534,
      "lamu": 5535,
      "tabe": 5536,
      "ces": 5537,
      "fattee": 5538,
      "tërël": 5539,
      "naqqar": 5540,
      "noppam": 5541,
      "penc": 5542,
      "meram": 5543,
      "merloo": 5544,
      "jokkale": 5545,
      "sabar": 5546,
      "kurel": 5547,
      "peeñu": 5548,
      "kaalag": 5549,
      "yaakaaru": 5550,
      "goxgoxaat": 5551,
      "sesteer": 5552,
      "dr": 5553,
      "elis": 5554,
      "gaan": 5555,
      "nti": 5556,
      "peer": 5557,
      "piis": 5558,
      "raas": 5559,
      "xit": 5560,
      "aleek": 5561,
      "naj": 5562,
      "lare": 5563,
      "biro": 5564,
      "maq": 5565,
      "baq": 5566,
      "dawu": 5567,
      "yunus": 5568,
      "kukk": 5569,
      "loolee": 5570,
      "cais": 5571,
      "tik": 5572,
      "mandoo": 5573,
      "manch": 5574,
      "samaw": 5575,
      "maalik": 5576,
      "japon": 5577,
      "óona": 5578,
      "baas": 5579,
      "kaggu": 5580,
      "yeb": 5581,
      "yef": 5582,
      "xemes": 5583,
      "ndigë": 5584,
      "ndijoo": 5585,
      "neem": 5586,
      "tos": 5587,
      "sëer": 5588,
      "gandoo": 5589,
      "bindukaay": 5590,
      "faagaa": 5591,
      "bakku": 5592,
      "soxlaa": 5593,
      "teddnga": 5594,
      "tuddé": 5595,
      "papp": 5596,
      "yërël": 5597,
      "soppeem": 5598,
      "maddina": 5599,
      "tannal": 5600,
      "njaame": 5601,
      "moomul": 5602,
      "deretam": 5603,
      "bette": 5604,
      "jégglu": 5605,
      "tho": 5606,
      "nuyul": 5607,
      "juróomñeentfukk": 5608,
      "jéppi": 5609,
      "dootuñu": 5610,
      "toxu": 5611,
      "wëndéelu": 5612,
      "ñatteel": 5613,
      "national": 5614,
      "yitewoo": 5615,
      "jëfëndikóo": 5616,
      "ofisiye": 5617,
      "xadiim": 5618,
      "këyitu": 5619,
      "dekkuwaay": 5620,
      "drapeau": 5621,
      "biddiw": 5622,
      "sunguf": 5623,
      "elisabet": 5624,
      "manchester": 5625,
      "ener": 5626,
      "noom": 5627,
      "xëpp": 5628,
      "aah": 5629,
      "alam": 5630,
      "alan": 5631,
      "ngóob": 5632,
      "demul": 5633,
      "macë": 5634,
      "gile": 5635,
      "nub": 5636,
      "yub": 5637,
      "juri": 5638,
      "fabbi": 5639,
      "jëfu": 5640,
      "lew": 5641,
      "oxor": 5642,
      "fif": 5643,
      "nguy": 5644,
      "yaatoo": 5645,
      "mëm": 5646,
      "soq": 5647,
      "yobb": 5648,
      "suukër": 5649,
      "ubbée": 5650,
      "déggul": 5651,
      "déggadi": 5652,
      "wéq": 5653,
      "ndawul": 5654,
      "coté": 5655,
      "addinay": 5656,
      "bañaale": 5657,
      "kaaba": 5658,
      "xéewë": 5659,
      "ñeenfukki": 5660,
      "peinture": 5661,
      "xarey": 5662,
      "xëtt": 5663,
      "cuune": 5664,
      "chel": 5665,
      "tawfeex": 5666,
      "mbey": 5667,
      "xiis": 5668,
      "jëwrin": 5669,
      "amaloon": 5670,
      "farãa": 5671,
      "puus": 5672,
      "ligeeyal": 5673,
      "basket": 5674,
      "juróomñaarfukki": 5675,
      "ngóora": 5676,
      "soldaari": 5677,
      "lonkoo": 5678,
      "goornamaa": 5679,
      "egliis": 5680,
      "wuññiy": 5681,
      "kaccoor": 5682,
      "loppitaal": 5683,
      "yëgyëgi": 5684,
      "fam": 5685,
      "góom": 5686,
      "këpp": 5687,
      "ome": 5688,
      "rnd": 5689,
      "téen": 5690,
      "wak": 5691,
      "ze": 5692,
      "ãŋ": 5693,
      "liber": 5694,
      "jëmu": 5695,
      "moone": 5696,
      "moodu": 5697,
      "siw": 5698,
      "sidi": 5699,
      "baak": 5700,
      "boob": 5701,
      "warnaa": 5702,
      "meloy": 5703,
      "doora": 5704,
      "tooro": 5705,
      "dëggi": 5706,
      "jaajëf": 5707,
      "toŋ": 5708,
      "yong": 5709,
      "jappoo": 5710,
      "doxu": 5711,
      "tëdde": 5712,
      "wérë": 5713,
      "lansaar": 5714,
      "marron": 5715,
      "siir": 5716,
      "yónéntam": 5717,
      "ñaax": 5718,
      "moto": 5719,
      "lawiir": 5720,
      "kare": 5721,
      "gétt": 5722,
      "bunti": 5723,
      "milyon": 5724,
      "mbënn": 5725,
      "cuun": 5726,
      "taarub": 5727,
      "jikky": 5728,
      "anas": 5729,
      "sakket": 5730,
      "dimblé": 5731,
      "nëx": 5732,
      "bamu": 5733,
      "maslaa": 5734,
      "doxalee": 5735,
      "shu": 5736,
      "ruuam": 5737,
      "seexi": 5738,
      "jëndal": 5739,
      "xarafal": 5740,
      "kuréeli": 5741,
      "teguwul": 5742,
      "raññeeku": 5743,
      "ekibu": 5744,
      "dootuma": 5745,
      "yoxoom": 5746,
      "maandute": 5747,
      "banqaasu": 5748,
      "peresidaŋ": 5749,
      "lammiñu": 5750,
      "cëslaayu": 5751,
      "kanadaa": 5752,
      "ndeyjooram": 5753,
      "jefandikoo": 5754,
      "farataal": 5755,
      "njaaxum": 5756,
      "madagas": 5757,
      "abi": 5758,
      "pati": 5759,
      "qam": 5760,
      "sali": 5761,
      "use": 5762,
      "ét": 5763,
      "aafi": 5764,
      "alxemes": 5765,
      "nati": 5766,
      "nataali": 5767,
      "dijj": 5768,
      "lati": 5769,
      "lawoon": 5770,
      "mux": 5771,
      "muni": 5772,
      "murii": 5773,
      "bum": 5774,
      "lima": 5775,
      "limaa": 5776,
      "yiñ": 5777,
      "lusi": 5778,
      "demandoo": 5779,
      "niñ": 5780,
      "suñuy": 5781,
      "suley": 5782,
      "fagg": 5783,
      "jëlaat": 5784,
      "reds": 5785,
      "rio": 5786,
      "ribaa": 5787,
      "sebe": 5788,
      "festus": 5789,
      "jafee": 5790,
      "baamu": 5791,
      "yeeg": 5792,
      "yeewoo": 5793,
      "kastor": 5794,
      "doone": 5795,
      "gafa": 5796,
      "jomb": 5797,
      "bokkee": 5798,
      "saxee": 5799,
      "yooy": 5800,
      "diiŋ": 5801,
      "xaam": 5802,
      "jëmmu": 5803,
      "doxee": 5804,
      "tëy": 5805,
      "jaaree": 5806,
      "leeram": 5807,
      "laajoon": 5808,
      "pexeem": 5809,
      "akim": 5810,
      "doolerandu": 5811,
      "sémb": 5812,
      "xacc": 5813,
      "wann": 5814,
      "xanjar": 5815,
      "dugalee": 5816,
      "bëjsaalumu": 5817,
      "baabakar": 5818,
      "dikke": 5819,
      "dogalub": 5820,
      "jaamub": 5821,
      "céri": 5822,
      "campee": 5823,
      "lori": 5824,
      "xasaw": 5825,
      "jaaxaan": 5826,
      "toroxte": 5827,
      "yaxantukat": 5828,
      "burg": 5829,
      "taalifkat": 5830,
      "mënatul": 5831,
      "dégloo": 5832,
      "njureef": 5833,
      "wëlbati": 5834,
      "lammiñam": 5835,
      "tanqam": 5836,
      "nijaayam": 5837,
      "kayif": 5838,
      "komite": 5839,
      "gunóor": 5840,
      "lijaasa": 5841,
      "sosete": 5842,
      "kapiteen": 5843,
      "faagaagal": 5844,
      "népp": 5845,
      "px": 5846,
      "pale": 5847,
      "qa": 5848,
      "xiin": 5849,
      "éy": 5850,
      "mudoon": 5851,
      "yitam": 5852,
      "dekere": 5853,
      "maŋ": 5854,
      "tubaar": 5855,
      "nib": 5856,
      "xaman": 5857,
      "kuman": 5858,
      "cadolli": 5859,
      "sapon": 5860,
      "mansesteer": 5861,
      "dëbb": 5862,
      "uray": 5863,
      "sunub": 5864,
      "woowa": 5865,
      "béjj": 5866,
      "xareem": 5867,
      "bayer": 5868,
      "téerey": 5869,
      "yëngatu": 5870,
      "jëmsi": 5871,
      "rob": 5872,
      "takke": 5873,
      "jotaayu": 5874,
      "yéege": 5875,
      "ñeenfukk": 5876,
      "jógewul": 5877,
      "rawgaddu": 5878,
      "yëgoon": 5879,
      "woru": 5880,
      "dëgërël": 5881,
      "tekkiwul": 5882,
      "xaalisam": 5883,
      "weesuwul": 5884,
      "raxcadolli": 5885,
      "cosaanam": 5886,
      "mbégté": 5887,
      "dellusiwaat": 5888,
      "ther": 5889,
      "ndankndank": 5890,
      "mbóotum": 5891,
      "jonjoo": 5892,
      "tirki": 5893,
      "koolute": 5894,
      "uemoa": 5895,
      "sidãa": 5896,
      "addiisam": 5897,
      "alxames": 5898,
      "madagaskaar": 5899,
      "akk": 5900,
      "cati": 5901,
      "déem": 5902,
      "tóo": 5903,
      "taksi": 5904,
      "amaa": 5905,
      "kkoo": 5906,
      "tebbi": 5907,
      "luma": 5908,
      "bajj": 5909,
      "sudaan": 5910,
      "mit": 5911,
      "allaterete": 5912,
      "facc": 5913,
      "fagaru": 5914,
      "waxin": 5915,
      "regg": 5916,
      "gëpp": 5917,
      "gall": 5918,
      "galaas": 5919,
      "taab": 5920,
      "tooyal": 5921,
      "yaale": 5922,
      "sosi": 5923,
      "seetaat": 5924,
      "tanc": 5925,
      "jaamoo": 5926,
      "feer": 5927,
      "bedd": 5928,
      "kaayleen": 5929,
      "andandoom": 5930,
      "jëlleen": 5931,
      "suufam": 5932,
      "jém": 5933,
      "mbuur": 5934,
      "dañudaa": 5935,
      "njëkkë": 5936,
      "ceek": 5937,
      "iskari": 5938,
      "xoli": 5939,
      "reyaal": 5940,
      "naqadi": 5941,
      "fatteliku": 5942,
      "nég": 5943,
      "méngale": 5944,
      "diglé": 5945,
      "goney": 5946,
      "seddale": 5947,
      "bakan": 5948,
      "njugub": 5949,
      "jéeri": 5950,
      "raññale": 5951,
      "deggoo": 5952,
      "wuyyu": 5953,
      "njariñam": 5954,
      "kódiwaar": 5955,
      "nasaraanalkat": 5956,
      "wëlbëti": 5957,
      "luubal": 5958,
      "rangers": 5959,
      "sénégala": 5960,
      "macron": 5961,
      "ndokkeel": 5962,
      "njëlbéenug": 5963,
      "dawud": 5964,
      "thomas": 5965,
      "fiftin": 5966,
      "sebede": 5967,
      "iskariyo": 5968,
      "ddul": 5969,
      "ly": 5970,
      "otel": 5971,
      "pri": 5972,
      "pds": 5973,
      "rr": 5974,
      "xëm": 5975,
      "éw": 5976,
      "óróo": 5977,
      "aax": 5978,
      "ooy": 5979,
      "amari": 5980,
      "diwax": 5981,
      "muse": 5982,
      "lune": 5983,
      "bad": 5984,
      "tumb": 5985,
      "gisam": 5986,
      "ens": 5987,
      "dat": 5988,
      "dadoon": 5989,
      "xamme": 5990,
      "kudd": 5991,
      "gumbë": 5992,
      "silas": 5993,
      "nekkatul": 5994,
      "mandaa": 5995,
      "fegg": 5996,
      "jaŋ": 5997,
      "fune": 5998,
      "leelee": 5999,
      "etaasi": 6000,
      "kooy": 6001,
      "yegle": 6002,
      "yendoo": 6003,
      "seem": 6004,
      "wagul": 6005,
      "mayleen": 6006,
      "xaral": 6007,
      "ndir": 6008,
      "nataalam": 6009,
      "feesal": 6010,
      "bëtt": 6011,
      "wecci": 6012,
      "jiin": 6013,
      "ñëpp": 6014,
      "maggaay": 6015,
      "fayyu": 6016,
      "ñakkee": 6017,
      "takkoon": 6018,
      "potu": 6019,
      "laajte": 6020,
      "garet": 6021,
      "xuu": 6022,
      "feeñee": 6023,
      "moytoo": 6024,
      "yërë": 6025,
      "boston": 6026,
      "nanngu": 6027,
      "féetale": 6028,
      "cup": 6029,
      "yanj": 6030,
      "apolo": 6031,
      "njangam": 6032,
      "jaxaay": 6033,
      "musël": 6034,
      "guygéwél": 6035,
      "fenk": 6036,
      "jégglé": 6037,
      "ngëmu": 6038,
      "texeg": 6039,
      "yóbbul": 6040,
      "garabi": 6041,
      "tekkaaral": 6042,
      "awiril": 6043,
      "lammiñi": 6044,
      "booleek": 6045,
      "publi": 6046,
      "suturaal": 6047,
      "suleymaan": 6048,
      "kastorel": 6049,
      "bayern": 6050,
      "etaasini": 6051,
      "his": 6052,
      "iraa": 6053,
      "km": 6054,
      "tron": 6055,
      "alhamdu": 6056,
      "ande": 6057,
      "dipite": 6058,
      "bijj": 6059,
      "ngato": 6060,
      "deru": 6061,
      "bawal": 6062,
      "naatal": 6063,
      "atam": 6064,
      "waxuñu": 6065,
      "lex": 6066,
      "tinisi": 6067,
      "wuru": 6068,
      "simi": 6069,
      "jimbu": 6070,
      "jagle": 6071,
      "angle": 6072,
      "walle": 6073,
      "gënee": 6074,
      "geño": 6075,
      "wooyee": 6076,
      "wah": 6077,
      "dëkkee": 6078,
      "joxleen": 6079,
      "meters": 6080,
      "yëfu": 6081,
      "yawmal": 6082,
      "jëmmël": 6083,
      "seneweb": 6084,
      "neexu": 6085,
      "barewul": 6086,
      "daaldi": 6087,
      "jëfëm": 6088,
      "pecc": 6089,
      "peppu": 6090,
      "fukkeeli": 6091,
      "géejug": 6092,
      "manatu": 6093,
      "hil": 6094,
      "soxlawul": 6095,
      "bismil": 6096,
      "soril": 6097,
      "ngoor": 6098,
      "xaare": 6099,
      "saraxu": 6100,
      "sangoo": 6101,
      "sinwaa": 6102,
      "penaa": 6103,
      "njangalem": 6104,
      "jeek": 6105,
      "juuyoo": 6106,
      "futbalkatu": 6107,
      "fenkat": 6108,
      "seytu": 6109,
      "juróombenneelu": 6110,
      "leegleeg": 6111,
      "juróomñeentfukki": 6112,
      "poobar": 6113,
      "ndimboy": 6114,
      "njékk": 6115,
      "méngook": 6116,
      "bittim": 6117,
      "madirit": 6118,
      "araamal": 6119,
      "xultu": 6120,
      "xadar": 6121,
      "tëyye": 6122,
      "campeefi": 6123,
      "gëpplante": 6124,
      "br": 6125,
      "colo": 6126,
      "fc": 6127,
      "fóot": 6128,
      "gr": 6129,
      "mãa": 6130,
      "one": 6131,
      "póo": 6132,
      "peek": 6133,
      "shi": 6134,
      "wen": 6135,
      "yaboo": 6136,
      "ëttub": 6137,
      "aak": 6138,
      "alfa": 6139,
      "nako": 6140,
      "kkiir": 6141,
      "lawal": 6142,
      "ayca": 6143,
      "lunu": 6144,
      "basan": 6145,
      "basii": 6146,
      "ndul": 6147,
      "tun": 6148,
      "sunami": 6149,
      "yum": 6150,
      "yus": 6151,
      "awril": 6152,
      "kurus": 6153,
      "iif": 6154,
      "olaa": 6155,
      "resil": 6156,
      "laak": 6157,
      "fuñ": 6158,
      "fitu": 6159,
      "teefi": 6160,
      "daloo": 6161,
      "koog": 6162,
      "saat": 6163,
      "saabu": 6164,
      "saaafrig": 6165,
      "jambu": 6166,
      "sondeel": 6167,
      "nattoo": 6168,
      "liise": 6169,
      "xewe": 6170,
      "jaawale": 6171,
      "kontaan": 6172,
      "xaaxaam": 6173,
      "feetale": 6174,
      "bënn": 6175,
      "bene": 6176,
      "layyi": 6177,
      "polis": 6178,
      "bañkat": 6179,
      "rafetul": 6180,
      "yiir": 6181,
      "tayit": 6182,
      "aluñu": 6183,
      "ynéntam": 6184,
      "xobu": 6185,
      "nduur": 6186,
      "yëngutu": 6187,
      "fom": 6188,
      "manuñoo": 6189,
      "mbëggeelu": 6190,
      "chris": 6191,
      "woroo": 6192,
      "rambaa": 6193,
      "surnaal": 6194,
      "njaggat": 6195,
      "toggal": 6196,
      "bëccë": 6197,
      "fëkk": 6198,
      "seereel": 6199,
      "dinndi": 6200,
      "téeréb": 6201,
      "kiliftéef": 6202,
      "tuumal": 6203,
      "ndonngo": 6204,
      "kabbar": 6205,
      "wegeel": 6206,
      "digganteek": 6207,
      "labbe": 6208,
      "pourcent": 6209,
      "wayjuram": 6210,
      "gabri": 6211,
      "akuw": 6212,
      "gannaayoo": 6213,
      "ngéej": 6214,
      "jotagul": 6215,
      "njuujnjaaj": 6216,
      "bilikeen": 6217,
      "ff": 6218,
      "ig": 6219,
      "tak": 6220,
      "upp": 6221,
      "vel": 6222,
      "xor": 6223,
      "nafa": 6224,
      "naso": 6225,
      "late": 6226,
      "lawax": 6227,
      "newul": 6228,
      "tem": 6229,
      "luxus": 6230,
      "ndéem": 6231,
      "ndeer": 6232,
      "sune": 6233,
      "xamb": 6234,
      "xamlu": 6235,
      "kudul": 6236,
      "mbol": 6237,
      "sasin": 6238,
      "rew": 6239,
      "repi": 6240,
      "jibal": 6241,
      "gëj": 6242,
      "fett": 6243,
      "maamaa": 6244,
      "finaalu": 6245,
      "bennoog": 6246,
      "boru": 6247,
      "ges": 6248,
      "yere": 6249,
      "damas": 6250,
      "ëlëm": 6251,
      "tannee": 6252,
      "dott": 6253,
      "ndigël": 6254,
      "jaas": 6255,
      "ganale": 6256,
      "yëgul": 6257,
      "doxub": 6258,
      "taxawee": 6259,
      "taxawaalu": 6260,
      "sarii": 6261,
      "lëmës": 6262,
      "dello": 6263,
      "jangkat": 6264,
      "yégu": 6265,
      "lekku": 6266,
      "danaa": 6267,
      "metiit": 6268,
      "hima": 6269,
      "jaral": 6270,
      "juroombenn": 6271,
      "dimbalante": 6272,
      "ramad": 6273,
      "mero": 6274,
      "ngom": 6275,
      "loolooy": 6276,
      "réeral": 6277,
      "séet": 6278,
      "njukkal": 6279,
      "yóbboo": 6280,
      "yeggali": 6281,
      "keppaar": 6282,
      "gindiku": 6283,
      "film": 6284,
      "safaanub": 6285,
      "sahara": 6286,
      "njaatigeem": 6287,
      "protes": 6288,
      "sosug": 6289,
      "ndekkitel": 6290,
      "soññee": 6291,
      "xajjale": 6292,
      "lingeer": 6293,
      "balluwaayu": 6294,
      "maraakiis": 6295,
      "fawwu": 6296,
      "biddéew": 6297,
      "alkande": 6298,
      "président": 6299,
      "enersi": 6300,
      "béjjén": 6301,
      "óróop": 6302,
      "bru": 6303,
      "eng": 6304,
      "fak": 6305,
      "hul": 6306,
      "móol": 6307,
      "ugan": 6308,
      "labour": 6309,
      "nek": 6310,
      "muwax": 6311,
      "nikale": 6312,
      "supp": 6313,
      "ataaya": 6314,
      "iil": 6315,
      "mbaaru": 6316,
      "tibb": 6317,
      "wune": 6318,
      "wuta": 6319,
      "sigaret": 6320,
      "taŋ": 6321,
      "mankoo": 6322,
      "jafune": 6323,
      "baag": 6324,
      "njaal": 6325,
      "gisoppi": 6326,
      "fila": 6327,
      "talee": 6328,
      "daana": 6329,
      "taakon": 6330,
      "dénga": 6331,
      "wacci": 6332,
      "mengoo": 6333,
      "aliyu": 6334,
      "téek": 6335,
      "woyu": 6336,
      "senegal": 6337,
      "doxul": 6338,
      "jëléef": 6339,
      "juróomeelu": 6340,
      "ñakkoon": 6341,
      "salo": 6342,
      "salfaa": 6343,
      "nootaange": 6344,
      "kaafu": 6345,
      "mbugë": 6346,
      "rabbu": 6347,
      "nonu": 6348,
      "taanee": 6349,
      "boli": 6350,
      "wuutal": 6351,
      "jaaykati": 6352,
      "him": 6353,
      "fondam": 6354,
      "nëb": 6355,
      "nële": 6356,
      "cammo": 6357,
      "dëppale": 6358,
      "ñoŋ": 6359,
      "tukkikat": 6360,
      "yelaa": 6361,
      "juddug": 6362,
      "beral": 6363,
      "taggatyaram": 6364,
      "bareebare": 6365,
      "yaqute": 6366,
      "woyofal": 6367,
      "wommatukaay": 6368,
      "melokaanam": 6369,
      "bintu": 6370,
      "lëkkël": 6371,
      "teggil": 6372,
      "xeltukat": 6373,
      "barabas": 6374,
      "gëmuñu": 6375,
      "gëmuleen": 6376,
      "eggee": 6377,
      "brexit": 6378,
      "jakkarloo": 6379,
      "ndogalu": 6380,
      "ryder": 6381,
      "dóomutaal": 6382,
      "kéedugu": 6383,
      "foytéef": 6384,
      "santimet": 6385,
      "callala": 6386,
      "euro": 6387,
      "gabriyelaa": 6388,
      "nasonaal": 6389,
      "nikaleyeer": 6390,
      "jëléefna": 6391,
      "coxor": 6392,
      "dc": 6393,
      "gram": 6394,
      "my": 6395,
      "male": 6396,
      "qib": 6397,
      "van": 6398,
      "vin": 6399,
      "yya": 6400,
      "ñeek": 6401,
      "nasi": 6402,
      "bim": 6403,
      "ngén": 6404,
      "muranke": 6405,
      "deram": 6406,
      "dereet": 6407,
      "tube": 6408,
      "tumuranke": 6409,
      "aara": 6410,
      "faddu": 6411,
      "situ": 6412,
      "sibbi": 6413,
      "risi": 6414,
      "rimé": 6415,
      "jin": 6416,
      "gëwée": 6417,
      "manuñu": 6418,
      "yappu": 6419,
      "fin": 6420,
      "dinay": 6421,
      "dëxë": 6422,
      "bokkuma": 6423,
      "mësu": 6424,
      "gejj": 6425,
      "yemu": 6426,
      "yemoo": 6427,
      "natan": 6428,
      "xepp": 6429,
      "deesi": 6430,
      "wasin": 6431,
      "tanne": 6432,
      "jaag": 6433,
      "bayaal": 6434,
      "sëtam": 6435,
      "dundaat": 6436,
      "feete": 6437,
      "bësu": 6438,
      "kërëm": 6439,
      "gaana": 6440,
      "tëri": 6441,
      "juróomñetteelu": 6442,
      "rees": 6443,
      "lëkkal": 6444,
      "beef": 6445,
      "bantu": 6446,
      "léet": 6447,
      "jalu": 6448,
      "yare": 6449,
      "rëq": 6450,
      "yónne": 6451,
      "mujjantal": 6452,
      "sédde": 6453,
      "tablo": 6454,
      "rabbi": 6455,
      "këbóoy": 6456,
      "tasaw": 6457,
      "soppali": 6458,
      "ruslu": 6459,
      "mettital": 6460,
      "nammeel": 6461,
      "fowukaay": 6462,
      "taarale": 6463,
      "mbëggée": 6464,
      "ndajeem": 6465,
      "jegeñaale": 6466,
      "noppal": 6467,
      "gaawtu": 6468,
      "mbébé": 6469,
      "cammiñ": 6470,
      "taqook": 6471,
      "saytukat": 6472,
      "watara": 6473,
      "danay": 6474,
      "dogale": 6475,
      "yeesalaat": 6476,
      "juróombennfukki": 6477,
      "ponki": 6478,
      "buumi": 6479,
      "péey": 6480,
      "salaamu": 6481,
      "sikkim": 6482,
      "kawaram": 6483,
      "korent": 6484,
      "tukkloor": 6485,
      "ndeyjooru": 6486,
      "fatig": 6487,
      "baadoolo": 6488,
      "chaise": 6489,
      "sakariya": 6490,
      "jegeñsi": 6491,
      "facebook": 6492,
      "tambaaku": 6493,
      "kelefaa": 6494,
      "diiŋat": 6495,
      "xamantane": 6496,
      "protestant": 6497,
      "salonig": 6498,
      "sibbiru": 6499,
      "balla": 6500,
      "dand": 6501,
      "doro": 6502,
      "ef": 6503,
      "faan": 6504,
      "geel": 6505,
      "hor": 6506,
      "isi": 6507,
      "moro": 6508,
      "qal": 6509,
      "yer": 6510,
      "yolo": 6511,
      "ór": 6512,
      "ŋoy": 6513,
      "aajoom": 6514,
      "alaan": 6515,
      "nad": 6516,
      "laxa": 6517,
      "koñu": 6518,
      "bash": 6519,
      "gindee": 6520,
      "numa": 6521,
      "suj": 6522,
      "suye": 6523,
      "dagana": 6524,
      "naanaa": 6525,
      "loos": 6526,
      "cahi": 6527,
      "gue": 6528,
      "gug": 6529,
      "lef": 6530,
      "wuloo": 6531,
      "sefas": 6532,
      "teeli": 6533,
      "saafoon": 6534,
      "yengal": 6535,
      "ado": 6536,
      "jey": 6537,
      "doyu": 6538,
      "xarab": 6539,
      "mexi": 6540,
      "téefu": 6541,
      "xelli": 6542,
      "woññiku": 6543,
      "darajaam": 6544,
      "mënta": 6545,
      "déggu": 6546,
      "wéttali": 6547,
      "langi": 6548,
      "gëmleen": 6549,
      "toppaat": 6550,
      "rëddu": 6551,
      "jénd": 6552,
      "goñ": 6553,
      "gongi": 6554,
      "saytoo": 6555,
      "ñaat": 6556,
      "dankaafu": 6557,
      "foor": 6558,
      "foofee": 6559,
      "génnée": 6560,
      "xawoon": 6561,
      "doomuaadama": 6562,
      "mission": 6563,
      "soppoon": 6564,
      "yënguy": 6565,
      "raye": 6566,
      "char": 6567,
      "dimbalee": 6568,
      "mask": 6569,
      "sanniy": 6570,
      "entale": 6571,
      "péncu": 6572,
      "mbëjbijjaakon": 6573,
      "taqalikoo": 6574,
      "tangaay": 6575,
      "gënatee": 6576,
      "penkug": 6577,
      "gëlëm": 6578,
      "dawalkatu": 6579,
      "sorewul": 6580,
      "soppeb": 6581,
      "aten": 6582,
      "munnañu": 6583,
      "mbaamxuux": 6584,
      "ligéeyël": 6585,
      "jambaare": 6586,
      "wéetaay": 6587,
      "weccoo": 6588,
      "njégg": 6589,
      "minist": 6590,
      "pattali": 6591,
      "móto": 6592,
      "daganal": 6593,
      "ngérum": 6594,
      "afrique": 6595,
      "cerno": 6596,
      "moonte": 6597,
      "sëlmu": 6598,
      "sëlmël": 6599,
      "biritaañ": 6600,
      "celsi": 6601,
      "gregor": 6602,
      "dencukaay": 6603,
      "mbañeel": 6604,
      "uhun": 6605,
      "comprimé": 6606,
      "keyta": 6607,
      "republik": 6608,
      "tanqamlu": 6609,
      "ugandaa": 6610,
      "blu": 6611,
      "cri": 6612,
      "fóor": 6613,
      "hat": 6614,
      "indonesi": 6615,
      "taayu": 6616,
      "xaddi": 6617,
      "eefi": 6618,
      "amnañu": 6619,
      "amagul": 6620,
      "cis": 6621,
      "nafar": 6622,
      "bitig": 6623,
      "tesalonig": 6624,
      "mudaa": 6625,
      "akat": 6626,
      "bulo": 6627,
      "luther": 6628,
      "gisi": 6629,
      "suñ": 6630,
      "june": 6631,
      "atle": 6632,
      "xamlee": 6633,
      "faje": 6634,
      "faŋŋ": 6635,
      "leente": 6636,
      "jënu": 6637,
      "jëmë": 6638,
      "sik": 6639,
      "real": 6640,
      "seg": 6641,
      "seng": 6642,
      "waasi": 6643,
      "laanu": 6644,
      "laaje": 6645,
      "njor": 6646,
      "baraada": 6647,
      "wile": 6648,
      "gacc": 6649,
      "gaññ": 6650,
      "jotaat": 6651,
      "taani": 6652,
      "déjj": 6653,
      "yaamam": 6654,
      "yeboo": 6655,
      "jamaa": 6656,
      "mbisaan": 6657,
      "xecc": 6658,
      "wootee": 6659,
      "bési": 6660,
      "dogoo": 6661,
      "bindee": 6662,
      "jóox": 6663,
      "wéyoon": 6664,
      "ketu": 6665,
      "cour": 6666,
      "barele": 6667,
      "réseñ": 6668,
      "askanoo": 6669,
      "dani": 6670,
      "nanguwuñu": 6671,
      "kiliyaan": 6672,
      "xallal": 6673,
      "internet": 6674,
      "rawe": 6675,
      "jullig": 6676,
      "néegub": 6677,
      "jaaykatu": 6678,
      "woyam": 6679,
      "wóoral": 6680,
      "sakke": 6681,
      "dimblante": 6682,
      "mbeddi": 6683,
      "naari": 6684,
      "njaag": 6685,
      "daggate": 6686,
      "négan": 6687,
      "koppari": 6688,
      "xamlena": 6689,
      "doxalinam": 6690,
      "taqal": 6691,
      "vertes": 6692,
      "sabbaal": 6693,
      "sonnal": 6694,
      "mbëggeelam": 6695,
      "fattalikuleen": 6696,
      "fonkoon": 6697,
      "xiirtalu": 6698,
      "dakkentale": 6699,
      "xarañteef": 6700,
      "marigabriyelaa": 6701,
      "iraan": 6702,
      "aguñu": 6703,
      "cammooñam": 6704,
      "euh": 6705,
      "péeyub": 6706,
      "xabaar": 6707,
      "ñaarelu": 6708,
      "kulóor": 6709,
      "mbambulaanug": 6710,
      "elektron": 6711,
      "wisaare": 6712,
      "marsandiis": 6713,
      "sinemaa": 6714,
      "gafag": 6715,
      "bc": 6716,
      "caay": 6717,
      "cation": 6718,
      "dro": 6719,
      "eru": 6720,
      "hd": 6721,
      "kame": 6722,
      "ktoor": 6723,
      "stin": 6724,
      "thi": 6725,
      "ute": 6726,
      "ves": 6727,
      "ërun": 6728,
      "ŋu": 6729,
      "ngam": 6730,
      "ngoy": 6731,
      "tegul": 6732,
      "mut": 6733,
      "mujug": 6734,
      "buru": 6735,
      "luye": 6736,
      "deñuy": 6737,
      "matee": 6738,
      "gisa": 6739,
      "dug": 6740,
      "duusi": 6741,
      "enne": 6742,
      "daba": 6743,
      "waxak": 6744,
      "guléet": 6745,
      "lemu": 6746,
      "siddi": 6747,
      "sidon": 6748,
      "oll": 6749,
      "nekkuma": 6750,
      "kil": 6751,
      "setee": 6752,
      "fesëer": 6753,
      "maami": 6754,
      "baawaan": 6755,
      "laaji": 6756,
      "laajal": 6757,
      "barax": 6758,
      "futti": 6759,
      "gisal": 6760,
      "dëdd": 6761,
      "asaa": 6762,
      "astu": 6763,
      "jotul": 6764,
      "saaña": 6765,
      "arah": 6766,
      "gënël": 6767,
      "yaangi": 6768,
      "yaatar": 6769,
      "mëx": 6770,
      "ñaqu": 6771,
      "seedee": 6772,
      "wakkiir": 6773,
      "dëkkë": 6774,
      "jekku": 6775,
      "doŋ": 6776,
      "medina": 6777,
      "yob": 6778,
      "biirëm": 6779,
      "xellu": 6780,
      "doxi": 6781,
      "doxoon": 6782,
      "doxinu": 6783,
      "keccax": 6784,
      "rose": 6785,
      "saret": 6786,
      "beey": 6787,
      "jamonoo": 6788,
      "pedia": 6789,
      "lekkul": 6790,
      "meelu": 6791,
      "mettee": 6792,
      "tarxiis": 6793,
      "moykat": 6794,
      "ceae": 6795,
      "tasoon": 6796,
      "déegu": 6797,
      "fowe": 6798,
      "manunu": 6799,
      "noppu": 6800,
      "alah": 6801,
      "mbalit": 6802,
      "donal": 6803,
      "kami": 6804,
      "kamërun": 6805,
      "xayug": 6806,
      "léy": 6807,
      "milyaari": 6808,
      "njubte": 6809,
      "haz": 6810,
      "seral": 6811,
      "jaxasook": 6812,
      "dundinu": 6813,
      "egsi": 6814,
      "niroole": 6815,
      "woroomi": 6816,
      "tanqal": 6817,
      "tóx": 6818,
      "waccuwaay": 6819,
      "bokkaalekat": 6820,
      "univer": 6821,
      "holand": 6822,
      "ndemsi": 6823,
      "ndénkaan": 6824,
      "imbraatoor": 6825,
      "tifli": 6826,
      "crevet": 6827,
      "jimbulang": 6828,
      "rambaaj": 6829,
      "cahier": 6830,
      "bãŋ": 6831,
      "cokk": 6832,
      "coy": 6833,
      "free": 6834,
      "gra": 6835,
      "ilimaan": 6836,
      "keen": 6837,
      "qq": 6838,
      "qan": 6839,
      "rati": 6840,
      "sch": 6841,
      "tri": 6842,
      "uw": 6843,
      "ood": 6844,
      "nav": 6845,
      "bisoppi": 6846,
      "ngalu": 6847,
      "kot": 6848,
      "muam": 6849,
      "ñug": 6850,
      "butéel": 6851,
      "limoŋ": 6852,
      "luwis": 6853,
      "masaan": 6854,
      "ndamul": 6855,
      "duppee": 6856,
      "mile": 6857,
      "iina": 6858,
      "iimi": 6859,
      "fadd": 6860,
      "wuj": 6861,
      "defna": 6862,
      "defloo": 6863,
      "rie": 6864,
      "ritani": 6865,
      "moomit": 6866,
      "leere": 6867,
      "dalul": 6868,
      "bëgguñu": 6869,
      "kooka": 6870,
      "daane": 6871,
      "daajaale": 6872,
      "taafan": 6873,
      "tooke": 6874,
      "mbindi": 6875,
      "ëlëg": 6876,
      "dëkkandoom": 6877,
      "aliw": 6878,
      "sëng": 6879,
      "dundee": 6880,
      "feem": 6881,
      "gaalu": 6882,
      "ñëwe": 6883,
      "ñëwaat": 6884,
      "njiitam": 6885,
      "fayu": 6886,
      "robi": 6887,
      "lën": 6888,
      "ñakkug": 6889,
      "coggal": 6890,
      "jangul": 6891,
      "yitteem": 6892,
      "jotna": 6893,
      "yéefar": 6894,
      "lami": 6895,
      "nuyyu": 6896,
      "génnleen": 6897,
      "yaggee": 6898,
      "rabbe": 6899,
      "ynni": 6900,
      "islaam": 6901,
      "dajji": 6902,
      "karaa": 6903,
      "parlam": 6904,
      "rusloo": 6905,
      "mënuloo": 6906,
      "féek": 6907,
      "cumbur": 6908,
      "fattalikoo": 6909,
      "muslu": 6910,
      "tambale": 6911,
      "raxa": 6912,
      "guddaayam": 6913,
      "porto": 6914,
      "diwlin": 6915,
      "fës": 6916,
      "carre": 6917,
      "ñorul": 6918,
      "péex": 6919,
      "caytug": 6920,
      "muusaa": 6921,
      "ëndil": 6922,
      "bëggbëggam": 6923,
      "dakar": 6924,
      "kilometers": 6925,
      "baamtu": 6926,
      "ndabb": 6927,
      "nappkat": 6928,
      "yenguyengu": 6929,
      "stein": 6930,
      "naataangoom": 6931,
      "sëqët": 6932,
      "daraapóo": 6933,
      "baadoola": 6934,
      "nërm": 6935,
      "jiggéen": 6936,
      "curr": 6937,
      "lonkoyoonu": 6938,
      "gafakag": 6939,
      "pencum": 6940,
      "ramadaan": 6941,
      "tambaakundaa": 6942,
      "gongiku": 6943,
      "ai": 6944,
      "age": 6945,
      "anañ": 6946,
      "em": 6947,
      "fax": 6948,
      "hay": 6949,
      "jkat": 6950,
      "ob": 6951,
      "plo": 6952,
      "yatti": 6953,
      "éle": 6954,
      "alji": 6955,
      "albat": 6956,
      "alfur": 6957,
      "nais": 6958,
      "anna": 6959,
      "digë": 6960,
      "munekk": 6961,
      "magum": 6962,
      "mabba": 6963,
      "niw": 6964,
      "gil": 6965,
      "yuda": 6966,
      "orãs": 6967,
      "xamam": 6968,
      "xamatul": 6969,
      "kuli": 6970,
      "kuddu": 6971,
      "leyem": 6972,
      "tinu": 6973,
      "aanam": 6974,
      "siwo": 6975,
      "elle": 6976,
      "nekkuñu": 6977,
      "gëtam": 6978,
      "selaw": 6979,
      "yeef": 6980,
      "laaju": 6981,
      "laaha": 6982,
      "ddee": 6983,
      "njara": 6984,
      "biiri": 6985,
      "gisati": 6986,
      "fik": 6987,
      "kadeer": 6988,
      "dinan": 6989,
      "widé": 6990,
      "teet": 6991,
      "teemeeri": 6992,
      "dalli": 6993,
      "ural": 6994,
      "joy": 6995,
      "kanja": 6996,
      "tooge": 6997,
      "xewi": 6998,
      "wooteem": 6999,
      "tandiku": 7000,
      "jegeel": 7001,
      "meru": 7002,
      "fanaane": 7003,
      "tegle": 7004,
      "gannar": 7005,
      "téefi": 7006,
      "aris": 7007,
      "doxiin": 7008,
      "nden": 7009,
      "mënal": 7010,
      "rongo": 7011,
      "daanee": 7012,
      "janeer": 7013,
      "soowu": 7014,
      "soose": 7015,
      "yoro": 7016,
      "pikiir": 7017,
      "jëflan": 7018,
      "peyu": 7019,
      "matsa": 7020,
      "lekkee": 7021,
      "lekkandoo": 7022,
      "dank": 7023,
      "jeexee": 7024,
      "googa": 7025,
      "sélim": 7026,
      "seetloo": 7027,
      "gannaawsi": 7028,
      "yalwaan": 7029,
      "xareful": 7030,
      "xeexe": 7031,
      "anamu": 7032,
      "baaraamu": 7033,
      "nama": 7034,
      "jargoñ": 7035,
      "daqee": 7036,
      "wóoradi": 7037,
      "kero": 7038,
      "cuub": 7039,
      "dëgërlu": 7040,
      "raayab": 7041,
      "sukkëndi": 7042,
      "caabal": 7043,
      "yuuxoo": 7044,
      "médd": 7045,
      "méngal": 7046,
      "ahlu": 7047,
      "juddoom": 7048,
      "setlu": 7049,
      "wëñ": 7050,
      "taxawaloon": 7051,
      "yaatuwaay": 7052,
      "guddee": 7053,
      "judduwaat": 7054,
      "betleyem": 7055,
      "séddaliku": 7056,
      "roos": 7057,
      "root": 7058,
      "bert": 7059,
      "sañul": 7060,
      "yeggee": 7061,
      "gatandu": 7062,
      "bammeelam": 7063,
      "wuutuloxo": 7064,
      "niral": 7065,
      "yékkatiku": 7066,
      "tolluwaayam": 7067,
      "xarekatam": 7068,
      "yoxoy": 7069,
      "laqatu": 7070,
      "demok": 7071,
      "jëfin": 7072,
      "banqaasi": 7073,
      "saken": 7074,
      "yooryoor": 7075,
      "news": 7076,
      "nóoyin": 7077,
      "ñemewu": 7078,
      "ibraahima": 7079,
      "kuuy": 7080,
      "krist": 7081,
      "ecen": 7082,
      "télépho": 7083,
      "addinaam": 7084,
      "muxtaar": 7085,
      "bajjen": 7086,
      "sujóot": 7087,
      "mexico": 7088,
      "anañas": 7089,
      "alfurqan": 7090,
      "air": 7091,
      "cca": 7092,
      "etu": 7093,
      "gari": 7094,
      "gent": 7095,
      "góol": 7096,
      "indee": 7097,
      "lalal": 7098,
      "md": 7099,
      "non": 7100,
      "pol": 7101,
      "tóok": 7102,
      "ven": 7103,
      "alaraf": 7104,
      "alhaaji": 7105,
      "nawe": 7106,
      "dit": 7107,
      "ngël": 7108,
      "tex": 7109,
      "tembe": 7110,
      "kote": 7111,
      "koman": 7112,
      "kodd": 7113,
      "libé": 7114,
      "demu": 7115,
      "desul": 7116,
      "bag": 7117,
      "baj": 7118,
      "bajjan": 7119,
      "ndaam": 7120,
      "nik": 7121,
      "gisatu": 7122,
      "duni": 7123,
      "dabu": 7124,
      "attey": 7125,
      "ora": 7126,
      "fasam": 7127,
      "mbeex": 7128,
      "loolii": 7129,
      "cakk": 7130,
      "wuyoo": 7131,
      "defkati": 7132,
      "jinax": 7133,
      "seenum": 7134,
      "mang": 7135,
      "manóo": 7136,
      "manke": 7137,
      "manoona": 7138,
      "kib": 7139,
      "sammi": 7140,
      "sea": 7141,
      "sep": 7142,
      "waas": 7143,
      "waaji": 7144,
      "maag": 7145,
      "aley": 7146,
      "barma": 7147,
      "fis": 7148,
      "fileek": 7149,
      "ñaartéeméeri": 7150,
      "dëgë": 7151,
      "talli": 7152,
      "dalub": 7153,
      "bëggée": 7154,
      "joyal": 7155,
      "saafar": 7156,
      "kandi": 7157,
      "sob": 7158,
      "mbisin": 7159,
      "xef": 7160,
      "ndiku": 7161,
      "yoot": 7162,
      "menu": 7163,
      "xaati": 7164,
      "yos": 7165,
      "sance": 7166,
      "bëtub": 7167,
      "jiité": 7168,
      "xeebu": 7169,
      "tëŋ": 7170,
      "faas": 7171,
      "toppu": 7172,
      "yitteel": 7173,
      "yarub": 7174,
      "ibra": 7175,
      "sooke": 7176,
      "yoree": 7177,
      "uton": 7178,
      "nooyal": 7179,
      "pikin": 7180,
      "martin": 7181,
      "ñaanleen": 7182,
      "lou": 7183,
      "yónnent": 7184,
      "peggu": 7185,
      "tayyeel": 7186,
      "defarkatu": 7187,
      "mott": 7188,
      "xeexub": 7189,
      "sonnoon": 7190,
      "cemp": 7191,
      "lakkal": 7192,
      "mbasum": 7193,
      "doye": 7194,
      "doyna": 7195,
      "ñamu": 7196,
      "darab": 7197,
      "yaxan": 7198,
      "daqal": 7199,
      "sammon": 7200,
      "saraxalukaay": 7201,
      "dimbli": 7202,
      "ilyaas": 7203,
      "dikkée": 7204,
      "njëriñ": 7205,
      "tooñkat": 7206,
      "jawriñu": 7207,
      "sóol": 7208,
      "ving": 7209,
      "lëndë": 7210,
      "xatxat": 7211,
      "taggatkatu": 7212,
      "moytuwul": 7213,
      "soriwul": 7214,
      "dawalkat": 7215,
      "masumaa": 7216,
      "jeexiitalu": 7217,
      "safaanoo": 7218,
      "kókk": 7219,
      "ndeene": 7220,
      "pettaaw": 7221,
      "wottuleen": 7222,
      "ndimbël": 7223,
      "siyaaresi": 7224,
      "móritani": 7225,
      "deefna": 7226,
      "machi": 7227,
      "covidbi": 7228,
      "kayiti": 7229,
      "mbambulaanu": 7230,
      "sandarm": 7231,
      "wuutale": 7232,
      "esteban": 7233,
      "palais": 7234,
      "bëlë": 7235,
      "maamaati": 7236,
      "nataneel": 7237,
      "wakkiirlu": 7238,
      "ndemsiyalla": 7239,
      "tóokóor": 7240,
      "cham": 7241,
      "ekk": 7242,
      "eduwaar": 7243,
      "fbi": 7244,
      "fër": 7245,
      "nte": 7246,
      "pam": 7247,
      "pla": 7248,
      "put": 7249,
      "wëgg": 7250,
      "wiin": 7251,
      "waksi": 7252,
      "alli": 7253,
      "kke": 7254,
      "bitu": 7255,
      "newu": 7256,
      "konaa": 7257,
      "koddu": 7258,
      "mumana": 7259,
      "akayi": 7260,
      "limi": 7261,
      "dendak": 7262,
      "ndóo": 7263,
      "nie": 7264,
      "nitug": 7265,
      "nimero": 7266,
      "gie": 7267,
      "atlan": 7268,
      "fajoo": 7269,
      "waxees": 7270,
      "wub": 7271,
      "wun": 7272,
      "sie": 7273,
      "sipar": 7274,
      "reseñ": 7275,
      "restor": 7276,
      "nekkatu": 7277,
      "gëmadi": 7278,
      "itte": 7279,
      "setam": 7280,
      "fegu": 7281,
      "waajuri": 7282,
      "baatin": 7283,
      "laalul": 7284,
      "laajaat": 7285,
      "njoo": 7286,
      "furi": 7287,
      "rai": 7288,
      "teewee": 7289,
      "dali": 7290,
      "dallam": 7291,
      "joante": 7292,
      "saasu": 7293,
      "saabal": 7294,
      "yaaxam": 7295,
      "yetu": 7296,
      "saxleen": 7297,
      "nattal": 7298,
      "seedes": 7299,
      "ganjaru": 7300,
      "santar": 7301,
      "yëgee": 7302,
      "weti": 7303,
      "jappante": 7304,
      "doxin": 7305,
      "juróomñaareelu": 7306,
      "rocci": 7307,
      "reere": 7308,
      "lëg": 7309,
      "mbaaxam": 7310,
      "bayyiloo": 7311,
      "jubloo": 7312,
      "diggdóomu": 7313,
      "mbirëm": 7314,
      "laajante": 7315,
      "peter": 7316,
      "mbuu": 7317,
      "fukkeel": 7318,
      "garaafi": 7319,
      "sayda": 7320,
      "miim": 7321,
      "kilifaam": 7322,
      "inke": 7323,
      "yallaay": 7324,
      "ques": 7325,
      "aluma": 7326,
      "sañoon": 7327,
      "néegi": 7328,
      "cey": 7329,
      "xot": 7330,
      "coowal": 7331,
      "doomiaadama": 7332,
      "wertë": 7333,
      "rammu": 7334,
      "fatteli": 7335,
      "ndigalul": 7336,
      "mbayum": 7337,
      "taqoo": 7338,
      "riis": 7339,
      "jugoon": 7340,
      "jawwi": 7341,
      "banneexi": 7342,
      "betsayda": 7343,
      "wotekat": 7344,
      "habii": 7345,
      "kuréli": 7346,
      "jéey": 7347,
      "pital": 7348,
      "port": 7349,
      "jalooreem": 7350,
      "sunnaam": 7351,
      "masuma": 7352,
      "waruta": 7353,
      "burki": 7354,
      "dakkan": 7355,
      "mendi": 7356,
      "dëppoowul": 7357,
      "wommatal": 7358,
      "móodumóodu": 7359,
      "maris": 7360,
      "metitlu": 7361,
      "jollee": 7362,
      "teraangay": 7363,
      "ziz": 7364,
      "wottukat": 7365,
      "rahiimi": 7366,
      "féewale": 7367,
      "kalaas": 7368,
      "faaydaal": 7369,
      "korney": 7370,
      "pompe": 7371,
      "faalewul": 7372,
      "bisaawo": 7373,
      "laŋket": 7374,
      "comme": 7375,
      "janglekat": 7376,
      "maseduwaan": 7377,
      "lëkkalekaay": 7378,
      "tegaloo": 7379,
      "jakkarlook": 7380,
      "halay": 7381,
      "sóoraale": 7382,
      "cafka": 7383,
      "alluwa": 7384,
      "nettalib": 7385,
      "senateer": 7386,
      "wikipedia": 7387,
      "ndëgërlu": 7388,
      "bilisite": 7389,
      "premi": 7390,
      "caisse": 7391,
      "wérëdi": 7392,
      "apolos": 7393,
      "grand": 7394,
      "sariiya": 7395,
      "salfaañe": 7396,
      "cammoñ": 7397,
      "tasawuf": 7398,
      "dorog": 7399,
      "gel": 7400,
      "keer": 7401,
      "nji": 7402,
      "omi": 7403,
      "pel": 7404,
      "paf": 7405,
      "ral": 7406,
      "sde": 7407,
      "sari": 7408,
      "sco": 7409,
      "toppi": 7410,
      "vil": 7411,
      "xer": 7412,
      "aaŋ": 7413,
      "oomu": 7414,
      "oolu": 7415,
      "eekoo": 7416,
      "alma": 7417,
      "nasax": 7418,
      "naree": 7419,
      "napoli": 7420,
      "disee": 7421,
      "ngar": 7422,
      "nemm": 7423,
      "kongo": 7424,
      "mub": 7425,
      "lus": 7426,
      "luqi": 7427,
      "naali": 7428,
      "miku": 7429,
      "micro": 7430,
      "atta": 7431,
      "awaay": 7432,
      "fasoŋ": 7433,
      "till": 7434,
      "aaleel": 7435,
      "refe": 7436,
      "defkatu": 7437,
      "tasee": 7438,
      "taire": 7439,
      "ñiŋ": 7440,
      "feder": 7441,
      "waame": 7442,
      "jafan": 7443,
      "baatukaay": 7444,
      "njar": 7445,
      "njol": 7446,
      "gisiinu": 7447,
      "wiccax": 7448,
      "rakki": 7449,
      "teeñ": 7450,
      "dalam": 7451,
      "bëggoona": 7452,
      "astin": 7453,
      "jurom": 7454,
      "taabul": 7455,
      "dékk": 7456,
      "sof": 7457,
      "tamsiir": 7458,
      "balle": 7459,
      "dëggël": 7460,
      "xebaaru": 7461,
      "deesul": 7462,
      "rekka": 7463,
      "dëkkal": 7464,
      "maysa": 7465,
      "bérabu": 7466,
      "mecce": 7467,
      "feelu": 7468,
      "yoni": 7469,
      "bëmëx": 7470,
      "jëmoon": 7471,
      "wedam": 7472,
      "woteel": 7473,
      "jëlsi": 7474,
      "fayeeku": 7475,
      "génnul": 7476,
      "wérul": 7477,
      "kes": 7478,
      "robo": 7479,
      "beeco": 7480,
      "leerale": 7481,
      "muccu": 7482,
      "ginnaw": 7483,
      "dollil": 7484,
      "siiñ": 7485,
      "jéyya": 7486,
      "garan": 7487,
      "tiiñal": 7488,
      "foot": 7489,
      "kiin": 7490,
      "wanq": 7491,
      "xewxewu": 7492,
      "hir": 7493,
      "namaab": 7494,
      "fomm": 7495,
      "pastéef": 7496,
      "waxtaanam": 7497,
      "soxnas": 7498,
      "raasi": 7499,
      "denk": 7500,
      "jooytu": 7501,
      "ñow": 7502,
      "lore": 7503,
      "verre": 7504,
      "futbalu": 7505,
      "kopparu": 7506,
      "mandargaam": 7507,
      "vie": 7508,
      "kuréelug": 7509,
      "payug": 7510,
      "hopital": 7511,
      "masuta": 7512,
      "sekkare": 7513,
      "qalikoo": 7514,
      "mënatu": 7515,
      "rahmaa": 7516,
      "kafrin": 7517,
      "tukkeem": 7518,
      "tëlé": 7519,
      "yett": 7520,
      "feddli": 7521,
      "addiya": 7522,
      "rosali": 7523,
      "hiima": 7524,
      "tefesug": 7525,
      "kéemaane": 7526,
      "azzu": 7527,
      "toppekat": 7528,
      "yóotu": 7529,
      "faramfa": 7530,
      "rangooñ": 7531,
      "libidoor": 7532,
      "wëlbëtiku": 7533,
      "bëccëgu": 7534,
      "mbugëlum": 7535,
      "boliwi": 7536,
      "universi": 7537,
      "azzuhd": 7538,
      "bbee": 7539,
      "brë": 7540,
      "cs": 7541,
      "cul": 7542,
      "folli": 7543,
      "foro": 7544,
      "jén": 7545,
      "jaboo": 7546,
      "osi": 7547,
      "palin": 7548,
      "ttal": 7549,
      "toy": 7550,
      "usa": 7551,
      "well": 7552,
      "yy": 7553,
      "ão": 7554,
      "éco": 7555,
      "digi": 7556,
      "ngeena": 7557,
      "aras": 7558,
      "kojug": 7559,
      "mud": 7560,
      "mudef": 7561,
      "ayero": 7562,
      "bundu": 7563,
      "lun": 7564,
      "ental": 7565,
      "dawe": 7566,
      "danañ": 7567,
      "kubu": 7568,
      "iiru": 7569,
      "catu": 7570,
      "tique": 7571,
      "tiyaatar": 7572,
      "siléy": 7573,
      "safar": 7574,
      "gës": 7575,
      "gëlé": 7576,
      "gëléem": 7577,
      "ruy": 7578,
      "ruut": 7579,
      "moomoon": 7580,
      "waate": 7581,
      "maamu": 7582,
      "jagal": 7583,
      "barsaq": 7584,
      "fus": 7585,
      "asiis": 7586,
      "daad": 7587,
      "daagu": 7588,
      "jomaay": 7589,
      "boram": 7590,
      "bokkmoomeel": 7591,
      "anter": 7592,
      "jamu": 7593,
      "tambar": 7594,
      "boppi": 7595,
      "jean": 7596,
      "jebbi": 7597,
      "neer": 7598,
      "baaxoon": 7599,
      "jaayi": 7600,
      "sëriñu": 7601,
      "yope": 7602,
      "sangub": 7603,
      "téelu": 7604,
      "bëyit": 7605,
      "jiitoo": 7606,
      "bindkati": 7607,
      "njiiteefu": 7608,
      "déggée": 7609,
      "génnaat": 7610,
      "kembaar": 7611,
      "rosa": 7612,
      "reeru": 7613,
      "nanuy": 7614,
      "lanket": 7615,
      "janool": 7616,
      "takkoo": 7617,
      "nton": 7618,
      "yéegé": 7619,
      "yorinu": 7620,
      "noos": 7621,
      "jéngu": 7622,
      "kaarange": 7623,
      "gos": 7624,
      "geer": 7625,
      "xalaatoon": 7626,
      "xalaatkat": 7627,
      "xasi": 7628,
      "wayadi": 7629,
      "tarii": 7630,
      "tarbiya": 7631,
      "solos": 7632,
      "njëkke": 7633,
      "taggale": 7634,
      "terale": 7635,
      "xottu": 7636,
      "parloo": 7637,
      "baara": 7638,
      "yambaa": 7639,
      "yëngug": 7640,
      "estaat": 7641,
      "sammal": 7642,
      "taaroo": 7643,
      "taaram": 7644,
      "mbokkoo": 7645,
      "jikkom": 7646,
      "wonk": 7647,
      "gennwallu": 7648,
      "ndoddu": 7649,
      "ramu": 7650,
      "njangle": 7651,
      "tannoon": 7652,
      "sannil": 7653,
      "camm": 7654,
      "ëllëk": 7655,
      "péncoo": 7656,
      "torlu": 7657,
      "torche": 7658,
      "bégleen": 7659,
      "ajja": 7660,
      "séenu": 7661,
      "jawrin": 7662,
      "vic": 7663,
      "vienne": 7664,
      "jokkalante": 7665,
      "póol": 7666,
      "sancoom": 7667,
      "allaaji": 7668,
      "féetewoo": 7669,
      "kaaraangeg": 7670,
      "coonoom": 7671,
      "yërëmé": 7672,
      "xutba": 7673,
      "njéeréer": 7674,
      "waruñoo": 7675,
      "serv": 7676,
      "yabbi": 7677,
      "sellam": 7678,
      "gaddaaye": 7679,
      "sowujant": 7680,
      "yilifoon": 7681,
      "ndayam": 7682,
      "rahmaan": 7683,
      "kaalawoo": 7684,
      "qatal": 7685,
      "méngoowul": 7686,
      "brett": 7687,
      "bënti": 7688,
      "jankoonteel": 7689,
      "deppaas": 7690,
      "yahood": 7691,
      "ordinatée": 7692,
      "faatiya": 7693,
      "ddat": 7694,
      "sofiet": 7695,
      "yewwi": 7696,
      "mbëjfeppal": 7697,
      "kureelug": 7698,
      "ndimmbal": 7699,
      "nuróol": 7700,
      "ndigëlul": 7701,
      "ndijooram": 7702,
      "muriid": 7703,
      "resilta": 7704,
      "tanneefu": 7705,
      "laxasu": 7706,
      "gregori": 7707,
      "donald": 7708,
      "carreaux": 7709,
      "sukkëndiku": 7710,
      "kandidaa": 7711,
      "kókkali": 7712,
      "añu": 7713,
      "coro": 7714,
      "dy": 7715,
      "faar": 7716,
      "fcfa": 7717,
      "góolu": 7718,
      "kma": 7719,
      "kéew": 7720,
      "mée": 7721,
      "uy": 7722,
      "wëpp": 7723,
      "eeti": 7724,
      "amadu": 7725,
      "dise": 7726,
      "lawe": 7727,
      "bitéy": 7728,
      "neko": 7729,
      "texee": 7730,
      "kok": 7731,
      "akay": 7732,
      "bus": 7733,
      "buma": 7734,
      "lile": 7735,
      "libe": 7736,
      "demug": 7737,
      "batu": 7738,
      "tupp": 7739,
      "gindée": 7740,
      "nuur": 7741,
      "oris": 7742,
      "mbel": 7743,
      "cadd": 7744,
      "tipp": 7745,
      "rido": 7746,
      "manta": 7747,
      "samam": 7748,
      "ruwan": 7749,
      "feq": 7750,
      "taxañ": 7751,
      "gala": 7752,
      "raj": 7753,
      "benneelu": 7754,
      "saane": 7755,
      "tooli": 7756,
      "toogandoo": 7757,
      "yemb": 7758,
      "jamñaa": 7759,
      "sou": 7760,
      "sodom": 7761,
      "seereer": 7762,
      "xejj": 7763,
      "melul": 7764,
      "diigal": 7765,
      "alist": 7766,
      "yoqat": 7767,
      "sandarma": 7768,
      "wesar": 7769,
      "jappleen": 7770,
      "maggaayu": 7771,
      "naanal": 7772,
      "ndeyi": 7773,
      "mënoo": 7774,
      "taxawaayam": 7775,
      "léppam": 7776,
      "wéradi": 7777,
      "niis": 7778,
      "kanamug": 7779,
      "costu": 7780,
      "lanc": 7781,
      "ibrë": 7782,
      "yéegal": 7783,
      "yégg": 7784,
      "maryaamam": 7785,
      "duggoon": 7786,
      "duggul": 7787,
      "ëpple": 7788,
      "yónnée": 7789,
      "matoon": 7790,
      "ñaani": 7791,
      "rafetaay": 7792,
      "mees": 7793,
      "xunti": 7794,
      "xaq": 7795,
      "tabbee": 7796,
      "feeñalal": 7797,
      "paul": 7798,
      "kaye": 7799,
      "ceer": 7800,
      "anamug": 7801,
      "këti": 7802,
      "hip": 7803,
      "mënumaa": 7804,
      "fata": 7805,
      "rayn": 7806,
      "pasar": 7807,
      "paspa": 7808,
      "jiituji": 7809,
      "naqq": 7810,
      "wori": 7811,
      "ndodd": 7812,
      "falee": 7813,
      "tabaxe": 7814,
      "feesak": 7815,
      "jógleen": 7816,
      "dénkoon": 7817,
      "jeewo": 7818,
      "joŋantey": 7819,
      "ñoddi": 7820,
      "lempi": 7821,
      "laalee": 7822,
      "xaste": 7823,
      "guddeek": 7824,
      "vir": 7825,
      "jokkook": 7826,
      "sosoon": 7827,
      "randal": 7828,
      "séytaane": 7829,
      "jëfekaay": 7830,
      "buux": 7831,
      "coppiteg": 7832,
      "jeexiiti": 7833,
      "yallaak": 7834,
      "laqoo": 7835,
      "saaliw": 7836,
      "ngërëmam": 7837,
      "njéggal": 7838,
      "sãri": 7839,
      "bëggunu": 7840,
      "politigu": 7841,
      "baaraamam": 7842,
      "matadi": 7843,
      "yënguyënguy": 7844,
      "lillaahi": 7845,
      "imran": 7846,
      "goxgoxaan": 7847,
      "dóox": 7848,
      "munuñu": 7849,
      "alasaan": 7850,
      "takkandeer": 7851,
      "ndiiwaan": 7852,
      "misaale": 7853,
      "yelleefu": 7854,
      "penaatii": 7855,
      "basiiru": 7856,
      "négandiku": 7857,
      "kamerun": 7858,
      "parlamaa": 7859,
      "albatros": 7860,
      "kulibali": 7861,
      "widéwoo": 7862,
      "xarefulwoon": 7863,
      "rahmaanir": 7864,
      "faramfacce": 7865,
      "ruwandaa": 7866,
      "jamñaajo": 7867,
      "costume": 7868,
      "cëpp": 7869,
      "dre": 7870,
      "fopp": 7871,
      "fleur": 7872,
      "ix": 7873,
      "iy": 7874,
      "iya": 7875,
      "ogo": 7876,
      "olempi": 7877,
      "taaya": 7878,
      "torop": 7879,
      "wóon": 7880,
      "xël": 7881,
      "eew": 7882,
      "aleel": 7883,
      "amale": 7884,
      "amtee": 7885,
      "lag": 7886,
      "ngaam": 7887,
      "ngeer": 7888,
      "teku": 7889,
      "tekkee": 7890,
      "koŋ": 7891,
      "ñurum": 7892,
      "éefi": 7893,
      "liv": 7894,
      "batale": 7895,
      "tut": 7896,
      "niit": 7897,
      "niya": 7898,
      "gini": 7899,
      "nuk": 7900,
      "numu": 7901,
      "dum": 7902,
      "duuf": 7903,
      "duun": 7904,
      "ence": 7905,
      "yudd": 7906,
      "mina": 7907,
      "allah": 7908,
      "kus": 7909,
      "kuran": 7910,
      "iii": 7911,
      "iini": 7912,
      "caga": 7913,
      "lewon": 7914,
      "siyon": 7915,
      "elson": 7916,
      "regle": 7917,
      "defuñu": 7918,
      "tafu": 7919,
      "taseek": 7920,
      "jibi": 7921,
      "jibe": 7922,
      "gëñ": 7923,
      "feg": 7924,
      "fem": 7925,
      "fet": 7926,
      "felig": 7927,
      "waali": 7928,
      "waaxu": 7929,
      "maatam": 7930,
      "jaga": 7931,
      "barsal": 7932,
      "nité": 7933,
      "radio": 7934,
      "ñaartéeméer": 7935,
      "doonee": 7936,
      "ette": 7937,
      "teeree": 7938,
      "jurbel": 7939,
      "daas": 7940,
      "daawuñu": 7941,
      "saab": 7942,
      "walug": 7943,
      "gënale": 7944,
      "tooñu": 7945,
      "gene": 7946,
      "saxoon": 7947,
      "soj": 7948,
      "socc": 7949,
      "tamar": 7950,
      "deewul": 7951,
      "wagg": 7952,
      "santaanee": 7953,
      "ñëwul": 7954,
      "fekku": 7955,
      "taxawoo": 7956,
      "sarxe": 7957,
      "sarwii": 7958,
      "waawaw": 7959,
      "lëngoo": 7960,
      "ñakkal": 7961,
      "faawu": 7962,
      "tollee": 7963,
      "jubb": 7964,
      "jubbënti": 7965,
      "takkee": 7966,
      "yittey": 7967,
      "deltu": 7968,
      "yoreel": 7969,
      "yorin": 7970,
      "duggaat": 7971,
      "siife": 7972,
      "tayle": 7973,
      "bésniki": 7974,
      "kiimaan": 7975,
      "waypólotig": 7976,
      "ngela": 7977,
      "quo": 7978,
      "xëyee": 7979,
      "bou": 7980,
      "karaama": 7981,
      "miskiin": 7982,
      "laltaay": 7983,
      "teralal": 7984,
      "boolewuñu": 7985,
      "mënuleen": 7986,
      "tëraloon": 7987,
      "juroomñaari": 7988,
      "teersi": 7989,
      "illal": 7990,
      "bambara": 7991,
      "morso": 7992,
      "yaqqu": 7993,
      "jaxu": 7994,
      "shay": 7995,
      "dëppóok": 7996,
      "liggéeyub": 7997,
      "futbalkati": 7998,
      "séeni": 7999,
      "yéenekaayu": 8000,
      "naqaru": 8001,
      "bërét": 8002,
      "xaraful": 8003,
      "jaglee": 8004,
      "wirdu": 8005,
      "dencoon": 8006,
      "monjaal": 8007,
      "feyyu": 8008,
      "kurélug": 8009,
      "cofeelam": 8010,
      "sampoon": 8011,
      "sooninke": 8012,
      "fattli": 8013,
      "tuuroo": 8014,
      "kollëre": 8015,
      "ekipu": 8016,
      "peese": 8017,
      "séqq": 8018,
      "ndabam": 8019,
      "maxtaar": 8020,
      "jolaa": 8021,
      "petr": 8022,
      "xëyna": 8023,
      "foogoon": 8024,
      "musóoroo": 8025,
      "andeek": 8026,
      "siggil": 8027,
      "tembte": 8028,
      "nemmiku": 8029,
      "wuyuji": 8030,
      "sammoonte": 8031,
      "jëfëndikoo": 8032,
      "kallaf": 8033,
      "depparte": 8034,
      "mbubbum": 8035,
      "tiitaru": 8036,
      "metitu": 8037,
      "jéllale": 8038,
      "lótt": 8039,
      "kalidu": 8040,
      "dëgmal": 8041,
      "cuuj": 8042,
      "qiima": 8043,
      "youtube": 8044,
      "fondamaa": 8045,
      "vingston": 8046,
      "diseene": 8047,
      "referan": 8048,
      "naqqari": 8049,
      "feligsë": 8050,
      "cli": 8051,
      "copp": 8052,
      "clas": 8053,
      "hen": 8054,
      "haw": 8055,
      "ige": 8056,
      "ikalla": 8057,
      "jw": 8058,
      "ong": 8059,
      "otan": 8060,
      "pur": 8061,
      "qoo": 8062,
      "spi": 8063,
      "ster": 8064,
      "uleen": 8065,
      "ura": 8066,
      "ñaay": 8067,
      "alha": 8068,
      "anaa": 8069,
      "andaa": 8070,
      "dition": 8071,
      "kong": 8072,
      "kokki": 8073,
      "akum": 8074,
      "ñudoon": 8075,
      "yici": 8076,
      "luug": 8077,
      "madd": 8078,
      "tubay": 8079,
      "dur": 8080,
      "duppe": 8081,
      "dawi": 8082,
      "naas": 8083,
      "naalub": 8084,
      "awul": 8085,
      "mbale": 8086,
      "guar": 8087,
      "lett": 8088,
      "tiset": 8089,
      "wujje": 8090,
      "abar": 8091,
      "sindi": 8092,
      "defoo": 8093,
      "nekkiinu": 8094,
      "rique": 8095,
      "manut": 8096,
      "sami": 8097,
      "maase": 8098,
      "laaxira": 8099,
      "njéem": 8100,
      "bartele": 8101,
      "biis": 8102,
      "fiq": 8103,
      "rabii": 8104,
      "rasuul": 8105,
      "jongo": 8106,
      "arafi": 8107,
      "mbiteer": 8108,
      "mbill": 8109,
      "damoo": 8110,
      "damba": 8111,
      "dammeel": 8112,
      "balde": 8113,
      "wasi": 8114,
      "dëkkul": 8115,
      "doq": 8116,
      "ndijoor": 8117,
      "baynuk": 8118,
      "toqi": 8119,
      "tegtali": 8120,
      "sani": 8121,
      "sannee": 8122,
      "yëkëti": 8123,
      "ñëwug": 8124,
      "suufi": 8125,
      "sareet": 8126,
      "pombiteer": 8127,
      "teddngay": 8128,
      "jëfka": 8129,
      "laajleen": 8130,
      "mats": 8131,
      "lekkal": 8132,
      "ñaanu": 8133,
      "génnal": 8134,
      "génnam": 8135,
      "xoolante": 8136,
      "dellul": 8137,
      "tég": 8138,
      "ténj": 8139,
      "pajum": 8140,
      "xëti": 8141,
      "boddi": 8142,
      "soppaliku": 8143,
      "géttu": 8144,
      "féeteek": 8145,
      "géejawaay": 8146,
      "xonk": 8147,
      "mbënd": 8148,
      "wóorna": 8149,
      "kerook": 8150,
      "tërale": 8151,
      "mbokkum": 8152,
      "ndate": 8153,
      "bëjgannaaru": 8154,
      "tabaxkat": 8155,
      "jógloo": 8156,
      "doxaliinu": 8157,
      "fitnay": 8158,
      "njariñal": 8159,
      "nééw": 8160,
      "jawali": 8161,
      "jokku": 8162,
      "mont": 8163,
      "ligéeyu": 8164,
      "tollale": 8165,
      "barkeem": 8166,
      "daleko": 8167,
      "lakkuw": 8168,
      "hop": 8169,
      "firil": 8170,
      "warula": 8171,
      "warunoo": 8172,
      "muntax": 8173,
      "juróomñettfukki": 8174,
      "digëntéem": 8175,
      "kéemtaan": 8176,
      "muuraay": 8177,
      "yakkamtee": 8178,
      "fransa": 8179,
      "dundiin": 8180,
      "ndënd": 8181,
      "banqaa": 8182,
      "njuréef": 8183,
      "wëlbatiku": 8184,
      "dollee": 8185,
      "ibraahiima": 8186,
      "boobaak": 8187,
      "xulli": 8188,
      "laksidaŋ": 8189,
      "beresil": 8190,
      "nettalee": 8191,
      "mbëkkante": 8192,
      "widewoo": 8193,
      "jëflëntéek": 8194,
      "xariti": 8195,
      "béreb": 8196,
      "tërëliin": 8197,
      "maqaama": 8198,
      "alamaan": 8199,
      "tubaarikalla": 8200,
      "kumandan": 8201,
      "ngénte": 8202,
      "kamiyoŋ": 8203,
      "nërméelu": 8204,
      "éleve": 8205,
      "aljihad": 8206,
      "téléphone": 8207,
      "sandarmóori": 8208,
      "ekkool": 8209,
      "habiibul": 8210,
      "tekuruur": 8211,
      "bartelemi": 8212,
      "aññ": 8213,
      "caw": 8214,
      "cari": 8215,
      "call": 8216,
      "ex": 8217,
      "hah": 8218,
      "kóol": 8219,
      "ld": 8220,
      "loon": 8221,
      "lël": 8222,
      "nokk": 8223,
      "pus": 8224,
      "prin": 8225,
      "rn": 8226,
      "sñ": 8227,
      "tëm": 8228,
      "za": 8229,
      "ñé": 8230,
      "aag": 8231,
      "oori": 8232,
      "eesi": 8233,
      "almu": 8234,
      "albir": 8235,
      "kkël": 8236,
      "die": 8237,
      "teye": 8238,
      "koko": 8239,
      "muju": 8240,
      "musii": 8241,
      "akam": 8242,
      "ñuu": 8243,
      "ayam": 8244,
      "liitam": 8245,
      "lutax": 8246,
      "deglu": 8247,
      "ggee": 8248,
      "ndandoo": 8249,
      "gilli": 8250,
      "sud": 8251,
      "enndonesi": 8252,
      "aaroo": 8253,
      "das": 8254,
      "dañiy": 8255,
      "jugal": 8256,
      "awo": 8257,
      "kug": 8258,
      "iila": 8259,
      "mbée": 8260,
      "guu": 8261,
      "guural": 8262,
      "leagu": 8263,
      "tiri": 8264,
      "siyaa": 8265,
      "sime": 8266,
      "sadd": 8267,
      "reb": 8268,
      "nekki": 8269,
      "nekkug": 8270,
      "mante": 8271,
      "mansa": 8272,
      "sem": 8273,
      "feu": 8274,
      "moomel": 8275,
      "waane": 8276,
      "yazi": 8277,
      "baayi": 8278,
      "yeewe": 8279,
      "njangal": 8280,
      "eth": 8281,
      "assa": 8282,
      "asol": 8283,
      "astalu": 8284,
      "doog": 8285,
      "saalif": 8286,
      "taataan": 8287,
      "walu": 8288,
      "bokksi": 8289,
      "sona": 8290,
      "tamxarit": 8291,
      "kkirlu": 8292,
      "wool": 8293,
      "waqi": 8294,
      "wakkirlu": 8295,
      "neey": 8296,
      "yoona": 8297,
      "kawee": 8298,
      "meññi": 8299,
      "media": 8300,
      "diinaar": 8301,
      "diineem": 8302,
      "sëg": 8303,
      "sën": 8304,
      "gantal": 8305,
      "dundul": 8306,
      "feey": 8307,
      "maggale": 8308,
      "doxaan": 8309,
      "faraa": 8310,
      "bandiko": 8311,
      "diggam": 8312,
      "leeraayu": 8313,
      "poset": 8314,
      "liggéeyandoo": 8315,
      "ntaan": 8316,
      "yékk": 8317,
      "kaabu": 8318,
      "góorjigéen": 8319,
      "penda": 8320,
      "lekkoon": 8321,
      "meet": 8322,
      "google": 8323,
      "géey": 8324,
      "tayel": 8325,
      "nuyyoo": 8326,
      "xajul": 8327,
      "waccal": 8328,
      "waccoon": 8329,
      "xareñ": 8330,
      "rawoon": 8331,
      "yokkug": 8332,
      "xeexkat": 8333,
      "feeñale": 8334,
      "njëkka": 8335,
      "wërale": 8336,
      "tasxibaar": 8337,
      "wuuf": 8338,
      "xoqatal": 8339,
      "nduwaan": 8340,
      "yamb": 8341,
      "jumaay": 8342,
      "keraan": 8343,
      "mbokku": 8344,
      "malaakay": 8345,
      "sakklin": 8346,
      "ndoktoor": 8347,
      "fasoon": 8348,
      "mbeng": 8349,
      "madrid": 8350,
      "wiiri": 8351,
      "mbalka": 8352,
      "raxul": 8353,
      "bëree": 8354,
      "dimbalikat": 8355,
      "dëgguwul": 8356,
      "ronal": 8357,
      "jéeg": 8358,
      "pont": 8359,
      "yombalal": 8360,
      "aqq": 8361,
      "aqqi": 8362,
      "sekkit": 8363,
      "lumumbaa": 8364,
      "serbi": 8365,
      "dakkantal": 8366,
      "taaxum": 8367,
      "njege": 8368,
      "wommatu": 8369,
      "jambaari": 8370,
      "njariñi": 8371,
      "mbamb": 8372,
      "goornamaab": 8373,
      "franse": 8374,
      "laahir": 8375,
      "roppalaan": 8376,
      "palaasu": 8377,
      "demokarat": 8378,
      "sãs": 8379,
      "awiyoŋ": 8380,
      "xeeñtu": 8381,
      "ndoorteelu": 8382,
      "gabon": 8383,
      "bënbën": 8384,
      "jankoonteek": 8385,
      "kangami": 8386,
      "nationale": 8387,
      "karim": 8388,
      "satala": 8389,
      "metital": 8390,
      "silisi": 8391,
      "siddéem": 8392,
      "jalloore": 8393,
      "yëglekaay": 8394,
      "ubbéeku": 8395,
      "chelsea": 8396,
      "jaajëfal": 8397,
      "repibilikeen": 8398,
      "soppalikaay": 8399,
      "saafoonte": 8400,
      "njéggël": 8401,
      "jëmëlé": 8402,
      "naissance": 8403,
      "bésnikitey": 8404,
      "wirduw": 8405,
      "albirr": 8406,
      "league": 8407,
      "simeyon": 8408,
      "bandikoto": 8409,
      "ave": 8410,
      "bli": 8411,
      "cy": 8412,
      "cla": 8413,
      "cen": 8414,
      "cub": 8415,
      "caat": 8416,
      "ction": 8417,
      "epp": 8418,
      "fre": 8419,
      "fra": 8420,
      "inde": 8421,
      "qati": 8422,
      "quray": 8423,
      "ud": 8424,
      "watt": 8425,
      "yang": 8426,
      "ñée": 8427,
      "amba": 8428,
      "amut": 8429,
      "nagu": 8430,
      "naxaa": 8431,
      "anii": 8432,
      "angu": 8433,
      "kkat": 8434,
      "diplo": 8435,
      "bimu": 8436,
      "newee": 8437,
      "art": 8438,
      "buti": 8439,
      "lujum": 8440,
      "denari": 8441,
      "badar": 8442,
      "ppa": 8443,
      "tubaa": 8444,
      "tuyaa": 8445,
      "niseeri": 8446,
      "sudd": 8447,
      "sunj": 8448,
      "dakku": 8449,
      "david": 8450,
      "jubul": 8451,
      "mbenni": 8452,
      "waxloo": 8453,
      "guyaa": 8454,
      "tige": 8455,
      "defãas": 8456,
      "riko": 8457,
      "mandax": 8458,
      "yeexe": 8459,
      "barak": 8460,
      "barag": 8461,
      "gisgisam": 8462,
      "galasi": 8463,
      "win": 8464,
      "dëël": 8465,
      "dalug": 8466,
      "ñooñee": 8467,
      "asar": 8468,
      "dooree": 8469,
      "juram": 8470,
      "daayi": 8471,
      "gakkal": 8472,
      "arabi": 8473,
      "déj": 8474,
      "yaakar": 8475,
      "gem": 8476,
      "jammu": 8477,
      "ëlaan": 8478,
      "deeyee": 8479,
      "deeye": 8480,
      "mayee": 8481,
      "mayul": 8482,
      "neeg": 8483,
      "baaxu": 8484,
      "baye": 8485,
      "diinat": 8486,
      "konn": 8487,
      "sancaa": 8488,
      "jëmmëm": 8489,
      "jappukaay": 8490,
      "wot": 8491,
      "gaajoo": 8492,
      "yót": 8493,
      "dayoom": 8494,
      "fekkeente": 8495,
      "farmasi": 8496,
      "rosen": 8497,
      "lëmbe": 8498,
      "mbaali": 8499,
      "gëmee": 8500,
      "léena": 8501,
      "toppul": 8502,
      "jalle": 8503,
      "ginnaa": 8504,
      "liggéeykatu": 8505,
      "delfi": 8506,
      "xalaatul": 8507,
      "ëppe": 8508,
      "yónnen": 8509,
      "pep": 8510,
      "pekk": 8511,
      "pend": 8512,
      "peyoor": 8513,
      "lama": 8514,
      "garã": 8515,
      "amewoon": 8516,
      "tuutee": 8517,
      "xaley": 8518,
      "meeru": 8519,
      "usmaani": 8520,
      "xupp": 8521,
      "tabar": 8522,
      "wayndare": 8523,
      "wayantoo": 8524,
      "weeram": 8525,
      "lakke": 8526,
      "karo": 8527,
      "tagge": 8528,
      "ndumbe": 8529,
      "daqoon": 8530,
      "yonnent": 8531,
      "ngoone": 8532,
      "waaree": 8533,
      "espa": 8534,
      "juroomñaar": 8535,
      "juroomñett": 8536,
      "leeralna": 8537,
      "workat": 8538,
      "dëkkukaw": 8539,
      "nëxal": 8540,
      "moroomu": 8541,
      "ajuwul": 8542,
      "aladab": 8543,
      "sukkandi": 8544,
      "feesale": 8545,
      "jabet": 8546,
      "jooyloo": 8547,
      "mébé": 8548,
      "kampaa": 8549,
      "ruuj": 8550,
      "taqaloo": 8551,
      "yelwaan": 8552,
      "ngalam": 8553,
      "vies": 8554,
      "jangukaay": 8555,
      "surn": 8556,
      "berg": 8557,
      "berlin": 8558,
      "rank": 8559,
      "taggatoo": 8560,
      "bataaxalu": 8561,
      "dunq": 8562,
      "coonoy": 8563,
      "kañseer": 8564,
      "taalubeem": 8565,
      "raññe": 8566,
      "fële": 8567,
      "digaloon": 8568,
      "lonku": 8569,
      "xett": 8570,
      "dendal": 8571,
      "couleurs": 8572,
      "fanaanee": 8573,
      "wërsëgëlé": 8574,
      "maxu": 8575,
      "roppëlaan": 8576,
      "belsig": 8577,
      "yegsee": 8578,
      "jumtuwaay": 8579,
      "sahel": 8580,
      "tirbi": 8581,
      "furno": 8582,
      "kuura": 8583,
      "jékkijékki": 8584,
      "xelalkat": 8585,
      "diola": 8586,
      "dënnam": 8587,
      "mahmud": 8588,
      "loppitaan": 8589,
      "sababub": 8590,
      "rakkaaju": 8591,
      "nikodem": 8592,
      "xóotal": 8593,
      "dajalee": 8594,
      "woddoo": 8595,
      "etijaŋ": 8596,
      "beddeeku": 8597,
      "xaralay": 8598,
      "xuuge": 8599,
      "keppaarug": 8600,
      "libération": 8601,
      "konaakiri": 8602,
      "xaqtaay": 8603,
      "tamarax": 8604,
      "muntaxaa": 8605,
      "quraysin": 8606,
      "denariyon": 8607,
      "ajaa": 8608,
      "bra": 8609,
      "blanc": 8610,
      "dj": 8611,
      "eni": 8612,
      "ecoo": 8613,
      "fs": 8614,
      "gh": 8615,
      "géen": 8616,
      "ines": 8617,
      "jóor": 8618,
      "klimaa": 8619,
      "laar": 8620,
      "ny": 8621,
      "pr": 8622,
      "renn": 8623,
      "ratt": 8624,
      "twit": 8625,
      "uh": 8626,
      "wóom": 8627,
      "aljana": 8628,
      "amleen": 8629,
      "natul": 8630,
      "diwi": 8631,
      "labal": 8632,
      "lake": 8633,
      "lañii": 8634,
      "binee": 8635,
      "arri": 8636,
      "mula": 8637,
      "mumel": 8638,
      "mubëgg": 8639,
      "aye": 8640,
      "ays": 8641,
      "liyaar": 8642,
      "yiak": 8643,
      "deri": 8644,
      "desal": 8645,
      "masamba": 8646,
      "gge": 8647,
      "bacc": 8648,
      "ndaat": 8649,
      "tuwaar": 8650,
      "tuxoo": 8651,
      "gir": 8652,
      "entere": 8653,
      "atteem": 8654,
      "xamnañu": 8655,
      "xamees": 8656,
      "fafal": 8657,
      "jëmb": 8658,
      "guro": 8659,
      "guux": 8660,
      "tili": 8661,
      "tiku": 8662,
      "abel": 8663,
      "singa": 8664,
      "siren": 8665,
      "sippi": 8666,
      "aalam": 8667,
      "defukaay": 8668,
      "segam": 8669,
      "boori": 8670,
      "fifa": 8671,
      "fiel": 8672,
      "leet": 8673,
      "rañaan": 8674,
      "rajax": 8675,
      "dootoo": 8676,
      "mëni": 8677,
      "yeriko": 8678,
      "saxoo": 8679,
      "tammbali": 8680,
      "seelu": 8681,
      "ëlleg": 8682,
      "dëggë": 8683,
      "wañ": 8684,
      "mayi": 8685,
      "dos": 8686,
      "dou": 8687,
      "xaree": 8688,
      "jaaxa": 8689,
      "alaate": 8690,
      "mek": 8691,
      "fanq": 8692,
      "toc": 8693,
      "sëpp": 8694,
      "sëqat": 8695,
      "ganj": 8696,
      "yaway": 8697,
      "jappul": 8698,
      "bew": 8699,
      "gaawa": 8700,
      "ñëwi": 8701,
      "maggee": 8702,
      "maggaayam": 8703,
      "yóbbal": 8704,
      "mënna": 8705,
      "farandoom": 8706,
      "taxawul": 8707,
      "déggé": 8708,
      "staan": 8709,
      "jjee": 8710,
      "niim": 8711,
      "lish": 8712,
      "mbaaw": 8713,
      "mbaaké": 8714,
      "salam": 8715,
      "jaari": 8716,
      "faak": 8717,
      "takkaay": 8718,
      "takktakk": 8719,
      "mucce": 8720,
      "liggéeyloo": 8721,
      "yéesu": 8722,
      "yéyu": 8723,
      "yoral": 8724,
      "xalaatee": 8725,
      "ñaanee": 8726,
      "ëppale": 8727,
      "xéewale": 8728,
      "lopit": 8729,
      "fiiriir": 8730,
      "jégén": 8731,
      "dangéen": 8732,
      "xajam": 8733,
      "yaggoon": 8734,
      "xarekati": 8735,
      "nakajekk": 8736,
      "yaakaarnaa": 8737,
      "ismay": 8738,
      "istamb": 8739,
      "mbatiit": 8740,
      "yëglu": 8741,
      "doyoon": 8742,
      "xoj": 8743,
      "gétën": 8744,
      "juroomeelu": 8745,
      "waante": 8746,
      "ndomb": 8747,
      "dogalee": 8748,
      "dogalam": 8749,
      "ramm": 8750,
      "penaal": 8751,
      "caabiy": 8752,
      "frank": 8753,
      "doxaliinam": 8754,
      "daggeeku": 8755,
      "jumtukaayam": 8756,
      "andil": 8757,
      "bégoon": 8758,
      "ëmboon": 8759,
      "sancoon": 8760,
      "ligeeyam": 8761,
      "monde": 8762,
      "jangalee": 8763,
      "penkub": 8764,
      "formula": 8765,
      "payooru": 8766,
      "taggatal": 8767,
      "palug": 8768,
      "mammoor": 8769,
      "genaay": 8770,
      "jéemu": 8771,
      "kurr": 8772,
      "mbaxan": 8773,
      "cëtëŋ": 8774,
      "seetaankat": 8775,
      "sekker": 8776,
      "caytu": 8777,
      "poos": 8778,
      "cërci": 8779,
      "france": 8780,
      "safaanukaay": 8781,
      "bisaawóo": 8782,
      "heat": 8783,
      "ndampaayu": 8784,
      "toftaloo": 8785,
      "jollil": 8786,
      "meññet": 8787,
      "puukare": 8788,
      "golf": 8789,
      "nobeel": 8790,
      "bëkknéeg": 8791,
      "déeyante": 8792,
      "yénguyéngu": 8793,
      "korite": 8794,
      "tappewu": 8795,
      "xéewëli": 8796,
      "xéewëlug": 8797,
      "sénégalaise": 8798,
      "prix": 8799,
      "mãasuur": 8800,
      "english": 8801,
      "taafantoo": 8802,
      "dakkantale": 8803,
      "halaykum": 8804,
      "njolloor": 8805,
      "école": 8806,
      "ayeropoor": 8807,
      "wëppa": 8808,
      "kóollëré": 8809,
      "musiiba": 8810,
      "yékkatee": 8811,
      "cubb": 8812,
      "usmaaniyoona": 8813,
      "ecoopi": 8814,
      "twitter": 8815,
      "bineegar": 8816,
      "istambóol": 8817,
      "ceen": 8818,
      "gj": 8819,
      "jpp": 8820,
      "jale": 8821,
      "jjuma": 8822,
      "rfm": 8823,
      "vol": 8824,
      "wokk": 8825,
      "what": 8826,
      "xatu": 8827,
      "yël": 8828,
      "zz": 8829,
      "zay": 8830,
      "ária": 8831,
      "ário": 8832,
      "ção": 8833,
      "ëdi": 8834,
      "ële": 8835,
      "ów": 8836,
      "alle": 8837,
      "albaq": 8838,
      "amário": 8839,
      "cien": 8840,
      "naba": 8841,
      "nani": 8842,
      "anni": 8843,
      "laz": 8844,
      "lapp": 8845,
      "latul": 8846,
      "lahuu": 8847,
      "bilaal": 8848,
      "nef": 8849,
      "teq": 8850,
      "aru": 8851,
      "araa": 8852,
      "arti": 8853,
      "muhar": 8854,
      "mukallaf": 8855,
      "ñudaa": 8856,
      "ayr": 8857,
      "buco": 8858,
      "linu": 8859,
      "demi": 8860,
      "demb": 8861,
      "mation": 8862,
      "bair": 8863,
      "tumbar": 8864,
      "naani": 8865,
      "mike": 8866,
      "xamna": 8867,
      "kuñ": 8868,
      "fatu": 8869,
      "faid": 8870,
      "mbalu": 8871,
      "mooñaale": 8872,
      "casa": 8873,
      "sim": 8874,
      "sina": 8875,
      "sagal": 8876,
      "oland": 8877,
      "nekkam": 8878,
      "nekkak": 8879,
      "nekkati": 8880,
      "tañ": 8881,
      "rib": 8882,
      "manal": 8883,
      "mandu": 8884,
      "rua": 8885,
      "seriñ": 8886,
      "sedaar": 8887,
      "seker": 8888,
      "sekere": 8889,
      "feyu": 8890,
      "feccu": 8891,
      "moomal": 8892,
      "yeeme": 8893,
      "laaxu": 8894,
      "laajul": 8895,
      "galan": 8896,
      "leetar": 8897,
      "warlu": 8898,
      "doonal": 8899,
      "teewaay": 8900,
      "bëggal": 8901,
      "asante": 8902,
      "demam": 8903,
      "demlante": 8904,
      "juroon": 8905,
      "eraa": 8906,
      "gag": 8907,
      "joq": 8908,
      "joamário": 8909,
      "saalu": 8910,
      "arafu": 8911,
      "wali": 8912,
      "bokkoo": 8913,
      "jami": 8914,
      "sott": 8915,
      "balaam": 8916,
      "dëggug": 8917,
      "wave": 8918,
      "domini": 8919,
      "kawlak": 8920,
      "aliman": 8921,
      "kont": 8922,
      "dundale": 8923,
      "jappalante": 8924,
      "beñe": 8925,
      "wowe": 8926,
      "ñëwagul": 8927,
      "barina": 8928,
      "bindaat": 8929,
      "tëf": 8930,
      "tëngéej": 8931,
      "déggante": 8932,
      "straa": 8933,
      "seeniy": 8934,
      "wéye": 8935,
      "wérug": 8936,
      "kekk": 8937,
      "niil": 8938,
      "reek": 8939,
      "reeloo": 8940,
      "mbaale": 8941,
      "jigéenam": 8942,
      "diggbëccëg": 8943,
      "jallu": 8944,
      "pov": 8945,
      "podoor": 8946,
      "bañal": 8947,
      "noongi": 8948,
      "récc": 8949,
      "ñaanoon": 8950,
      "jélal": 8951,
      "lambi": 8952,
      "ñaanug": 8953,
      "danmark": 8954,
      "tuutal": 8955,
      "taalifi": 8956,
      "miis": 8957,
      "koomam": 8958,
      "sellale": 8959,
      "wayfippu": 8960,
      "yallaam": 8961,
      "nocci": 8962,
      "taraa": 8963,
      "yokkal": 8964,
      "aggul": 8965,
      "bot": 8966,
      "ragalul": 8967,
      "dugaloon": 8968,
      "manatul": 8969,
      "paree": 8970,
      "darra": 8971,
      "yaxam": 8972,
      "nambuco": 8973,
      "soxlawoo": 8974,
      "keroo": 8975,
      "ngoogu": 8976,
      "fog": 8977,
      "fond": 8978,
      "manuel": 8979,
      "cuq": 8980,
      "xoot": 8981,
      "jiituwoon": 8982,
      "ché": 8983,
      "cher": 8984,
      "ndongoy": 8985,
      "mbej": 8986,
      "caagée": 8987,
      "tabaxoon": 8988,
      "faatug": 8989,
      "fraas": 8990,
      "yaqal": 8991,
      "yaqkat": 8992,
      "séenee": 8993,
      "daggasante": 8994,
      "pernambuco": 8995,
      "birël": 8996,
      "pólótigam": 8997,
      "ruuwam": 8998,
      "wëtt": 8999,
      "saytug": 9000,
      "xasee": 9001,
      "sófóor": 9002,
      "sabopp": 9003,
      "roof": 9004,
      "tegukaayu": 9005,
      "haq": 9006,
      "haqi": 9007,
      "amuleen": 9008,
      "siinwaa": 9009,
      "tëddee": 9010,
      "palastin": 9011,
      "tuubleen": 9012,
      "xalifab": 9013,
      "house": 9014,
      "rëcce": 9015,
      "nataalub": 9016,
      "appli": 9017,
      "séqoo": 9018,
      "marseille": 9019,
      "woppoon": 9020,
      "satumbar": 9021,
      "wattukat": 9022,
      "njureefi": 9023,
      "reeni": 9024,
      "jommal": 9025,
      "jaarjaaru": 9026,
      "sampiyo": 9027,
      "amtiku": 9028,
      "psg": 9029,
      "laksidãa": 9030,
      "wareesu": 9031,
      "dimmali": 9032,
      "ofisel": 9033,
      "layookat": 9034,
      "raphi": 9035,
      "posetu": 9036,
      "njeexitalu": 9037,
      "seenuw": 9038,
      "misik": 9039,
      "sattumbar": 9040,
      "dencukaayu": 9041,
      "yonentam": 9042,
      "ngérte": 9043,
      "njaxlaf": 9044,
      "jëwrini": 9045,
      "kilifteefug": 9046,
      "wëndeeluwaan": 9047,
      "mbiita": 9048,
      "kasawkasaw": 9049,
      "pappa": 9050,
      "munich": 9051,
      "tumbrank": 9052,
      "lëkkëlóo": 9053,
      "nasiyo": 9054,
      "mbébétu": 9055,
      "missionária": 9056,
      "dëkkëndo": 9057,
      "raxasu": 9058,
      "oração": 9059,
      "brëtaañ": 9060,
      "guardiola": 9061,
      "sancaago": 9062,
      "muharram": 9063,
      "bairro": 9064,
      "faidher": 9065,
      "cëgg": 9066,
      "cfu": 9067,
      "dri": 9068,
      "ete": 9069,
      "eggal": 9070,
      "fitam": 9071,
      "ikoñu": 9072,
      "ks": 9073,
      "ota": 9074,
      "pak": 9075,
      "për": 9076,
      "pag": 9077,
      "pyong": 9078,
      "raan": 9079,
      "sn": 9080,
      "stam": 9081,
      "sërë": 9082,
      "umay": 9083,
      "ulug": 9084,
      "var": 9085,
      "vis": 9086,
      "wn": 9087,
      "yak": 9088,
      "ylla": 9089,
      "ñale": 9090,
      "ŋank": 9091,
      "aatal": 9092,
      "aakon": 9093,
      "alton": 9094,
      "cil": 9095,
      "nap": 9096,
      "nañuy": 9097,
      "antar": 9098,
      "diŋ": 9099,
      "newi": 9100,
      "temboo": 9101,
      "kongóo": 9102,
      "ñukk": 9103,
      "ñune": 9104,
      "axal": 9105,
      "bulu": 9106,
      "liw": 9107,
      "livingston": 9108,
      "bagaa": 9109,
      "ndum": 9110,
      "tup": 9111,
      "ning": 9112,
      "nugg": 9113,
      "sulay": 9114,
      "dajul": 9115,
      "fason": 9116,
      "mooko": 9117,
      "gutt": 9118,
      "leru": 9119,
      "leggal": 9120,
      "tibbe": 9121,
      "oxo": 9122,
      "oxu": 9123,
      "siwis": 9124,
      "sims": 9125,
      "aaleem": 9126,
      "reso": 9127,
      "defaas": 9128,
      "defiin": 9129,
      "tah": 9130,
      "kit": 9131,
      "sambi": 9132,
      "sebul": 9133,
      "feye": 9134,
      "janax": 9135,
      "yacc": 9136,
      "yeey": 9137,
      "kase": 9138,
      "wari": 9139,
      "wiye": 9140,
      "rasuu": 9141,
      "dëmm": 9142,
      "bëggon": 9143,
      "kookee": 9144,
      "jonante": 9145,
      "saaw": 9146,
      "taaxi": 9147,
      "déwén": 9148,
      "toolub": 9149,
      "bokke": 9150,
      "bokkaloon": 9151,
      "gey": 9152,
      "james": 9153,
      "sole": 9154,
      "somali": 9155,
      "seefa": 9156,
      "dammel": 9157,
      "dammit": 9158,
      "wood": 9159,
      "wooleen": 9160,
      "woowaat": 9161,
      "waq": 9162,
      "dëkkaan": 9163,
      "mayuñu": 9164,
      "dofu": 9165,
      "neexam": 9166,
      "neegu": 9167,
      "yooyoo": 9168,
      "yooyii": 9169,
      "joxal": 9170,
      "med": 9171,
      "mekan": 9172,
      "fanu": 9173,
      "fannu": 9174,
      "mbootayu": 9175,
      "konte": 9176,
      "gani": 9177,
      "ganaaw": 9178,
      "jiixi": 9179,
      "ñëwu": 9180,
      "solof": 9181,
      "bindé": 9182,
      "tëje": 9183,
      "tëjal": 9184,
      "ubn": 9185,
      "farmata": 9186,
      "janti": 9187,
      "toppkatu": 9188,
      "poto": 9189,
      "bañatee": 9190,
      "bakkaaru": 9191,
      "yéré": 9192,
      "rése": 9193,
      "rëkk": 9194,
      "rëpp": 9195,
      "kaaf": 9196,
      "kaat": 9197,
      "london": 9198,
      "peyug": 9199,
      "fukkéelu": 9200,
      "noppil": 9201,
      "gou": 9202,
      "garaaw": 9203,
      "tiin": 9204,
      "tiisu": 9205,
      "tuuba": 9206,
      "nangug": 9207,
      "usman": 9208,
      "géewu": 9209,
      "ndoxu": 9210,
      "gannaawam": 9211,
      "xadd": 9212,
      "xaqat": 9213,
      "ngere": 9214,
      "téj": 9215,
      "téyee": 9216,
      "wërlaay": 9217,
      "xëdd": 9218,
      "cep": 9219,
      "bocci": 9220,
      "lawdise": 9221,
      "tontul": 9222,
      "xewxewi": 9223,
      "kartu": 9224,
      "doyo": 9225,
      "hikma": 9226,
      "milyoni": 9227,
      "yaaram": 9228,
      "daarul": 9229,
      "yonne": 9230,
      "raykatu": 9231,
      "wóorul": 9232,
      "waaraam": 9233,
      "xoox": 9234,
      "santoon": 9235,
      "dimbal": 9236,
      "gennwall": 9237,
      "ndogu": 9238,
      "bammeelu": 9239,
      "yani": 9240,
      "tawati": 9241,
      "raasin": 9242,
      "faloo": 9243,
      "njangaan": 9244,
      "tabaxaat": 9245,
      "masoon": 9246,
      "joŋan": 9247,
      "ngone": 9248,
      "mbott": 9249,
      "yaqoo": 9250,
      "jaxaaw": 9251,
      "mbébét": 9252,
      "ëllëgam": 9253,
      "puso": 9254,
      "dëppoog": 9255,
      "kamis": 9256,
      "guyy": 9257,
      "wëri": 9258,
      "ndés": 9259,
      "almaami": 9260,
      "gayndey": 9261,
      "reewam": 9262,
      "bbali": 9263,
      "seexu": 9264,
      "guddaayu": 9265,
      "xél": 9266,
      "sancug": 9267,
      "njublan": 9268,
      "dofdof": 9269,
      "ngëmadi": 9270,
      "thé": 9271,
      "dawalkati": 9272,
      "haaj": 9273,
      "baxam": 9274,
      "gëtëm": 9275,
      "ñaxtukat": 9276,
      "tallaliku": 9277,
      "zia": 9278,
      "kolobaan": 9279,
      "rahman": 9280,
      "deñc": 9281,
      "ndëndam": 9282,
      "sãru": 9283,
      "patrio": 9284,
      "sunnas": 9285,
      "pomme": 9286,
      "nandal": 9287,
      "dóotu": 9288,
      "móris": 9289,
      "peresidãa": 9290,
      "donggala": 9291,
      "ndiggam": 9292,
      "rattax": 9293,
      "ndombotank": 9294,
      "ners": 9295,
      "nelson": 9296,
      "lillaah": 9297,
      "boyetu": 9298,
      "waññikug": 9299,
      "tiitaroo": 9300,
      "jefandiku": 9301,
      "alhakim": 9302,
      "bóris": 9303,
      "gërëmul": 9304,
      "torowas": 9305,
      "kalifor": 9306,
      "jurukaayu": 9307,
      "munulwoon": 9308,
      "misaalu": 9309,
      "yelleefi": 9310,
      "pibbilisite": 9311,
      "nuyulleen": 9312,
      "wurusu": 9313,
      "lekkukaayu": 9314,
      "dëxëñ": 9315,
      "baraxlu": 9316,
      "navy": 9317,
      "wujjam": 9318,
      "gongikuwaay": 9319,
      "gannaawsitey": 9320,
      "demokraasi": 9321,
      "septambar": 9322,
      "setammbur": 9323,
      "aaŋkay": 9324,
      "jaboot": 9325,
      "ordinatéer": 9326,
      "petrol": 9327,
      "njéemé": 9328,
      "jongoma": 9329,
      "awokaa": 9330,
      "naxaate": 9331,
      "niseeriyaa": 9332,
      "sunjata": 9333,
      "xettliku": 9334,
      "fafalnaaw": 9335,
      "ismayla": 9336,
      "yëlëb": 9337,
      "albaqarah": 9338,
      "straali": 9339,
      "keroogee": 9340,
      "nasiyonaal": 9341,
      "faidherbe": 9342,
      "ikoñum": 9343,
      "solofrayn": 9344,
      "xaqataay": 9345,
      "ajan": 9346,
      "beel": 9347,
      "fof": 9348,
      "gran": 9349,
      "ht": 9350,
      "ia": 9351,
      "ipres": 9352,
      "image": 9353,
      "kel": 9354,
      "kala": 9355,
      "naayu": 9356,
      "njudd": 9357,
      "nërëm": 9358,
      "ole": 9359,
      "phil": 9360,
      "qad": 9361,
      "tfm": 9362,
      "yóor": 9363,
      "aatee": 9364,
      "almana": 9365,
      "allub": 9366,
      "ambil": 9367,
      "amutoon": 9368,
      "amatuñu": 9369,
      "diwu": 9370,
      "ngen": 9371,
      "ngand": 9372,
      "ted": 9373,
      "teyu": 9374,
      "tech": 9375,
      "arrahman": 9376,
      "komini": 9377,
      "budee": 9378,
      "lifeek": 9379,
      "detaa": 9380,
      "magu": 9381,
      "aaroona": 9382,
      "daqu": 9383,
      "datt": 9384,
      "dattu": 9385,
      "naane": 9386,
      "naale": 9387,
      "jure": 9388,
      "jugee": 9389,
      "julit": 9390,
      "mik": 9391,
      "mir": 9392,
      "awra": 9393,
      "xamnaa": 9394,
      "jëndi": 9395,
      "guwar": 9396,
      "absa": 9397,
      "sinee": 9398,
      "silo": 9399,
      "safi": 9400,
      "reyal": 9401,
      "tacc": 9402,
      "takki": 9403,
      "jis": 9404,
      "gëni": 9405,
      "naga": 9406,
      "manduwaar": 9407,
      "kis": 9408,
      "sexaw": 9409,
      "maali": 9410,
      "baali": 9411,
      "yeeku": 9412,
      "laayi": 9413,
      "laand": 9414,
      "ddante": 9415,
      "njaw": 9416,
      "bartélé": 9417,
      "boolu": 9418,
      "fuqale": 9419,
      "filo": 9420,
      "katub": 9421,
      "waralu": 9422,
      "waruñu": 9423,
      "teewu": 9424,
      "doolee": 9425,
      "oonug": 9426,
      "gajjan": 9427,
      "joggi": 9428,
      "taawam": 9429,
      "gënaloon": 9430,
      "tooru": 9431,
      "yekk": 9432,
      "songu": 9433,
      "tampe": 9434,
      "nattee": 9435,
      "seef": 9436,
      "waters": 9437,
      "tansani": 9438,
      "mayam": 9439,
      "bége": 9440,
      "doge": 9441,
      "ndimë": 9442,
      "neewal": 9443,
      "jaabir": 9444,
      "jaaseem": 9445,
      "yoolub": 9446,
      "bayhaqi": 9447,
      "gaalam": 9448,
      "diin": 9449,
      "toji": 9450,
      "togo": 9451,
      "bëer": 9452,
      "jappndal": 9453,
      "liggdee": 9454,
      "beppu": 9455,
      "xeesal": 9456,
      "daymaan": 9457,
      "soloon": 9458,
      "ugóor": 9459,
      "jëkkoon": 9460,
      "jógu": 9461,
      "ddum": 9462,
      "wétt": 9463,
      "reewu": 9464,
      "lëlu": 9465,
      "mbaalug": 9466,
      "banneexam": 9467,
      "jaaraat": 9468,
      "neexalu": 9469,
      "bayyiwuñu": 9470,
      "powum": 9471,
      "jangoon": 9472,
      "yorul": 9473,
      "soxlaam": 9474,
      "marsey": 9475,
      "rëbbi": 9476,
      "rafete": 9477,
      "góorgi": 9478,
      "ëppul": 9479,
      "siirul": 9480,
      "xuri": 9481,
      "xumbal": 9482,
      "tayba": 9483,
      "taysiirul": 9484,
      "séyee": 9485,
      "innaa": 9486,
      "nose": 9487,
      "tartar": 9488,
      "rawee": 9489,
      "xeexi": 9490,
      "dinaatëer": 9491,
      "wërngal": 9492,
      "ceet": 9493,
      "sañam": 9494,
      "bakkaari": 9495,
      "israa": 9496,
      "lakkam": 9497,
      "karce": 9498,
      "daraame": 9499,
      "géejpeek": 9500,
      "soxlawuma": 9501,
      "wergu": 9502,
      "sammkat": 9503,
      "njaayam": 9504,
      "wutsi": 9505,
      "meree": 9506,
      "sukkur": 9507,
      "massa": 9508,
      "dénkaan": 9509,
      "amalul": 9510,
      "yuux": 9511,
      "farãans": 9512,
      "eefna": 9513,
      "ahad": 9514,
      "nooni": 9515,
      "muñël": 9516,
      "yaatuwaayam": 9517,
      "liggéeyukaayu": 9518,
      "taqali": 9519,
      "tënkoo": 9520,
      "saytubiddiw": 9521,
      "fentaakon": 9522,
      "wattandiku": 9523,
      "séeju": 9524,
      "gëstuy": 9525,
      "bërki": 9526,
      "bërgël": 9527,
      "xéyee": 9528,
      "xaajale": 9529,
      "surgab": 9530,
      "ngaañ": 9531,
      "séddalee": 9532,
      "sabóor": 9533,
      "fortaatu": 9534,
[...]
