{"a":0,"b":1,"c":2,"d":3,"e":4,"f":5,"g":6,"h":7,"i":8,"j":9,"k":10,"l":11,"m":12,"n":13,"o":14,"p":15,"q":16,"r":17,"s":18,"t":19,"u":20,"v":21,"w":22,"x":23,"y":24,"z":25,"á":26,"ã":27,"ç":28,"è":29,"é":30,"ë":31,"ñ":32,"ó":33,"õ":34,"ŋ":35,"ɓ":36,"ẽ":37,"aa":38,"oo":39,"ee":40,"al":41,"am":42,"ci":43,"na":44,"an":45,"kk":46,"di":47,"la":48,"bi":49,"ng":50,"ne":51,"te":52,"ar":53,"ko":54,"mu":55,"ak":56,"ñu":57,"ax":58,"ay":59,"een":60,"bu":61,"ée":62,"oon":63,"li":64,"yi":65,"lu":66,"de":67,"ma":68,"gg":69,"ba":70,"nd":71,"pp":72,"tu":73,"ni":74,"gi":75,"aay":76,"oom":77,"nu":78,"su":79,"du":80,"en":81,"aar":82,"da":83,"ngi":84,"yu":85,"naa":86,"ju":87,"mi":88,"at":89,"aw":90,"alla":91,"or":92,"xam":93,"ku":94,"ii":95,"fa":96,"mb":97,"leen":98,"yalla":99,"loo":100,"jë":101,"wax":102,"moo":103,"ca":104,"gu":105,"le":106,"ti":107,"enn":108,"wu":109,"ox":110,"ab":111,"aan":112,"si":113,"el":114,"sa":115,"aal":116,"on":117,"ol":118,"re":119,"def":120,"nekk":121,"ta":122,"ri":123,"ñi":124,"ji":125,"ëgg":126,"opp":127,"nga":128,"waay":129,"seen":130,"gë":131,"nag":132,"man":133,"ki":134,"épp":135,"sam":136,"ru":137,"ndax":138,"it":139,"se":140,"fe":141,"moom":142,"ngir":143,"waa":144,"maa":145,"waaye":146,"ja":147,"ale":148,"ya":149,"ul":150,"óo":151,"baa":152,"yee":153,"ër":154,"laa":155,"éew":156,"dd":157,"nj":158,"bar":159,"boo":160,"fu":161,"bii":162,"woon":163,"gis":164,"tax":165,"nit":166,"okk":167,"fi":168,"eex":169,"éen":170,"gal":171,"lee":172,"ka":173,"mooy":174,"dina":175,"war":176,"cc":177,"kat":178,"dafa":179,"wi":180,"ra":181,"ñaar":182,"benn":183,"doon":184,"dë":185,"ang":186,"et":187,"tee":188,"mel":189,"tal":190,"dal":191,"ñoo":192,"bëgg":193,"én":194,"as":195,"ñuy":196,"doo":197,"dem":198,"koo":199,"jur":200,"oonu":201,"ngeen":202,"ur":203,"ngu":204,"sama":205,"loolu":206,"er":207,"daa":208,"ga":209,"jo":210,"saa":211,"ara":212,"taa":213,"wal":214,"kan":215,"eel":216,"bor":217,"réew":218,"nañu":219,"dé":220,"gën":221,"oy":222,"too":223,"bokk":224,"yaa":225,"më":226,"ge":227,"ye":228,"muy":229,"ante":230,"sax":231,"yeesu":232,"jam":233,"so":234,"ña":235,"tam":236,"noonu":237,"kki":238,"óor":239,"sunu":240,"nat":241,"lii":242,"koy":243,"mbi":244,"naaw":245,"see":246,"boroom":247,"ag":248,"dam":249,"bal":250,"ad":251,"ël":252,"bopp":253,"dëgg":254,"xe":255,"woo":256,"kenn":257,"dee":258,"wa":259,"yoon":260,"tan":261,"rekk":262,"dëkk":263,"eneen":264,"je":265,"may":266,"bé":267,"do":268,"xar":269,"ndi":270,"nee":271,"baax":272,"ñoom":273,"jaa":274,"alaa":275,"yoo":276,"jox":277,"kaw":278,"bay":279,"me":280,"wee":281,"fan":282,"gaal":283,"dii":284,"to":285,"ali":286,"juróo":287,"mboo":288,"teg":289,"ndaxte":290,"daldi":291,"së":292,"kon":293,"nataal":294,"xaa":295,"gan":296,"dund":297,"fee":298,"yo":299,"ëm":300,"san":301,"ñaari":302,"biir":303,"dul":304,"tée":305,"bë":306,"yë":307,"doom":308,"xel":309,"yaw":310,"jëm":311,"we":312,"japp":313,"ligg":314,"be":315,"oppi":316,"wo":317,"jii":318,"ari":319,"sene":320,"kaay":321,"mag":322,"kër":323,"gaa":324,"ñë":325,"magg":326,"yó":327,"dox":328,"xee":329,"suu":330,"dara":331,"bari":332,"day":333,"tey":334,"naan":335,"sol":336,"ug":337,"liggée":338,"lay":339,"bind":340,"and":341,"senegaal":342,"jig":343,"të":344,"njii":345,"nde":346,"ub":347,"mën":348,"fekk":349,"far":350,"joo":351,"taxaw":352,"dégg":353,"jël":354,"lool":355,"jëkk":356,"wul":357,"ñépp":358,"yéen":359,"fay":360,"jó":361,"gén":362,"juróom":363,"ddu":364,"st":365,"walla":366,"seeni":367,"jj":368,"lépp":369,"wé":370,"ke":371,"ro":372,"nii":373,"ree":374,"yépp":375,"sar":376,"waaw":377,"lis":378,"lë":379,"ñëw":380,"xol":381,"kanam":382,"mbaa":383,"ñakk":384,"ndaw":385,"bee":386,"daan":387,"co":388,"ban":389,"ool":390,"jigéen":391,"sal":392,"nanu":393,"lan":394,"baay":395,"ati":396,"ñet":397,"jaar":398,"jan":399,"atu":400,"addina":401,"neex":402,"gëm":403,"faa":404,"bayyi":405,"lée":406,"tol":407,"jub":408,"jamon":409,"topp":410,"takk":411,"itam":412,"digg":413,"yit":414,"leer":415,"suuf":416,"mucc":417,"jal":418,"gin":419,"po":420,"liggéey":421,"yar":422,"lañu":423,"bare":424,"bañ":425,"bakk":426,"del":427,"nt":428,"jang":429,"ib":430,"amul":431,"jot":432,"yée":433,"yé":434,"laay":435,"rig":436,"soo":437,"olli":438,"yor":439,"ut":440,"noo":441,"lox":442,"pi":443,"mbir":444,"sox":445,"xalaa":446,"ré":447,"rée":448,"mar":449,"ciy":450,"tedd":451,"rë":452,"aaru":453,"daal":454,"rafe":455,"dugg":456,"kaa":457,"atte":458,"yii":459,"ñaan":460,"jëf":461,"dolli":462,"laaj":463,"góor":464,"ëpp":465,"xéew":466,"ginnaaw":467,"lo":468,"sii":469,"ñeen":470,"dama":471,"fii":472,"tali":473,"yón":474,"pe":475,"jé":476,"mbu":477,"askan":478,"um":479,"fukki":480,"mat":481,"nguur":482,"lam":483,"fukk":484,"af":485,"noppi":486,"kaar":487,"go":488,"ddi":489,"lekk":490,"toog":491,"gar":492,"riñ":493,"mujj":494,"ame":495,"say":496,"jamono":497,"aki":498,"ñaa":499,"rafet":500,"doole":501,"ént":502,"tii":503,"gii":504,"kiri":505,"yooyu":506,"ell":507,"dang":508,"of":509,"dan":510,"gee":511,"xéewël":512,"dañu":513,"ton":514,"tuu":515,"xale":516,"kirist":517,"taali":518,"des":519,"nun":520,"nangu":521,"mbooloo":522,"amoon":523,"xalaat":524,"boppam":525,"mee":526,"us":527,"bul":528,"boobu":529,"mii":530,"atum":531,"jeex":532,"alal":533,"goo":534,"xaalis":535,"kili":536,"gée":537,"maanaa":538,"wallu":539,"xu":540,"foo":541,"njiitu":542,"ndam":543,"tay":544,"bés":545,"kku":546,"weex":547,"ngay":548,"jóge":549,"koom":550,"nuy":551,"dañoo":552,"defar":553,"sé":554,"yaram":555,"ndox":556,"jafe":557,"sell":558,"tudd":559,"seet":560,"xal":561,"afrig":562,"gannaaw":563,"jul":564,"xa":565,"aat":566,"génn":567,"léegi":568,"nekkoon":569,"loxo":570,"mo":571,"yagg":572,"tollu":573,"léen":574,"ñiy":575,"tab":576,"xool":577,"met":578,"kii":579,"in":580,"way":581,"gër":582,"dellu":583,"rab":584,"téem":585,"yal":586,"no":587,"att":588,"nge":589,"wacc":590,"ñetti":591,"tar":592,"xare":593,"raw":594,"naka":595,"yeneen":596,"yokk":597,"jamm":598,"uru":599,"té":600,"xeex":601,"kaddu":602,"diggante":603,"qu":604,"xaw":605,"weer":606,"téemée":607,"alu":608,"dinaa":609,"damaa":610,"doomu":611,"dinañu":612,"yiy":613,"yaakaar":614,"cig":615,"solo":616,"ñuul":617,"maanaam":618,"joxe":619,"feeñ":620,"pa":621,"njëkk":622,"wër":623,"agg":624,"wone":625,"xamxam":626,"addu":627,"julli":628,"son":629,"tur":630,"mbind":631,"jun":632,"kay":633,"garab":634,"oro":635,"cee":636,"éem":637,"dikoo":638,"sañ":639,"ññ":640,"anam":641,"indi":642,"buur":643,"sëriñ":644,"yn":645,"bakkaar":646,"bbu":647,"moy":648,"née":649,"yër":650,"bb":651,"xë":652,"taan":653,"dañuy":654,"yoonu":655,"néew":656,"ce":657,"is":658,"tamit":659,"tom":660,"bo":661,"wan":662,"daj":663,"tig":664,"nan":665,"waxtu":666,"yawut":667,"law":668,"ól":669,"tontu":670,"xew":671,"lakk":672,"kuy":673,"adduna":674,"dafay":675,"daw":676,"waral":677,"kar":678,"mba":679,"xan":680,"kë":681,"mis":682,"ngëm":683,"ragal":684,"tas":685,"ndey":686,"tt":687,"xeet":688,"tagg":689,"soppi":690,"kilifa":691,"bees":692,"baat":693,"ynént":694,"kawe":695,"yëg":696,"lal":697,"wuu":698,"dugal":699,"ter":700,"doy":701,"mana":702,"jaay":703,"xo":704,"wet":705,"ñam":706,"wér":707,"taalibe":708,"asam":709,"boole":710,"hi":711,"jaam":712,"sopp":713,"eelu":714,"bon":715,"gé":716,"par":717,"buy":718,"rus":719,"mënu":720,"bun":721,"aji":722,"tul":723,"mil":724,"asamaan":725,"jëfan":726,"dar":727,"aayu":728,"ginaaw":729,"metti":730,"xib":731,"réewu":732,"ndu":733,"wall":734,"bët":735,"xanaa":736,"baar":737,"aam":738,"ham":739,"yax":740,"sëñ":741,"tambal":742,"beneen":743,"nam":744,"woy":745,"maam":746,"tank":747,"coo":748,"guddi":749,"rum":750,"fée":751,"aww":752,"rey":753,"aas":754,"géej":755,"lanu":756,"fat":757,"yaar":758,"doomi":759,"daar":760,"ññi":761,"nguuru":762,"ñooy":763,"kattan":764,"dée":765,"ariñ":766,"defee":767,"soxla":768,"bis":769,"gox":770,"glu":771,"yaay":772,"duñu":773,"samay":774,"uñu":775,"ñeent":776,"leegi":777,"yam":778,"ñii":779,"net":780,"xon":781,"lum":782,"jar":783,"jum":784,"ñe":785,"daq":786,"wer":787,"olof":788,"junni":789,"yon":790,"laam":791,"yëngu":792,"ray":793,"mbë":794,"wóor":795,"tukaay":796,"lim":797,"booba":798,"sor":799,"waat":800,"ubbi":801,"téere":802,"ker":803,"ggi":804,"jëfandikoo":805,"ngoo":806,"tër":807,"tuuti":808,"fo":809,"xaar":810,"manu":811,"cu":812,"wala":813,"nañ":814,"waar":815,"tub":816,"xoo":817,"miy":818,"es":819,"juroom":820,"leeral":821,"samm":822,"sarax":823,"tugal":824,"iin":825,"pas":826,"sang":827,"luy":828,"melo":829,"taar":830,"weeru":831,"mbëgg":832,"dañ":833,"mbokk":834,"jiitu":835,"sant":836,"naq":837,"jikk":838,"faww":839,"nda":840,"teel":841,"jën":842,"ana":843,"ch":844,"aboo":845,"sall":846,"téeméer":847,"malaa":848,"sakk":849,"ñaaw":850,"maan":851,"dimb":852,"teer":853,"xibaar":854,"wor":855,"sin":856,"óolu":857,"njaay":858,"eem":859,"jege":860,"diine":861,"bëj":862,"baab":863,"dén":864,"won":865,"dëkku":866,"maki":867,"xonq":868,"në":869,"paa":870,"óob":871,"il":872,"mukk":873,"genn":874,"waan":875,"dikk":876,"ndo":877,"dëgër":878,"ñeenti":879,"yóbbu":880,"bam":881,"yan":882,"yow":883,"raay":884,"biy":885,"waxtaan":886,"oor":887,"lislaam":888,"katu":889,"uraan":890,"taane":891,"nopp":892,"stu":893,"nar":894,"saan":895,"duma":896,"dogal":897,"uma":898,"ap":899,"yuy":900,"mor":901,"njiit":902,"soxna":903,"tti":904,"amee":905,"taw":906,"fas":907,"sunuy":908,"fattali":909,"raa":910,"musaa":911,"mbe":912,"mad":913,"fal":914,"jaamu":915,"wéy":916,"ram":917,"xii":918,"pen":919,"jullit":920,"wut":921,"yenn":922,"sul":923,"cé":924,"fatte":925,"nent":926,"aju":927,"mer":928,"pool":929,"ala":930,"buleen":931,"sukk":932,"tekki":933,"ñett":934,"yeer":935,"tubaab":936,"yónént":937,"njaboo":938,"den":939,"caa":940,"naar":941,"gënë":942,"xi":943,"njang":944,"ndigal":945,"fé":946,"gam":947,"yem":948,"lañ":949,"déglu":950,"rëy":951,"wolof":952,"tann":953,"tabax":954,"ees":955,"jëw":956,"ñeel":957,"dees":958,"jublu":959,"fees":960,"gaaw":961,"aali":962,"mas":963,"joŋ":964,"faatu":965,"saw":966,"wii":967,"jóg":968,"wara":969,"jëmm":970,"dénk":971,"sanni":972,"ngo":973,"mbo":974,"bépp":975,"jële":976,"qi":977,"amal":978,"ent":979,"ook":980,"looloo":981,"lenn":982,"jab":983,"fr":984,"yaq":985,"rawati":986,"gle":987,"pól":988,"saar":989,"andoo":990,"muham":991,"gul":992,"séen":993,"jakk":994,"kati":995,"xarit":996,"doxal":997,"póló":998,"jax":999,"mbé":1000,"fit":1001,"defe":1002,"yonent":1003,"njaa":1004,"jee":1005,"googu":1006,"yuu":1007,"juu":1008,"leel":1009,"cam":1010,"jooy":1011,"waxe":1012,"sakku":1013,"joŋante":1014,"turu":1015,"ëllë":1016,"sen":1017,"dagg":1018,"wée":1019,"ñax":1020,"ris":1021,"njariñ":1022,"waanu":1023,"dinga":1024,"fir":1025,"mus":1026,"ndaje":1027,"dde":1028,"jéem":1029,"dóor":1030,"nne":1031,"lañuy":1032,"piyeer":1033,"defal":1034,"tamb":1035,"jje":1036,"bunt":1037,"faj":1038,"nettali":1039,"farã":1040,"kow":1041,"neena":1042,"génne":1043,"dëggdëgg":1044,"eef":1045,"der":1046,"né":1047,"woote":1048,"malaaka":1049,"nant":1050,"éef":1051,"réy":1052,"biti":1053,"niki":1054,"maggal":1055,"mé":1056,"sh":1057,"ah":1058,"mbal":1059,"moomu":1060,"joor":1061,"jumtukaay":1062,"kiy":1063,"një":1064,"moroom":1065,"mbirum":1066,"xamal":1067,"pu":1068,"juróomb":1069,"don":1070,"eek":1071,"all":1072,"nanga":1073,"dëpp":1074,"tere":1075,"door":1076,"kopp":1077,"xarnu":1078,"leem":1079,"daanu":1080,"loom":1081,"yónnee":1082,"misaal":1083,"danu":1084,"kam":1085,"per":1086,"ño":1087,"bakkan":1088,"noon":1089,"réewum":1090,"judd":1091,"xamle":1092,"damay":1093,"bir":1094,"xamu":1095,"set":1096,"jiite":1097,"jabar":1098,"xamul":1099,"saf":1100,"yoŋ":1101,"teelu":1102,"guy":1103,"lem":1104,"faral":1105,"wuute":1106,"pén":1107,"xay":1108,"néeg":1109,"akug":1110,"neen":1111,"taal":1112,"alem":1113,"muñ":1114,"tukki":1115,"pólótig":1116,"pexe":1117,"lé":1118,"ruu":1119,"fut":1120,"gor":1121,"wë":1122,"xaali":1123,"doxali":1124,"poli":1125,"yónni":1126,"andi":1127,"daje":1128,"tor":1129,"liy":1130,"weesu":1131,"mbooloom":1132,"dere":1133,"ndé":1134,"mbëj":1135,"almaa":1136,"enni":1137,"óot":1138,"fekkee":1139,"tëj":1140,"lor":1141,"tooñ":1142,"laal":1143,"rax":1144,"delloo":1145,"mbay":1146,"réer":1147,"yiw":1148,"taxawal":1149,"gërëm":1150,"alq":1151,"gisee":1152,"mboot":1153,"giy":1154,"yeek":1155,"bég":1156,"képp":1157,"yaatu":1158,"jooju":1159,"yére":1160,"gay":1161,"demee":1162,"liggéeyu":1163,"dig":1164,"taq":1165,"bésu":1166,"reew":1167,"nasar":1168,"aj":1169,"tën":1170,"saytu":1171,"ver":1172,"futbal":1173,"ndak":1174,"yokku":1175,"fen":1176,"wetu":1177,"miñ":1178,"olo":1179,"bëggoon":1180,"danoo":1181,"yore":1182,"wat":1183,"alekat":1184,"ñeneen":1185,"bbal":1186,"yel":1187,"bant":1188,"dajale":1189,"sée":1190,"jant":1191,"réewi":1192,"waxam":1193,"ngal":1194,"naal":1195,"jall":1196,"aadama":1197,"waroon":1198,"kkal":1199,"almaañ":1200,"ngiy":1201,"seede":1202,"bataa":1203,"tudde":1204,"ëllëg":1205,"ëmb":1206,"rek":1207,"tambalee":1208,"bbi":1209,"wante":1210,"doomam":1211,"xas":1212,"antu":1213,"seex":1214,"look":1215,"gudd":1216,"yéene":1217,"rii":1218,"oog":1219,"gëstu":1220,"gone":1221,"waxi":1222,"diiwaanu":1223,"téeméeri":1224,"dana":1225,"mili":1226,"kooku":1227,"saaru":1228,"jug":1229,"juddu":1230,"naqar":1231,"diir":1232,"fon":1233,"juge":1234,"jënd":1235,"jamonoy":1236,"koppar":1237,"alquraan":1238,"atti":1239,"saalum":1240,"jaw":1241,"xeetu":1242,"bër":1243,"hu":1244,"ërëm":1245,"teek":1246,"usmaan":1247,"muhammad":1248,"só":1249,"rusalem":1250,"wwu":1251,"ñee":1252,"are":1253,"yerusalem":1254,"banneex":1255,"mandar":1256,"jafejafe":1257,"nelaw":1258,"ttu":1259,"waxee":1260,"bet":1261,"kól":1262,"tang":1263,"vi":1264,"jokk":1265,"xé":1266,"xara":1267,"kanamu":1268,"pénc":1269,"dimbali":1270,"wote":1271,"aale":1272,"matal":1273,"waññi":1274,"suñu":1275,"foofu":1276,"daara":1277,"baña":1278,"ndakaaru":1279,"amerig":1280,"danga":1281,"aka":1282,"mënul":1283,"déet":1284,"milyaar":1285,"eeku":1286,"lënd":1287,"jangu":1288,"yonnant":1289,"jag":1290,"diis":1291,"cosaan":1292,"sey":1293,"weddi":1294,"oto":1295,"juróomi":1296,"laayay":1297,"cib":1298,"gëna":1299,"sedd":1300,"tambali":1301,"pó":1302,"wuñu":1303,"mingi":1304,"wir":1305,"sanc":1306,"rub":1307,"dangeen":1308,"aange":1309,"farãas":1310,"ligee":1311,"xaaj":1312,"loxoom":1313,"xaalisu":1314,"sur":1315,"gépp":1316,"njub":1317,"ngaa":1318,"musal":1319,"denc":1320,"dog":1321,"sédd":1322,"laat":1323,"sab":1324,"kinne":1325,"keneen":1326,"mon":1327,"om":1328,"waayu":1329,"buntub":1330,"kkati":1331,"jangal":1332,"sos":1333,"waxoon":1334,"éel":1335,"nekkul":1336,"ñaareelu":1337,"penku":1338,"indil":1339,"rawatina":1340,"nja":1341,"amna":1342,"for":1343,"dangaa":1344,"yees":1345,"doj":1346,"xat":1347,"mul":1348,"kurée":1349,"nay":1350,"agsi":1351,"roo":1352,"ñenn":1353,"sonn":1354,"defa":1355,"mbég":1356,"baal":1357,"allaa":1358,"tele":1359,"jekk":1360,"feebar":1361,"bak":1362,"nañoo":1363,"fey":1364,"teef":1365,"jëwriñ":1366,"defoon":1367,"démb":1368,"gannaar":1369,"wane":1370,"nasaraan":1371,"jappe":1372,"jébbal":1373,"xaj":1374,"mbëggeel":1375,"dingeen":1376,"barab":1377,"yaxya":1378,"tegu":1379,"tool":1380,"ha":1381,"ligée":1382,"laata":1383,"ber":1384,"xamante":1385,"jaax":1386,"amu":1387,"baayam":1388,"njël":1389,"këram":1390,"ngan":1391,"buntu":1392,"nax":1393,"dëggu":1394,"ron":1395,"ëe":1396,"dex":1397,"dunu":1398,"kaso":1399,"toll":1400,"toor":1401,"xeeti":1402,"tiit":1403,"daawu":1404,"ran":1405,"mburu":1406,"daanaka":1407,"mbooleem":1408,"siin":1409,"jégg":1410,"wacce":1411,"këru":1412,"fattaliku":1413,"jenn":1414,"cci":1415,"aab":1416,"tëdd":1417,"fari":1418,"bark":1419,"bas":1420,"pay":1421,"itaali":1422,"tiis":1423,"taggat":1424,"són":1425,"yégle":1426,"bataaxal":1427,"teem":1428,"togg":1429,"dellusi":1430,"sotti":1431,"kaayu":1432,"ccu":1433,"ñooñu":1434,"tuubaa":1435,"pal":1436,"féete":1437,"dof":1438,"téef":1439,"mam":1440,"dun":1441,"sónko":1442,"ngë":1443,"niru":1444,"kuré":1445,"moytu":1446,"gël":1447,"woowu":1448,"bindéef":1449,"juróombenn":1450,"gen":1451,"léeg":1452,"nekke":1453,"romb":1454,"tin":1455,"kaddug":1456,"dooley":1457,"dale":1458,"deme":1459,"xelam":1460,"seetlu":1461,"sori":1462,"lëndëm":1463,"nattu":1464,"jëkkër":1465,"seenug":1466,"ank":1467,"kaaraange":1468,"jagleel":1469,"gaañu":1470,"ble":1471,"nju":1472,"bokkoon":1473,"dayo":1474,"cér":1475,"gatt":1476,"maay":1477,"meel":1478,"bée":1479,"abdu":1480,"saraxalekat":1481,"béré":1482,"mal":1483,"saba":1484,"res":1485,"njaboot":1486,"th":1487,"lul":1488,"jóob":1489,"dawal":1490,"rik":1491,"lóolu":1492,"nak":1493,"déggee":1494,"mungi":1495,"juróomñaar":1496,"foofa":1497,"leneen":1498,"sóo":1499,"bala":1500,"jée":1501,"torox":1502,"ren":1503,"ndaa":1504,"baree":1505,"alaat":1506,"junniy":1507,"xamee":1508,"tef":1509,"takku":1510,"jéggi":1511,"fara":1512,"firnde":1513,"sacc":1514,"tiim":1515,"ñatti":1516,"natt":1517,"xoolee":1518,"bóo":1519,"aajo":1520,"suba":1521,"xame":1522,"sellal":1523,"jaaxle":1524,"asi":1525,"ndawi":1526,"gub":1527,"nekkee":1528,"beem":1529,"naay":1530,"saxal":1531,"juddoo":1532,"farisen":1533,"coon":1534,"kaan":1535,"texe":1536,"deret":1537,"dindi":1538,"rakk":1539,"séy":1540,"fexe":1541,"taxoon":1542,"kañ":1543,"waajal":1544,"keroog":1545,"koomkoom":1546,"ayu":1547,"tërali":1548,"jëfe":1549,"demal":1550,"isray":1551,"abu":1552,"alee":1553,"barkeel":1554,"teewul":1555,"eer":1556,"araab":1557,"seefaa":1558,"yéeg":1559,"tamblee":1560,"ibraay":1561,"yërmë":1562,"yërëm":1563,"ger":1564,"jari":1565,"lakku":1566,"kum":1567,"dok":1568,"meer":1569,"au":1570,"feel":1571,"adi":1572,"jëme":1573,"sil":1574,"mbëggéel":1575,"israyil":1576,"ibraayma":1577,"tuub":1578,"dangay":1579,"pit":1580,"ëg":1581,"kur":1582,"taalu":1583,"jaare":1584,"yuuxu":1585,"mbax":1586,"faraas":1587,"laaya":1588,"xolam":1589,"por":1590,"pare":1591,"pastef":1592,"kkee":1593,"koor":1594,"ngelaw":1595,"lees":1596,"doonte":1597,"dundug":1598,"ful":1599,"óol":1600,"tegg":1601,"rug":1602,"turam":1603,"las":1604,"mbubb":1605,"nos":1606,"werante":1607,"can":1608,"diw":1609,"ppu":1610,"doonoon":1611,"ll":1612,"xelum":1613,"pon":1614,"xamoon":1615,"wadd":1616,"politig":1617,"muj":1618,"simili":1619,"jaloo":1620,"bula":1621,"ñaanal":1622,"nof":1623,"mandi":1624,"gali":1625,"raññ":1626,"jaarale":1627,"haa":1628,"gise":1629,"waaj":1630,"cofeel":1631,"feeñal":1632,"juróomñaari":1633,"xëcc":1634,"añ":1635,"mune":1636,"tug":1637,"sub":1638,"noflaay":1639,"yërmëndé":1640,"cë":1641,"ot":1642,"makk":1643,"gaajo":1644,"yób":1645,"taalibeem":1646,"sore":1647,"jat":1648,"nuyu":1649,"bennoo":1650,"tënk":1651,"ggan":1652,"yomb":1653,"wirgo":1654,"naw":1655,"yaama":1656,"ndank":1657,"aada":1658,"rin":1659,"gém":1660,"milyoŋ":1661,"ligeey":1662,"nn":1663,"limu":1664,"degg":1665,"sag":1666,"bëcc":1667,"nanoo":1668,"lug":1669,"askanu":1670,"mbas":1671,"aq":1672,"jaan":1673,"tóor":1674,"tit":1675,"aans":1676,"sida":1677,"sëkk":1678,"yaxantu":1679,"koro":1680,"fes":1681,"bérab":1682,"soppiku":1683,"que":1684,"xiif":1685,"sun":1686,"ñaarfukki":1687,"yëf":1688,"lub":1689,"kanamam":1690,"yéena":1691,"nul":1692,"aloon":1693,"fer":1694,"bitim":1695,"sañu":1696,"diiwaan":1697,"doktoor":1698,"lif":1699,"feeñu":1700,"coow":1701,"fonk":1702,"bërë":1703,"mp":1704,"móo":1705,"yaqu":1706,"ibn":1707,"buu":1708,"yegg":1709,"sart":1710,"jangale":1711,"room":1712,"nang":1713,"jappale":1714,"faal":1715,"gat":1716,"mali":1717,"lat":1718,"buuru":1719,"dekki":1720,"moodi":1721,"seetaan":1722,"naam":1723,"meññ":1724,"attekat":1725,"paañ":1726,"fë":1727,"gara":1728,"omar":1729,"tale":1730,"xali":1731,"madu":1732,"bëggee":1733,"diggu":1734,"sheex":1735,"xóot":1736,"bayyil":1737,"siiw":1738,"jariñ":1739,"ãa":1740,"óon":1741,"masi":1742,"suf":1743,"naat":1744,"abdul":1745,"gas":1746,"ho":1747,"masu":1748,"diirub":1749,"andikoo":1750,"xarala":1751,"ndimbal":1752,"fraans":1753,"gisu":1754,"wuma":1755,"leeg":1756,"jikko":1757,"gune":1758,"parti":1759,"angal":1760,"coppi":1761,"xut":1762,"wallug":1763,"coono":1764,"lante":1765,"taaru":1766,"mbiri":1767,"cou":1768,"ñetteelu":1769,"daawuda":1770,"yen":1771,"gumba":1772,"sekk":1773,"cax":1774,"dige":1775,"ndar":1776,"balaa":1777,"maggat":1778,"jigeen":1779,"sukkandikoo":1780,"allaaxi":1781,"deel":1782,"alx":1783,"ort":1784,"firi":1785,"takkder":1786,"rëcc":1787,"samp":1788,"njée":1789,"dalal":1790,"wert":1791,"daf":1792,"ñibbi":1793,"xob":1794,"bammeel":1795,"xebaar":1796,"mbootaayu":1797,"musi":1798,"juma":1799,"dall":1800,"saay":1801,"ŋŋ":1802,"galile":1803,"soon":1804,"liku":1805,"jeexii":1806,"sóob":1807,"uf":1808,"barke":1809,"atul":1810,"yégal":1811,"lammiñ":1812,"fenn":1813,"baane":1814,"xëtu":1815,"soppe":1816,"doxalin":1817,"ate":1818,"fatt":1819,"bakke":1820,"seytaane":1821,"suul":1822,"song":1823,"woor":1824,"yooyee":1825,"yég":1826,"juuf":1827,"mbootaay":1828,"koronaa":1829,"waru":1830,"jangoro":1831,"mun":1832,"tuur":1833,"dégén":1834,"dey":1835,"bokkul":1836,"wenn":1837,"yewwu":1838,"pacc":1839,"geneen":1840,"waaru":1841,"jallo":1842,"ñun":1843,"tëral":1844,"gaynde":1845,"alxuraan":1846,"car":1847,"ñor":1848,"lumu":1849,"aayam":1850,"ero":1851,"dëggal":1852,"rëdd":1853,"sonal":1854,"wuutu":1855,"lër":1856,"mbakke":1857,"les":1858,"tani":1859,"liggéeyukaay":1860,"ami":1861,"bur":1862,"xeer":1863,"juróomñeent":1864,"reelu":1865,"woyof":1866,"manuta":1867,"kol":1868,"bat":1869,"baatu":1870,"talu":1871,"lëre":1872,"taalif":1873,"sawara":1874,"kee":1875,"roy":1876,"badu":1877,"tund":1878,"sikk":1879,"ser":1880,"fiy":1881,"sabab":1882,"pée":1883,"wam":1884,"muri":1885,"wiy":1886,"tollook":1887,"xawma":1888,"coobare":1889,"bit":1890,"booy":1891,"seer":1892,"yanke":1893,"pt":1894,"ve":1895,"seeti":1896,"kaas":1897,"mbedd":1898,"bëccëg":1899,"bawoo":1900,"ndeel":1901,"fann":1902,"andiku":1903,"andal":1904,"ndamu":1905,"menn":1906,"mbóo":1907,"wow":1908,"waxambaane":1909,"cay":1910,"muu":1911,"wurus":1912,"bri":1913,"yay":1914,"amuñu":1915,"dungeen":1916,"wuññi":1917,"jaaxal":1918,"weeri":1919,"reer":1920,"jaxas":1921,"lempo":1922,"yeen":1923,"dëddu":1924,"mbaam":1925,"nooy":1926,"siiwal":1927,"musiba":1928,"tekk":1929,"mujje":1930,"cce":1931,"pilaat":1932,"eki":1933,"tëgg":1934,"ñó":1935,"nir":1936,"yërman":1937,"jikkó":1938,"bax":1939,"ngali":1940,"juróomñett":1941,"sañsañ":1942,"xiir":1943,"ppi":1944,"gadd":1945,"taange":1946,"suufu":1947,"kuréel":1948,"kal":1949,"pee":1950,"lax":1951,"tallal":1952,"digal":1953,"kepp":1954,"tasaar":1955,"yoy":1956,"din":1957,"dakk":1958,"teew":1959,"picc":1960,"yelloo":1961,"sufyanke":1962,"ngóor":1963,"taax":1964,"mboq":1965,"xarañ":1966,"lëré":1967,"men":1968,"nug":1969,"waajur":1970,"jëmale":1971,"soldaar":1972,"laan":1973,"nen":1974,"waxal":1975,"leur":1976,"gënoon":1977,"jëmé":1978,"kese":1979,"yékkati":1980,"moŋ":1981,"surga":1982,"angalteer":1983,"poo":1984,"ëndi":1985,"tion":1986,"jjan":1987,"bank":1988,"doxalinu":1989,"borom":1990,"toogu":1991,"woowe":1992,"wetam":1993,"njéeme":1994,"adu":1995,"koon":1996,"ñaw":1997,"bëggbëgg":1998,"tabbi":1999,"ceeb":2000,"njaq":2001,"ngoon":2002,"tolluwaay":2003,"dëppoo":2004,"jokkoo":2005,"otris":2006,"singali":2007,"dinanu":2008,"weñ":2009,"kem":2010,"xarekat":2011,"xéy":2012,"jépp":2013,"kujje":2014,"teeru":2015,"maye":2016,"yitte":2017,"jiy":2018,"booloo":2019,"warul":2020,"xelu":2021,"bey":2022,"ligéey":2023,"yab":2024,"lig":2025,"nje":2026,"dootu":2027,"dootul":2028,"wom":2029,"téye":2030,"coppite":2031,"digën":2032,"ata":2033,"rusi":2034,"yallaa":2035,"maane":2036,"kóllëre":2037,"béréb":2038,"sóobu":2039,"nangoo":2040,"tus":2041,"gaddu":2042,"kaati":2043,"nguurug":2044,"danuy":2045,"jiital":2046,"tankam":2047,"un":2048,"ggu":2049,"kéem":2050,"lon":2051,"salaa":2052,"waal":2053,"yox":2054,"diku":2055,"manees":2056,"génnee":2057,"sarxal":2058,"móodu":2059,"ñse":2060,"alkaati":2061,"kos":2062,"gindi":2063,"sukkandiku":2064,"donn":2065,"anta":2066,"lin":2067,"farlu":2068,"banni":2069,"nataalu":2070,"baale":2071,"xayma":2072,"kurél":2073,"garabu":2074,"liis":2075,"rafetal":2076,"déedéet":2077,"jakkaar":2078,"allaaxira":2079,"almasi":2080,"laq":2081,"bati":2082,"maak":2083,"xet":2084,"faju":2085,"elaa":2086,"maangi":2087,"wooye":2088,"ñëwee":2089,"xañ":2090,"bakat":2091,"app":2092,"dak":2093,"gët":2094,"rajo":2095,"ñaareel":2096,"reewi":2097,"amerik":2098,"kóllëré":2099,"mm":2100,"mépp":2101,"mari":2102,"oona":2103,"walli":2104,"liggéeykat":2105,"ñaxtu":2106,"xéewal":2107,"jeexit":2108,"xareb":2109,"sel":2110,"aate":2111,"aasi":2112,"muur":2113,"wuy":2114,"óom":2115,"bëgga":2116,"téeré":2117,"melokaan":2118,"tambli":2119,"sas":2120,"yebal":2121,"sowwu":2122,"juróombenni":2123,"ir":2124,"muus":2125,"aaya":2126,"wiris":2127,"janq":2128,"lamp":2129,"xamxamu":2130,"xutbakat":2131,"jolof":2132,"qali":2133,"ludul":2134,"niy":2135,"sum":2136,"boobee":2137,"jambaar":2138,"andak":2139,"këri":2140,"njëg":2141,"béen":2142,"con":2143,"fab":2144,"demo":2145,"bayyee":2146,"maryaama":2147,"ñatt":2148,"waale":2149,"jeexal":2150,"ire":2151,"mook":2152,"manee":2153,"manul":2154,"rul":2155,"ngiraan":2156,"santaane":2157,"siise":2158,"naqari":2159,"wéet":2160,"ben":2161,"gaar":2162,"nangeen":2163,"tall":2164,"fanweeri":2165,"séq":2166,"nangul":2167,"ukaay":2168,"dibi":2169,"yuusu":2170,"niti":2171,"dooleel":2172,"saag":2173,"déggoo":2174,"gaddaay":2175,"fépp":2176,"jon":2177,"bëgge":2178,"gina":2179,"jana":2180,"njari":2181,"daaj":2182,"sowu":2183,"reem":2184,"bayyileen":2185,"ñów":2186,"ngor":2187,"iir":2188,"saggan":2189,"lamin":2190,"teral":2191,"dend":2192,"simoŋ":2193,"bool":2194,"taxul":2195,"déggal":2196,"jógee":2197,"safaan":2198,"dajaloo":2199,"atoo":2200,"mbam":2201,"yapp":2202,"yepp":2203,"baaxul":2204,"kilif":2205,"yaayam":2206,"lang":2207,"ture":2208,"yakk":2209,"kaayi":2210,"goor":2211,"ngannaay":2212,"jataay":2213,"cër":2214,"xoro":2215,"laqu":2216,"buum":2217,"tuum":2218,"gum":2219,"taxawu":2220,"fésal":2221,"wutal":2222,"asan":2223,"boppu":2224,"njiiti":2225,"poñ":2226,"xewxew":2227,"couleur":2228,"kó":2229,"kadd":2230,"toj":2231,"dawaan":2232,"espaañ":2233,"kh":2234,"ndee":2235,"deful":2236,"maandu":2237,"daamar":2238,"kawam":2239,"xoolal":2240,"téereb":2241,"séddale":2242,"mëna":2243,"jëmmi":2244,"léeb":2245,"googee":2246,"safara":2247,"sépp":2248,"mbar":2249,"riñu":2250,"saali":2251,"njiil":2252,"nasaraanal":2253,"mbaxana":2254,"bile":2255,"lepp":2256,"kilo":2257,"baam":2258,"boog":2259,"sot":2260,"agsee":2261,"damm":2262,"fanaan":2263,"alukaay":2264,"wërsë":2265,"fran":2266,"ndajem":2267,"pólo":2268,"pë":2269,"wóolu":2270,"xamuñu":2271,"let":2272,"sew":2273,"dég":2274,"raaya":2275,"féq":2276,"firndeel":2277,"yokkute":2278,"yallay":2279,"tim":2280,"yaasin":2281,"dëkke":2282,"wecc":2283,"taxawaay":2284,"matt":2285,"meetar":2286,"kayit":2287,"aatu":2288,"tel":2289,"tes":2290,"ation":2291,"raxas":2292,"tëralin":2293,"itu":2294,"jara":2295,"bin":2296,"laahi":2297,"dogu":2298,"tëx":2299,"daaneel":2300,"yéeme":2301,"ndab":2302,"dab":2303,"waxu":2304,"dell":2305,"marse":2306,"mbur":2307,"ñaata":2308,"miir":2309,"kilifay":2310,"taari":2311,"britani":2312,"jaxasoo":2313,"inu":2314,"max":2315,"pël":2316,"ropp":2317,"juy":2318,"loola":2319,"wum":2320,"fili":2321,"metit":2322,"lëkk":2323,"fitna":2324,"jariñu":2325,"jol":2326,"andul":2327,"dekk":2328,"sunug":2329,"tawat":2330,"mandarga":2331,"béer":2332,"digënté":2333,"jay":2334,"une":2335,"wol":2336,"yilif":2337,"nday":2338,"andandoo":2339,"wéeru":2340,"wépp":2341,"was":2342,"kureelu":2343,"ñaq":2344,"aajowoo":2345,"yul":2346,"naaféq":2347,"looy":2348,"ngañ":2349,"taat":2350,"sëy":2351,"ginnaawam":2352,"dajeek":2353,"raññee":2354,"wopp":2355,"site":2356,"ëro":2357,"njort":2358,"xaaju":2359,"dundu":2360,"teraa":2361,"taarii":2362,"injiil":2363,"ayib":2364,"buñ":2365,"yiwu":2366,"matu":2367,"awar":2368,"bart":2369,"ynéntab":2370,"kéemaan":2371,"albu":2372,"leb":2373,"neef":2374,"jaadu":2375,"jigée":2376,"jógé":2377,"xibaaru":2378,"makka":2379,"zi":2380,"ngii":2381,"jotee":2382,"xaajub":2383,"juróomfukk":2384,"gog":2385,"orob":2386,"lanuy":2387,"nëbbu":2388,"dëgëral":2389,"yemale":2390,"njaaloo":2391,"afi":2392,"pet":2393,"nuru":2394,"nees":2395,"beek":2396,"soog":2397,"mbugal":2398,"agu":2399,"ket":2400,"kóolu":2401,"maar":2402,"ndefar":2403,"palaa":2404,"ndon":2405,"jib":2406,"taabal":2407,"jottali":2408,"pite":2409,"waare":2410,"gémmiñ":2411,"bel":2412,"tli":2413,"bij":2414,"reg":2415,"waana":2416,"teey":2417,"mes":2418,"wottu":2419,"mbiram":2420,"lolu":2421,"mujjee":2422,"ñoñam":2423,"ñen":2424,"diwaan":2425,"tukkee":2426,"kune":2427,"tapp":2428,"réccu":2429,"nëbb":2430,"ŋa":2431,"bisub":2432,"matukaay":2433,"safaa":2434,"njam":2435,"toolu":2436,"mom":2437,"néegu":2438,"jaamam":2439,"ph":2440,"toon":2441,"ux":2442,"kolo":2443,"mug":2444,"sipt":2445,"kool":2446,"dékku":2447,"yëngal":2448,"gaayi":2449,"caax":2450,"waalo":2451,"sarxalkat":2452,"iinu":2453,"jëfi":2454,"rah":2455,"erodd":2456,"andoon":2457,"teggi":2458,"xammee":2459,"sikki":2460,"gerte":2461,"yërmande":2462,"ngërëm":2463,"nett":2464,"ggal":2465,"dundi":2466,"fetal":2467,"dëkki":2468,"ndimb":2469,"jaasi":2470,"cere":2471,"kattanu":2472,"demokar":2473,"yuusufa":2474,"sëgg":2475,"ani":2476,"deñ":2477,"siyaar":2478,"gisoon":2479,"kaf":2480,"ñakka":2481,"jabaram":2482,"wóo":2483,"lar":2484,"waxuma":2485,"demba":2486,"saajo":2487,"tooy":2488,"liggéeyam":2489,"yées":2490,"kaala":2491,"yaramam":2492,"mbindeef":2493,"cammoo":2494,"féew":2495,"aloo":2496,"dekkal":2497,"ndë":2498,"satu":2499,"kin":2500,"njal":2501,"reetaan":2502,"lamb":2503,"bob":2504,"noppee":2505,"ñeewan":2506,"dakaar":2507,"ké":2508,"tefes":2509,"njé":2510,"raŋ":2511,"demoon":2512,"boroomam":2513,"gancax":2514,"feek":2515,"jiiñ":2516,"banq":2517,"soow":2518,"yoroon":2519,"léegléeg":2520,"eg":2521,"kël":2522,"suwe":2523,"mbaar":2524,"saaba":2525,"mbiru":2526,"faat":2527,"kaani":2528,"paj":2529,"xëy":2530,"waraloon":2531,"fitnaal":2532,"musta":2533,"tege":2534,"lik":2535,"iis":2536,"waññ":2537,"fanweer":2538,"xeeb":2539,"rump":2540,"afirig":2541,"ck":2542,"nekku":2543,"leena":2544,"daawul":2545,"seedeel":2546,"xem":2547,"tegtal":2548,"jammaar":2549,"njaqare":2550,"kab":2551,"sã":2552,"trump":2553,"woom":2554,"mini":2555,"tine":2556,"yowaana":2557,"ñew":2558,"njuum":2559,"tum":2560,"bëggul":2561,"gann":2562,"fiir":2563,"soppeeku":2564,"séentu":2565,"kureel":2566,"kóolute":2567,"njo":2568,"fil":2569,"seetu":2570,"bëre":2571,"alalu":2572,"ndeysaan":2573,"ndongo":2574,"brusi":2575,"kook":2576,"sancu":2577,"xeltu":2578,"woto":2579,"toppatoo":2580,"ubbil":2581,"ñoñ":2582,"kaddoom":2583,"pólotig":2584,"golo":2585,"aana":2586,"akub":2587,"niroo":2588,"dugub":2589,"gëdd":2590,"samba":2591,"ñaarfukk":2592,"doŋŋ":2593,"loxoy":2594,"jél":2595,"njëgu":2596,"mala":2597,"dese":2598,"yeg":2599,"wattu":2600,"pat":2601,"teen":2602,"waxul":2603,"yeewu":2604,"gane":2605,"bakkanam":2606,"bërëb":2607,"ds":2608,"oñ":2609,"teewal":2610,"mës":2611,"rëb":2612,"paab":2613,"njur":2614,"jinne":2615,"waani":2616,"maas":2617,"gisgis":2618,"royu":2619,"noot":2620,"junne":2621,"ahmad":2622,"ajjana":2623,"futbalkat":2624,"séex":2625,"dunde":2626,"min":2627,"samag":2628,"tanki":2629,"dundal":2630,"lëer":2631,"tuddoon":2632,"rabb":2633,"jumtu":2634,"brusiya":2635,"dërëm":2636,"feneen":2637,"qat":2638,"tox":2639,"sago":2640,"fuu":2641,"bëggu":2642,"yedd":2643,"mboolaay":2644,"ahmadu":2645,"farañse":2646,"abdulaay":2647,"filib":2648,"siyaare":2649,"kalaa":2650,"wël":2651,"nes":2652,"saalumu":2653,"kawar":2654,"tolloo":2655,"dëggdëggi":2656,"méngoo":2657,"sunna":2658,"lijjan":2659,"suqali":2660,"awi":2661,"jëlee":2662,"waxtaane":2663,"yoonal":2664,"bëti":2665,"doxe":2666,"ndeke":2667,"miin":2668,"këyit":2669,"safaanu":2670,"faay":2671,"mokk":2672,"kajoor":2673,"yonant":2674,"weg":2675,"kera":2676,"namm":2677,"kersa":2678,"xoole":2679,"sawar":2680,"juuti":2681,"ao":2682,"reen":2683,"ciw":2684,"kor":2685,"pom":2686,"liggéeyal":2687,"jange":2688,"not":2689,"taggoo":2690,"féex":2691,"biral":2692,"gattal":2693,"nand":2694,"ngéen":2695,"jom":2696,"réewam":2697,"yaatal":2698,"fekke":2699,"jëfam":2700,"xuloo":2701,"yeneeni":2702,"banneexu":2703,"rendi":2704,"dóo":2705,"isaa":2706,"aaf":2707,"bara":2708,"woolu":2709,"bëtu":2710,"juróomñetti":2711,"cosaa":2712,"foog":2713,"politi":2714,"ajjuma":2715,"cée":2716,"sak":2717,"xaal":2718,"mudaldi":2719,"tukk":2720,"sah":2721,"fudd":2722,"meloon":2723,"saasenegaal":2724,"soble":2725,"yooni":2726,"diggan":2727,"njaati":2728,"teggiin":2729,"bil":2730,"dakkal":2731,"yude":2732,"yudaa":2733,"wuti":2734,"liggee":2735,"ugh":2736,"mbindéef":2737,"neel":2738,"ou":2739,"weneen":2740,"nekkal":2741,"jadd":2742,"yoor":2743,"bes":2744,"rom":2745,"agul":2746,"wén":2747,"lab":2748,"deñoo":2749,"béy":2750,"japple":2751,"aggale":2752,"musóor":2753,"moroomam":2754,"cant":2755,"bijjaa":2756,"imb":2757,"yeew":2758,"teere":2759,"gereg":2760,"yëgu":2761,"lëf":2762,"faale":2763,"alalam":2764,"ngënée":2765,"jariñoo":2766,"jji":2767,"mó":2768,"nitu":2769,"mbër":2770,"lewet":2771,"laab":2772,"tegoon":2773,"bës":2774,"xeeñ":2775,"faatoo":2776,"seetsi":2777,"ndeyjoor":2778,"njabootam":2779,"jawwu":2780,"bett":2781,"pitaal":2782,"pari":2783,"new":2784,"macc":2785,"kulëer":2786,"fepp":2787,"woowee":2788,"tof":2789,"beer":2790,"xalaatu":2791,"pere":2792,"sañsañu":2793,"gore":2794,"tuumaal":2795,"ñeewant":2796,"jeem":2797,"noy":2798,"napp":2799,"suur":2800,"manoon":2801,"barabu":2802,"soqi":2803,"pour":2804,"xët":2805,"njangale":2806,"kumpa":2807,"gannaaru":2808,"gale":2809,"nóo":2810,"pax":2811,"ën":2812,"alante":2813,"andee":2814,"batay":2815,"juboo":2816,"gunge":2817,"talaa":2818,"saxaar":2819,"dong":2820,"neeti":2821,"weesoo":2822,"jappoon":2823,"ndegam":2824,"tolluwaayu":2825,"woroom":2826,"bésub":2827,"lijjanti":2828,"eco":2829,"ini":2830,"ok":2831,"pro":2832,"artu":2833,"suufe":2834,"wayjur":2835,"céy":2836,"tóortóor":2837,"caaxaan":2838,"dagan":2839,"xami":2840,"siggi":2841,"soob":2842,"dëkkuwaay":2843,"añs":2844,"eu":2845,"wel":2846,"bitti":2847,"luñ":2848,"madi":2849,"gëmu":2850,"sosu":2851,"yoonam":2852,"tane":2853,"doxale":2854,"gént":2855,"pole":2856,"utoon":2857,"ñeenteelu":2858,"baaraam":2859,"ñeme":2860,"fent":2861,"tël":2862,"ãs":2863,"ngóo":2864,"bérëb":2865,"doya":2866,"joxoon":2867,"mere":2868,"yobbu":2869,"cos":2870,"léem":2871,"yéemu":2872,"lammi":2873,"taskati":2874,"jakka":2875,"xaritoo":2876,"xaraf":2877,"fël":2878,"geen":2879,"maal":2880,"pé":2881,"altine":2882,"ngé":2883,"muna":2884,"sipp":2885,"njan":2886,"demleen":2887,"dénd":2888,"diiné":2889,"xaatim":2890,"fattliku":2891,"araam":2892,"deao":2893,"tuut":2894,"nin":2895,"kuur":2896,"tis":2897,"gaas":2898,"janook":2899,"fukkeelu":2900,"ndamam":2901,"defare":2902,"njalbéen":2903,"dol":2904,"ëttu":2905,"digle":2906,"laxas":2907,"bisaa":2908,"temb":2909,"luu":2910,"njaam":2911,"koomu":2912,"ëppu":2913,"donte":2914,"riir":2915,"mbégte":2916,"ase":2917,"cfa":2918,"rang":2919,"aame":2920,"napole":2921,"ñungi":2922,"buñu":2923,"ndoor":2924,"gëmul":2925,"jaarjaar":2926,"afri":2927,"meew":2928,"che":2929,"xamuleen":2930,"tëralinu":2931,"napoleon":2932,"ãas":2933,"eena":2934,"njeex":2935,"gacce":2936,"yengu":2937,"xewoon":2938,"banti":2939,"neexal":2940,"yitté":2941,"jallee":2942,"yaramu":2943,"jeexital":2944,"teraanga":2945,"bijjaakon":2946,"he":2947,"ñan":2948,"ñul":2949,"yiwi":2950,"dananu":2951,"wis":2952,"sallaa":2953,"cedeao":2954,"misra":2955,"ndeyam":2956,"ñaawteef":2957,"fés":2958,"wënd":2959,"vert":2960,"baxa":2961,"cal":2962,"laŋ":2963,"fecc":2964,"aliku":2965,"wél":2966,"baayu":2967,"ibraa":2968,"tuuma":2969,"ndigalu":2970,"cës":2971,"njuumte":2972,"gab":2973,"aanu":2974,"nas":2975,"bukki":2976,"kafe":2977,"liir":2978,"addiis":2979,"ndigg":2980,"jooja":2981,"nosu":2982,"gémmi":2983,"jumtukaayi":2984,"depite":2985,"moona":2986,"tir":2987,"jiwu":2988,"sampi":2989,"melne":2990,"gaañ":2991,"mënoon":2992,"neexul":2993,"mbub":2994,"mboolooy":2995,"guddig":2996,"jaraaf":2997,"mbokkam":2998,"genne":2999,"egg":3000,"har":3001,"ste":3002,"dib":3003,"ërë":3004,"boobaa":3005,"leef":3006,"daaw":3007,"addin":3008,"jem":3009,"liggéeye":3010,"tëju":3011,"afrik":3012,"tënku":3013,"vid":3014,"ayubés":3015,"tasaaroo":3016,"cammooñ":3017,"fuddën":3018,"col":3019,"cawar":3020,"ele":3021,"rat":3022,"xërëm":3023,"mase":3024,"dag":3025,"juum":3026,"saabaam":3027,"deesu":3028,"joxoñ":3029,"mboolem":3030,"com":3031,"géy":3032,"sangara":3033,"bamba":3034,"verte":3035,"ñenti":3036,"ndekete":3037,"talaata":3038,"ëtt":3039,"leble":3040,"seri":3041,"waawaaw":3042,"boolee":3043,"yeyoo":3044,"doxand":3045,"jëflë":3046,"ñaawal":3047,"yëgyëg":3048,"noppalu":3049,"nettli":3050,"mustafaa":3051,"doxandéem":3052,"bumu":3053,"éelu":3054,"fekki":3055,"jambur":3056,"maggalu":3057,"njiital":3058,"jottli":3059,"siidi":3060,"giir":3061,"defaraat":3062,"xalifa":3063,"cer":3064,"toom":3065,"giñ":3066,"ente":3067,"defu":3068,"wex":3069,"fekkoon":3070,"jógal":3071,"stri":3072,"matale":3073,"orop":3074,"ndombo":3075,"péeyu":3076,"bre":3077,"genni":3078,"ttali":3079,"ñat":3080,"ñent":3081,"gisul":3082,"junj":3083,"kumba":3084,"ril":3085,"baatam":3086,"sosoo":3087,"seere":3088,"mboor":3089,"bën":3090,"joolaa":3091,"ññiku":3092,"yóbbaale":3093,"njekk":3094,"lli":3095,"andu":3096,"dexu":3097,"loor":3098,"waxtaa":3099,"taf":3100,"moomeel":3101,"laah":3102,"bokku":3103,"xaadi":3104,"gangune":3105,"dundëm":3106,"suukar":3107,"jotoon":3108,"karaw":3109,"og":3110,"masul":3111,"attan":3112,"mbaal":3113,"waxaat":3114,"teemeer":3115,"xaritam":3116,"sangu":3117,"yëfi":3118,"web":3119,"begg":3120,"jangle":3121,"nguuram":3122,"kattanug":3123,"deretu":3124,"taariix":3125,"soqikoo":3126,"masedu":3127,"jaww":3128,"kolaa":3129,"waayam":3130,"fur":3131,"jong":3132,"solu":3133,"bindkat":3134,"rongoo":3135,"tuuru":3136,"xumb":3137,"yaggul":3138,"narelaa":3139,"jëkkëram":3140,"bóoy":3141,"munna":3142,"wërsëg":3143,"palaas":3144,"sén":3145,"lasu":3146,"kom":3147,"moor":3148,"wug":3149,"wuñ":3150,"taaw":3151,"yëkkati":3152,"bindal":3153,"ndekki":3154,"taxawaayu":3155,"góorlu":3156,"geek":3157,"aggee":3158,"taggatu":3159,"wérgu":3160,"woykat":3161,"diiney":3162,"séeréer":3163,"the":3164,"yittewoo":3165,"cëslaay":3166,"nem":3167,"koñ":3168,"nekkin":3169,"samaas":3170,"fippu":3171,"warug":3172,"raglu":3173,"saafara":3174,"xere":3175,"wéyal":3176,"jeexi":3177,"mos":3178,"cosaanoo":3179,"moon":3180,"saal":3181,"sël":3182,"ttub":3183,"ameel":3184,"tefe":3185,"mata":3186,"iim":3187,"kav":3188,"ras":3189,"angale":3190,"jappee":3191,"mbaax":3192,"neexee":3193,"jubbanti":3194,"topptoo":3195,"duggu":3196,"lamboo":3197,"doxaliin":3198,"péncum":3199,"koronaawiris":3200,"duñ":3201,"siri":3202,"taamu":3203,"tanq":3204,"wees":3205,"diiwaani":3206,"jankoon":3207,"jangalekat":3208,"noor":3209,"jëflante":3210,"giiru":3211,"yënguyëngu":3212,"nëtëx":3213,"jollasu":3214,"ise":3215,"meneen":3216,"amti":3217,"binde":3218,"mur":3219,"kuu":3220,"ley":3221,"wuyu":3222,"jiroom":3223,"saaga":3224,"yéwén":3225,"kurélu":3226,"teggin":3227,"jarag":3228,"lëkkale":3229,"ŋaññ":3230,"cosaanu":3231,"benni":3232,"kang":3233,"ps":3234,"amiin":3235,"andoom":3236,"matul":3237,"ggat":3238,"basa":3239,"jëli":3240,"setal":3241,"biiñ":3242,"teefu":3243,"teewe":3244,"xaat":3245,"daraja":3246,"ndeyu":3247,"noona":3248,"sakka":3249,"caabi":3250,"toroxal":3251,"yayoo":3252,"walliyu":3253,"ropplaan":3254,"demokaraasi":3255,"isipt":3256,"tte":3257,"yet":3258,"sapp":3259,"rim":3260,"fedd":3261,"dél":3262,"tegee":3263,"lopitaal":3264,"ndamp":3265,"taskatu":3266,"ternet":3267,"wéral":3268,"namaa":3269,"yaari":3270,"wommat":3271,"yoxo":3272,"gaw":3273,"lalu":3274,"oli":3275,"xul":3276,"égal":3277,"aaw":3278,"ner":3279,"aku":3280,"naalu":3281,"sig":3282,"óoy":3283,"dëkkoon":3284,"tegoo":3285,"yëkk":3286,"njabootu":3287,"barkeb":3288,"cim":3289,"lakki":3290,"suma":3291,"fajar":3292,"fipp":3293,"leerug":3294,"jote":3295,"deef":3296,"darajay":3297,"niir":3298,"soxnaam":3299,"mbuus":3300,"cees":3301,"gambi":3302,"khari":3303,"wérguyaram":3304,"cat":3305,"eko":3306,"haal":3307,"mk":3308,"palaat":3309,"salaat":3310,"lasaar":3311,"musul":3312,"maw":3313,"seŋ":3314,"boor":3315,"galag":3316,"jaale":3317,"sanku":3318,"joojee":3319,"wékk":3320,"réem":3321,"sammoon":3322,"ñaawtéef":3323,"albukhari":3324,"suweŋ":3325,"fuuta":3326,"taay":3327,"nawet":3328,"lak":3329,"nel":3330,"nuyoo":3331,"naataa":3332,"ruus":3333,"gallan":3334,"ware":3335,"dooleem":3336,"gaf":3337,"saaku":3338,"yey":3339,"yamale":3340,"anaugh":3341,"fajkat":3342,"sénégal":3343,"kavanaugh":3344,"been":3345,"qale":3346,"kore":3347,"ayi":3348,"lil":3349,"tubéy":3350,"jumaa":3351,"wunu":3352,"yas":3353,"fuuf":3354,"dënn":3355,"daam":3356,"sow":3357,"sokolaa":3358,"jeqi":3359,"mayu":3360,"gaawu":3361,"kere":3362,"kaasamaas":3363,"tiitaange":3364,"wérgi":3365,"foto":3366,"beykat":3367,"njaatige":3368,"ddina":3369,"ere":3370,"fëgg":3371,"fale":3372,"góob":3373,"tari":3374,"ancos":3375,"biri":3376,"tegal":3377,"mac":3378,"faf":3379,"gënu":3380,"mango":3381,"biige":3382,"yaak":3383,"téel":3384,"tëb":3385,"suufeel":3386,"jékki":3387,"ndustri":3388,"jakkar":3389,"ligéeyal":3390,"rakkam":3391,"sippax":3392,"goro":3393,"os":3394,"wit":3395,"naññ":3396,"bunu":3397,"masa":3398,"badi":3399,"ndare":3400,"jubal":3401,"tigu":3402,"yenu":3403,"sog":3404,"fekksi":3405,"lëj":3406,"jalal":3407,"ginaar":3408,"jébb":3409,"ndoxum":3410,"xasida":3411,"doylu":3412,"yamoo":3413,"jarul":3414,"naroon":3415,"jëwriñu":3416,"nosteg":3417,"gisuma":3418,"mbóotam":3419,"xorom":3420,"cor":3421,"kóo":3422,"pul":3423,"tó":3424,"yaan":3425,"diko":3426,"lajj":3427,"teree":3428,"bune":3429,"ndóol":3430,"atee":3431,"saq":3432,"maasallaa":3433,"addi":3434,"melax":3435,"diisoo":3436,"rafetlu":3437,"kilifag":3438,"daqe":3439,"ngomb":3440,"póli":3441,"noyyi":3442,"ind":3443,"qar":3444,"ñar":3445,"aani":3446,"eet":3447,"dibéer":3448,"nesi":3449,"naaj":3450,"atlas":3451,"allar":3452,"wuleen":3453,"óoba":3454,"wil":3455,"deem":3456,"xelal":3457,"doxalukaay":3458,"loxol":3459,"tiijaan":3460,"njiitul":3461,"kadduy":3462,"pañe":3463,"ñepp":3464,"bëjsaalum":3465,"mbote":3466,"yokkuteg":3467,"ngalteer":3468,"mamadu":3469,"batiku":3470,"ërob":3471,"cawarte":3472,"gallankoor":3473,"boy":3474,"lóo":3475,"nabas":3476,"digël":3477,"liñ":3478,"mate":3479,"nig":3480,"aari":3481,"awa":3482,"leg":3483,"itali":3484,"baaxe":3485,"barnabas":3486,"gana":3487,"araf":3488,"sëq":3489,"xalaatam":3490,"xalam":3491,"nowam":3492,"mënuñu":3493,"darma":3494,"ubbiku":3495,"yewwute":3496,"taarix":3497,"aamerig":3498,"xereñ":3499,"ggante":3500,"defay":3501,"tabas":3502,"raf":3503,"covid":3504,"yaroo":3505,"soxal":3506,"manula":3507,"yanq":3508,"jaxase":3509,"bóom":3510,"bërëbu":3511,"jammaarloo":3512,"warugar":3513,"pub":3514,"sta":3515,"dio":3516,"laggi":3517,"tundu":3518,"oppit":3519,"ange":3520,"soloo":3521,"soññ":3522,"xarkanam":3523,"jaañ":3524,"sës":3525,"ros":3526,"langu":3527,"mars":3528,"waxtuw":3529,"xoolaat":3530,"paaka":3531,"ndogal":3532,"monte":3533,"kuréelu":3534,"jongante":3535,"endustri":3536,"ken":3537,"poor":3538,"bid":3539,"tek":3540,"aksi":3541,"nite":3542,"aare":3543,"kub":3544,"mane":3545,"joge":3546,"taas":3547,"tamm":3548,"yool":3549,"juróomñeenti":3550,"sartu":3551,"geej":3552,"geestu":3553,"bulaan":3554,"wuuteek":3555,"ndaamar":3556,"tasaare":3557,"njangum":3558,"mbubboo":3559,"gati":3560,"hii":3561,"kees":3562,"patt":3563,"raat":3564,"uri":3565,"ëw":3566,"nation":3567,"tuddu":3568,"awma":3569,"xamne":3570,"seenub":3571,"samdi":3572,"taatu":3573,"jekki":3574,"juróomfukki":3575,"ndawal":3576,"lank":3577,"tuddee":3578,"melow":3579,"xér":3580,"telefon":3581,"juróombennfukk":3582,"jakkaarlook":3583,"maneesu":3584,"waññeeku":3585,"ngóone":3586,"sampiyoŋ":3587,"tefesu":3588,"ry":3589,"yite":3590,"yuñ":3591,"mbet":3592,"caggante":3593,"jah":3594,"joh":3595,"mël":3596,"dundam":3597,"bos":3598,"sangam":3599,"jëmmal":3600,"murid":3601,"jakkaarloo":3602,"toftal":3603,"im":3604,"róo":3605,"yatt":3606,"amatul":3607,"nijaay":3608,"sulet":3609,"waxna":3610,"sib":3611,"jaune":3612,"saas":3613,"sobe":3614,"biiram":3615,"wotey":3616,"bindu":3617,"bayyikoo":3618,"jëfëndi":3619,"malaakam":3620,"yanu":3621,"muslim":3622,"jafejafey":3623,"bakar":3624,"faayda":3625,"basaŋ":3626,"dax":3627,"dër":3628,"kalla":3629,"depp":3630,"xamente":3631,"simon":3632,"jaambur":3633,"tomb":3634,"sëf":3635,"jappal":3636,"ubbee":3637,"rou":3638,"jalgati":3639,"soxor":3640,"kaane":3641,"góorgóorlu":3642,"tayyi":3643,"melosuuf":3644,"persida":3645,"nasaret":3646,"wata":3647,"latjoor":3648,"murit":3649,"yegsi":3650,"royukaay":3651,"va":3652,"masaa":3653,"orge":3654,"señ":3655,"waayi":3656,"kacc":3657,"rabi":3658,"jural":3659,"seetal":3660,"jeego":3661,"loru":3662,"aduna":3663,"doyadi":3664,"idi":3665,"ngale":3666,"danañu":3667,"midi":3668,"sesaar":3669,"dën":3670,"dundël":3671,"nanguwul":3672,"kayitu":3673,"fulla":3674,"yóbbe":3675,"muuñ":3676,"waajuram":3677,"kilomet":3678,"tabaski":3679,"cel":3680,"hal":3681,"kari":3682,"sóor":3683,"usi":3684,"kowe":3685,"laabal":3686,"taayi":3687,"duggee":3688,"tabbal":3689,"bbax":3690,"sakkan":3691,"jumtukaayu":3692,"njënd":3693,"xarnub":3694,"payoor":3695,"nawle":3696,"ngënéel":3697,"yanqóoba":3698,"polo":3699,"biñ":3700,"guñu":3701,"siti":3702,"gënal":3703,"soŋ":3704,"xaru":3705,"feese":3706,"liggéeyi":3707,"wersite":3708,"manuma":3709,"cuur":3710,"dikkal":3711,"fallu":3712,"puul":3713,"moytuleen":3714,"ayubes":3715,"ekib":3716,"njambaar":3717,"dóomu":3718,"ñarelaa":3719,"gre":3720,"aasu":3721,"cin":3722,"ane":3723,"ano":3724,"antal":3725,"dikaa":3726,"mah":3727,"duy":3728,"siy":3729,"yombal":3730,"gaawan":3731,"doxantu":3732,"jaaro":3733,"génné":3734,"xotti":3735,"wormaal":3736,"céndu":3737,"farãs":3738,"jeexiital":3739,"jigéenu":3740,"photo":3741,"kée":3742,"loy":3743,"mc":3744,"oŋ":3745,"yat":3746,"alku":3747,"naf":3748,"armi":3749,"mati":3750,"sut":3751,"suy":3752,"jukki":3753,"wute":3754,"kana":3755,"bayi":3756,"yëre":3757,"yéenee":3758,"star":3759,"defaral":3760,"tabb":3761,"wonee":3762,"gammu":3763,"wéer":3764,"buuri":3765,"feex":3766,"géew":3767,"jeneen":3768,"poro":3769,"tra":3770,"xab":3771,"amug":3772,"nara":3773,"yile":3774,"yah":3775,"bëggante":3776,"boroo":3777,"gejje":3778,"george":3779,"damu":3780,"doomaadama":3781,"ñëwal":3782,"ndawam":3783,"ceebu":3784,"xaaral":3785,"goreel":3786,"delloosi":3787,"jéggal":3788,"mujju":3789,"nirook":3790,"digganteem":3791,"iniwersite":3792,"waxtaanu":3793,"maseduwan":3794,"allarba":3795,"biddii":3796,"ine":3797,"ty":3798,"uk":3799,"vo":3800,"aama":3801,"bidiw":3802,"nis":3803,"nus":3804,"faggu":3805,"mbali":3806,"tilaa":3807,"jiyaar":3808,"taxu":3809,"waree":3810,"gannaay":3811,"gaam":3812,"gaale":3813,"stor":3814,"xuux":3815,"xajj":3816,"waccu":3817,"taalibey":3818,"bataaxel":3819,"jawriñ":3820,"bérébu":3821,"mandiŋ":3822,"fësal":3823,"kalaame":3824,"ndampaay":3825,"indaale":3826,"fm":3827,"ili":3828,"lol":3829,"nangay":3830,"dim":3831,"ten":3832,"akar":3833,"tiye":3834,"tilim":3835,"maale":3836,"laaf":3837,"melal":3838,"bëggë":3839,"éntam":3840,"balu":3841,"bayit":3842,"magam":3843,"bindoo":3844,"faran":3845,"toppoon":3846,"nté":3847,"coor":3848,"ngoog":3849,"neenal":3850,"limub":3851,"jataayub":3852,"njobbax":3853,"liggeey":3854,"jeqiku":3855,"wérgiyaram":3856,"ngomblaan":3857,"jolli":3858,"lëm":3859,"ofi":3860,"aaday":3861,"diwaar":3862,"bato":3863,"caf":3864,"lekool":3865,"yeex":3866,"wareef":3867,"bëgguma":3868,"bokkeef":3869,"dëkkandoo":3870,"jeng":3871,"téeréem":3872,"joob":3873,"jëkka":3874,"ndawu":3875,"ginne":3876,"kaam":3877,"mujjoon":3878,"dajee":3879,"ndeyjoo":3880,"joŋanteb":3881,"jeexiit":3882,"ngañdemba":3883,"gó":3884,"loppit":3885,"aalu":3886,"alali":3887,"layoo":3888,"ngërë":3889,"giléem":3890,"aaye":3891,"dadaan":3892,"lebal":3893,"nekkinu":3894,"mani":3895,"rap":3896,"doonul":3897,"asaka":3898,"toogal":3899,"tëer":3900,"ston":3901,"wéddi":3902,"diggi":3903,"pot":3904,"pose":3905,"ibliis":3906,"ump":3907,"sayi":3908,"tiir":3909,"meeri":3910,"rawante":3911,"ñeentfukk":3912,"dénkaane":3913,"ndigali":3914,"jaxate":3915,"terewul":3916,"tangoor":3917,"taggatkat":3918,"haaji":3919,"dibidibi":3920,"mawdo":3921,"jor":3922,"kallaa":3923,"rmidi":3924,"eeli":3925,"ndoo":3926,"ppaa":3927,"aaral":3928,"timo":3929,"defleen":3930,"fexee":3931,"raññiku":3932,"suux":3933,"jëlé":3934,"yéenay":3935,"mbul":3936,"mbubbu":3937,"dangeena":3938,"jëfandiku":3939,"coona":3940,"goxu":3941,"kamb":3942,"yéenekaay":3943,"attirmidi":3944,"waññiku":3945,"sottal":3946,"dolaar":3947,"timote":3948,"az":3949,"nor":3950,"aljuma":3951,"ling":3952,"luga":3953,"daŋ":3954,"kun":3955,"jërë":3956,"tiwaaw":3957,"jotu":3958,"mem":3959,"kontar":3960,"rot":3961,"tolof":3962,"tiitar":3963,"wallum":3964,"sér":3965,"kattanam":3966,"soree":3967,"juroomi":3968,"kamara":3969,"raxci":3970,"sidaŋ":3971,"dundin":3972,"nóonu":3973,"batayit":3974,"njeexit":3975,"nowambar":3976,"cuuraay":3977,"cang":3978,"id":3979,"jort":3980,"ant":3981,"dibeer":3982,"nela":3983,"musu":3984,"buso":3985,"attee":3986,"ordina":3987,"taxna":3988,"ers":3989,"saaj":3990,"yaas":3991,"jefan":3992,"bét":3993,"béri":3994,"ganaar":3995,"bere":3996,"reewum":3997,"tont":3998,"ters":3999,"féey":4000,"cho":4001,"pólótigu":4002,"saggane":4003,"koloñ":4004,"xemmee":4005,"mokkal":4006,"siidiya":4007,"rongooñ":4008,"faranse":4009,"cent":4010,"falu":4011,"isin":4012,"ment":4013,"ëb":4014,"amuma":4015,"biram":4016,"yima":4017,"mabb":4018,"sutu":4019,"naak":4020,"gëme":4021,"waañ":4022,"óok":4023,"rabu":4024,"neek":4025,"neew":4026,"jëloon":4027,"sooy":4028,"kaasu":4029,"siis":4030,"garu":4031,"loxob":4032,"pakk":4033,"kayi":4034,"daaray":4035,"njaayum":4036,"yiwam":4037,"toroxlu":4038,"porti":4039,"yakkamti":4040,"caar":4041,"fati":4042,"imaam":4043,"xeel":4044,"nakk":4045,"diwaanu":4046,"deg":4047,"magi":4048,"yun":4049,"yeene":4050,"kas":4051,"dalee":4052,"yekkati":4053,"gëmoon":4054,"kaanu":4055,"dégluleen":4056,"sababu":4057,"amina":4058,"ndimbalu":4059,"xaadir":4060,"raxcidolli":4061,"efes":4062,"jen":4063,"aram":4064,"komi":4065,"naataange":4066,"jubadi":4067,"kim":4068,"sambar":4069,"fuglu":4070,"ñaare":4071,"dëfël":4072,"bokkaale":4073,"jaami":4074,"xaacu":4075,"xeewal":4076,"wéyee":4077,"lëñ":4078,"xolli":4079,"ñetteel":4080,"faati":4081,"toppe":4082,"takkal":4083,"xoolleen":4084,"xeexal":4085,"xamxamam":4086,"turki":4087,"goxgox":4088,"tërë":4089,"apr":4090,"camp":4091,"xamunu":4092,"naqarlu":4093,"gaañugaañu":4094,"silla":4095,"salaam":4096,"céet":4097,"kale":4098,"njuu":4099,"olig":4100,"raal":4101,"sër":4102,"yóo":4103,"awu":4104,"wund":4105,"abóo":4106,"ablaay":4107,"sir":4108,"seenu":4109,"samb":4110,"leek":4111,"bennal":4112,"sank":4113,"xeetam":4114,"farat":4115,"sargal":4116,"pepp":4117,"toogee":4118,"bakkaarkat":4119,"waxtuy":4120,"xolu":4121,"daraa":4122,"raaf":4123,"amunu":4124,"juróomñaarfukk":4125,"bitimréew":4126,"mbambulaan":4127,"jigéeni":4128,"mbetteel":4129,"afan":4130,"uni":4131,"allu":4132,"aysatu":4133,"baadoo":4134,"bareem":4135,"book":4136,"katolig":4137,"koolu":4138,"took":4139,"jambat":4140,"ñaŋ":4141,"tant":4142,"tantal":4143,"sëtu":4144,"bëñ":4145,"dduna":4146,"duggal":4147,"coobareem":4148,"paspas":4149,"pert":4150,"wird":4151,"jéggalu":4152,"jaaduwul":4153,"suqaliku":4154,"feddali":4155,"seŋoor":4156,"portigaal":4157,"bale":4158,"daay":4159,"foon":4160,"fóon":4161,"pho":4162,"ue":4163,"alh":4164,"ndokk":4165,"enternet":4166,"misi":4167,"faq":4168,"sid":4169,"defaat":4170,"jirim":4171,"fum":4172,"ccax":4173,"walbatiku":4174,"bokki":4175,"sosal":4176,"meñ":4177,"bindoon":4178,"farata":4179,"wékku":4180,"dessin":4181,"géwél":4182,"ñeentfukki":4183,"maande":4184,"jegesi":4185,"mbérin":4186,"dayob":4187,"ekip":4188,"larme":4189,"tilaabéri":4190,"caaroy":4191,"aba":4192,"dó":4193,"dda":4194,"ski":4195,"dia":4196,"lafa":4197,"ngton":4198,"bah":4199,"ndal":4200,"ppe":4201,"tuxu":4202,"sutur":4203,"defi":4204,"nekkiin":4205,"tase":4206,"samari":4207,"jagoo":4208,"yendu":4209,"bëtam":4210,"solal":4211,"neexoon":4212,"xalaati":4213,"dugge":4214,"ëppoon":4215,"xall":4216,"yaakaaroon":4217,"néewu":4218,"lawbe":4219,"mënuñoo":4220,"féeté":4221,"sancaan":4222,"noste":4223,"ponk":4224,"xëccoo":4225,"juróomñettfukk":4226,"sottee":4227,"ninki":4228,"jërëjëf":4229,"ekool":4230,"her":4231,"jgé":4232,"sat":4233,"wale":4234,"amaana":4235,"bisu":4236,"kul":4237,"cacc":4238,"timis":4239,"sigi":4240,"ses":4241,"segg":4242,"xaritu":4243,"meti":4244,"alikoo":4245,"yóbb":4246,"tëye":4247,"jëlal":4248,"yaru":4249,"kaamil":4250,"seetleen":4251,"mbagg":4252,"yëgyëgu":4253,"nampal":4254,"mbokki":4255,"digoon":4256,"mandargaal":4257,"mandargam":4258,"palan":4259,"xemmem":4260,"mbérinsaaj":4261,"esayi":4262,"hol":4263,"stal":4264,"big":4265,"biya":4266,"yin":4267,"xamuma":4268,"manoo":4269,"maalig":4270,"gisaat":4271,"galloo":4272,"saam":4273,"tandarma":4274,"dëkkub":4275,"doggan":4276,"merum":4277,"farandoo":4278,"dégge":4279,"bañoon":4280,"yégee":4281,"pie":4282,"jikkoom":4283,"sakkoo":4284,"njabootug":4285,"dencu":4286,"njangat":4287,"muñal":4288,"ford":4289,"sagoom":4290,"summi":4291,"gaaral":4292,"ndekkite":4293,"nafsu":4294,"doggantal":4295,"mbañ":4296,"tat":4297,"uu":4298,"yëgg":4299,"anteek":4300,"bulaa":4301,"dema":4302,"sad":4303,"tag":4304,"rit":4305,"laabiir":4306,"taxa":4307,"daloon":4308,"bokkna":4309,"bégal":4310,"baaxoo":4311,"toq":4312,"sarti":4313,"faam":4314,"yéem":4315,"mart":4316,"saytaane":4317,"meek":4318,"ustaas":4319,"namp":4320,"sendikaa":4321,"dëppook":4322,"ndékki":4323,"kilifteef":4324,"gënuta":4325,"ek":4326,"end":4327,"meen":4328,"aamu":4329,"oot":4330,"lit":4331,"liver":4332,"ndóor":4333,"tuñu":4334,"turi":4335,"yug":4336,"xamni":4337,"fase":4338,"mool":4339,"sis":4340,"run":4341,"baati":4342,"yeesal":4343,"njaar":4344,"bali":4345,"tegtale":4346,"ñakkul":4347,"mbugël":4348,"ñaale":4349,"xadii":4350,"waccee":4351,"xobi":4352,"daqaar":4353,"cha":4354,"jeema":4355,"settantal":4356,"wëlif":4357,"riisi":4358,"coobarey":4359,"barabi":4360,"politik":4361,"john":4362,"cell":4363,"liit":4364,"nisi":4365,"dugu":4366,"kuraŋ":4367,"mbóot":4368,"moos":4369,"gundóor":4370,"tapoo":4371,"moomee":4372,"dinañ":4373,"dallu":4374,"gakk":4375,"taañ":4376,"jangi":4377,"atteb":4378,"géeju":4379,"mottali":4380,"waypólótig":4381,"téy":4382,"nettal":4383,"ndonesi":4384,"muhamma":4385,"mandargay":4386,"amuloo":4387,"jéema":4388,"yërmëndéy":4389,"latkoloñ":4390,"yewwuteg":4391,"péyu":4392,"gaawantu":4393,"lëmm":4394,"palanteer":4395,"aqi":4396,"lolli":4397,"ndem":4398,"tro":4399,"wó":4400,"aaki":4401,"muuru":4402,"bagaas":4403,"iit":4404,"mooma":4405,"ler":4406,"sena":4407,"waaso":4408,"bokkal":4409,"mënees":4410,"sofi":4411,"ñagas":4412,"seek":4413,"ballu":4414,"addii":4415,"baykat":4416,"beru":4417,"dayoo":4418,"tële":4419,"muccayib":4420,"poliis":4421,"soosu":4422,"marog":4423,"rëëw":4424,"lott":4425,"jéll":4426,"toogoon":4427,"meeku":4428,"defaru":4429,"xeexu":4430,"wonena":4431,"mbindum":4432,"maamam":4433,"mbëkk":4434,"musalkat":4435,"dencal":4436,"njëlbéen":4437,"mandin":4438,"nosukaay":4439,"kangam":4440,"lëñbët":4441,"liverpool":4442,"ms":4443,"pré":4444,"ñay":4445,"amaat":4446,"newoon":4447,"eente":4448,"ato":4449,"waxati":4450,"tahaal":4451,"kippaa":4452,"warna":4453,"warees":4454,"wide":4455,"meloom":4456,"askanam":4457,"gënn":4458,"geres":4459,"tanku":4460,"yooya":4461,"diiru":4462,"taxawoon":4463,"xuus":4464,"attaaya":4465,"feeñe":4466,"nante":4467,"nanka":4468,"yonnee":4469,"melokaanu":4470,"jëmmam":4471,"puu":4472,"aux":4473,"xettali":4474,"njariñu":4475,"kabweer":4476,"kallaama":4477,"lafañ":4478,"tahaalaa":4479,"dor":4480,"kri":4481,"paan":4482,"umar":4483,"uuf":4484,"bug":4485,"dadaa":4486,"mbaay":4487,"waxante":4488,"gun":4489,"lec":4490,"tijji":4491,"abal":4492,"rumi":4493,"fexeel":4494,"yeel":4495,"laataa":4496,"fim":4497,"tangal":4498,"xeej":4499,"njiiteef":4500,"faram":4501,"janoo":4502,"léebu":4503,"jangat":4504,"mark":4505,"rëbb":4506,"duggsi":4507,"goxub":4508,"yonni":4509,"dikkee":4510,"muhammadu":4511,"njaax":4512,"kowam":4513,"yelleef":4514,"jaloore":4515,"haana":4516,"subhaana":4517,"feeñug":4518,"mbambulaa":4519,"bó":4520,"gol":4521,"nk":4522,"nale":4523,"ëti":4524,"mais":4525,"baŋ":4526,"sumb":4527,"naax":4528,"mine":4529,"gërë":4530,"maana":4531,"jañ":4532,"aleg":4533,"baatub":4534,"leeru":4535,"dëj":4536,"gañ":4537,"seetee":4538,"ëlé":4539,"kawlax":4540,"west":4541,"mënmën":4542,"déggoon":4543,"kebe":4544,"colat":4545,"jaarul":4546,"yéet":4547,"nooteel":4548,"attekaay":4549,"dolliku":4550,"laajee":4551,"bour":4552,"xolub":4553,"ginaawam":4554,"jeeg":4555,"xayna":4556,"jébbalu":4557,"sottiku":4558,"rakkaa":4559,"ppite":4560,"gémmiñu":4561,"chocolat":4562,"ec":4563,"pan":4564,"paas":4565,"toro":4566,"ama":4567,"naxe":4568,"nasaxal":4569,"diy":4570,"diri":4571,"munu":4572,"ñuŋ":4573,"desee":4574,"dent":4575,"yur":4576,"xamoo":4577,"wujj":4578,"sit":4579,"riyee":4580,"ruq":4581,"fegal":4582,"teewaayu":4583,"ash":4584,"saxul":4585,"jamano":4586,"jegee":4587,"joxee":4588,"alis":4589,"yëgal":4590,"bekk":4591,"bepp":4592,"xees":4593,"defaree":4594,"moa":4595,"yërmaande":4596,"karoot":4597,"jikkoy":4598,"bëjgannaar":4599,"randu":4600,"ranke":4601,"suufus":4602,"xéyna":4603,"yabal":4604,"saalihu":4605,"jibrii":4606,"juutikat":4607,"imbraat":4608,"poloñ":4609,"had":4610,"jel":4611,"luñu":4612,"tuxal":4613,"yuur":4614,"tigi":4615,"siyoŋ":4616,"ria":4617,"samab":4618,"jaq":4619,"wallam":4620,"yew":4621,"soci":4622,"boroomi":4623,"wanag":4624,"diina":4625,"dundé":4626,"bëg":4627,"bëy":4628,"bariy":4629,"ndege":4630,"taxawe":4631,"jangor":4632,"york":4633,"siif":4634,"jéng":4635,"gees":4636,"waykat":4637,"dellusee":4638,"télé":4639,"aggoon":4640,"këyi":4641,"taggu":4642,"déglul":4643,"séddoo":4644,"montar":4645,"njëlbée":4646,"mujjug":4647,"xiirtal":4648,"petor":4649,"ndono":4650,"junney":4651,"arminaa":4652,"biddiiw":4653,"iliyas":4654,"aŋ":4655,"bla":4656,"caam":4657,"han":4658,"ló":4659,"raam":4660,"ñang":4661,"anti":4662,"dekku":4663,"masin":4664,"niseri":4665,"manga":4666,"maamur":4667,"biig":4668,"wiki":4669,"teewoon":4670,"doore":4671,"joj":4672,"mësul":4673,"woona":4674,"alin":4675,"tëkku":4676,"yéené":4677,"sare":4678,"ñakke":4679,"atuñu":4680,"maraa":4681,"lekke":4682,"usaan":4683,"néegam":4684,"kariim":4685,"jaru":4686,"limaan":4687,"taaral":4688,"cambar":4689,"noonoo":4690,"tëjoon":4691,"taqale":4692,"riisa":4693,"daawur":4694,"yenngu":4695,"weccee":4696,"matuwaay":4697,"ganesi":4698,"jëflënté":4699,"piemonte":4700,"jibriil":4701,"jaal":4702,"mak":4703,"teur":4704,"arrumi":4705,"liwë":4706,"lewi":4707,"baaba":4708,"gisiin":4709,"warnanoo":4710,"dëfal":4711,"seey":4712,"deer":4713,"deewu":4714,"jaat":4715,"yonen":4716,"seneraal":4717,"suuxat":4718,"takkusaan":4719,"rawna":4720,"dajeel":4721,"këriñ":4722,"doyloo":4723,"mettit":4724,"dimbale":4725,"paap":4726,"yaqq":4727,"mbëjfepp":4728,"pitax":4729,"jataayu":4730,"jeexitalu":4731,"sakari":4732,"oliw":4733,"maalekum":4734,"njobbaxtan":4735,"tiwaawon":4736,"imbraatóor":4737,"baan":4738,"dra":4739,"kali":4740,"land":4741,"xad":4742,"cii":4743,"nab":4744,"ard":4745,"limat":4746,"deñu":4747,"desambar":4748,"majah":4749,"ndof":4750,"niko":4751,"mbell":4752,"caq":4753,"sion":4754,"nekkaat":4755,"firawna":4756,"xarkanamam":4757,"sët":4758,"téemeer":4759,"bariwul":4760,"faye":4761,"cong":4762,"gëmgëm":4763,"ëppal":4764,"ñeenteel":4765,"giiñ":4766,"jullee":4767,"kiis":4768,"kiiraay":4769,"manumaa":4770,"ille":4771,"stus":4772,"jallale":4773,"pólis":4774,"coobareg":4775,"banqaas":4776,"isaaxa":4777,"paris":4778,"ngér":4779,"sammoonteek":4780,"ninkinanka":4781,"sigicoor":4782,"njaaréem":4783,"bba":4784,"bang":4785,"esipt":4786,"foy":4787,"gaayam":4788,"nër":4789,"palu":4790,"sante":4791,"aamadu":4792,"alag":4793,"biddi":4794,"lijaa":4795,"gine":4796,"aayoo":4797,"xammi":4798,"siye":4799,"taccu":4800,"laax":4801,"dëg":4802,"sose":4803,"tamaate":4804,"doyul":4805,"ndiru":4806,"jaata":4807,"santi":4808,"jiit":4809,"sala":4810,"jamonoom":4811,"jangee":4812,"soor":4813,"tiital":4814,"giirug":4815,"tono":4816,"inter":4817,"téq":4818,"junneek":4819,"xobam":4820,"mënuma":4821,"mbët":4822,"jegeñ":4823,"frãs":4824,"huu":4825,"feebaru":4826,"jéggël":4827,"bérébi":4828,"buumu":4829,"buurub":4830,"saaysaay":4831,"teewlu":4832,"pënd":4833,"callal":4834,"ibraayima":4835,"jëflën":4836,"yéwénal":4837,"dënnu":4838,"yurdan":4839,"add":4840,"bol":4841,"eur":4842,"jenni":4843,"sy":4844,"uhu":4845,"yaayu":4846,"zu":4847,"aamiin":4848,"nah":4849,"ayda":4850,"sungu":4851,"dah":4852,"ngistal":4853,"abo":4854,"ngatu":4855,"melki":4856,"gestu":4857,"deeleen":4858,"dëkkam":4859,"xari":4860,"tegale":4861,"sandar":4862,"téereem":4863,"ñëwoon":4864,"comp":4865,"leeralal":4866,"réere":4867,"pegg":4868,"delluwaat":4869,"qui":4870,"juntu":4871,"anami":4872,"kart":4873,"ngëmam":4874,"yëgyë":4875,"doyal":4876,"cuu":4877,"waaraate":4878,"dogalu":4879,"ndigalam":4880,"judduwaale":4881,"nangam":4882,"salaamaalekum":4883,"njariñul":4884,"bisaab":4885,"nemmeeku":4886,"yëkkëti":4887,"ekost":4888,"rouge":4889,"campeef":4890,"afandii":4891,"cro":4892,"joom":4893,"njapp":4894,"ose":4895,"ween":4896,"ngee":4897,"neneen":4898,"deppite":4899,"ndén":4900,"ndóoy":4901,"niseer":4902,"abd":4903,"sili":4904,"sidaa":4905,"sagar":4906,"mande":4907,"ité":4908,"dalu":4909,"jeŋ":4910,"bére":4911,"alaaji":4912,"mboolo":4913,"gantu":4914,"lënt":4915,"soxlay":4916,"geem":4917,"njiitum":4918,"tayu":4919,"kiir":4920,"inndi":4921,"nob":4922,"sonko":4923,"këf":4924,"jaayante":4925,"xonqu":4926,"ëllëgu":4927,"wéetal":4928,"pexey":4929,"létt":4930,"guddaay":4931,"xatal":4932,"ngën":4933,"bleu":4934,"taalube":4935,"cëy":4936,"toogukaay":4937,"féewi":4938,"woomle":4939,"jankoonte":4940,"pulaar":4941,"xemmeem":4942,"gañcax":4943,"arminaatu":4944,"jennifer":4945,"eli":4946,"faw":4947,"góo":4948,"tata":4949,"ww":4950,"xóo":4951,"ët":4952,"alxam":4953,"alas":4954,"antee":4955,"ppee":4956,"sug":4957,"ngiñ":4958,"kuree":4959,"wuut":4960,"jigg":4961,"dooni":4962,"melni":4963,"déy":4964,"óori":4965,"tomaa":4966,"yëpp":4967,"jiitël":4968,"key":4969,"jaaru":4970,"jotaay":4971,"soobee":4972,"xawa":4973,"miskin":4974,"jaaykat":4975,"nami":4976,"ñemee":4977,"ester":4978,"xibaari":4979,"sinkun":4980,"terete":4981,"jabaru":4982,"digante":4983,"betani":4984,"dunndu":4985,"nattuwaay":4986,"roytéef":4987,"féewaloo":4988,"sãawi":4989,"jaarjaaram":4990,"elek":4991,"sutura":4992,"muhammadul":4993,"subhaanahu":4994,"jangoroy":4995,"bbe":4996,"cur":4997,"chi":4998,"floy":4999,"gon":5000,"xraaf":5001,"aane":5002,"city":5003,"layu":5004,"teqale":5005,"yisoppi":5006,"babi":5007,"ndeem":5008,"tux":5009,"dajal":5010,"juru":5011,"juxraaf":5012,"kubéer":5013,"face":5014,"wukaay":5015,"simis":5016,"sapo":5017,"njax":5018,"biiru":5019,"dala":5020,"daamaar":5021,"toolam":5022,"saxar":5023,"liif":5024,"tanneef":5025,"bëkk":5026,"gaat":5027,"magget":5028,"ñëwleen":5029,"banku":5030,"toppandoo":5031,"pey":5032,"affa":5033,"yooyule":5034,"table":5035,"rawale":5036,"malaakaam":5037,"xippi":5038,"juddóo":5039,"njublaŋ":5040,"dexug":5041,"makkaanu":5042,"milyoŋi":5043,"fajukaay":5044,"daajoon":5045,"washi":5046,"këll":5047,"musóoru":5048,"délsi":5049,"ubbeeku":5050,"gómis":5051,"ngërëmul":5052,"niseriyaa":5053,"floyd":5054,"est":5055,"nawum":5056,"ans":5057,"dis":5058,"laf":5059,"lah":5060,"bidd":5061,"kocc":5062,"buddi":5063,"madiina":5064,"gisuñu":5065,"duus":5066,"mbon":5067,"waxtoom":5068,"sai":5069,"manaam":5070,"fecci":5071,"moomeelu":5072,"waax":5073,"maani":5074,"njool":5075,"booru":5076,"gisgisu":5077,"kaper":5078,"dëng":5079,"énn":5080,"taawu":5081,"bokkam":5082,"yaam":5083,"yaani":5084,"tambaa":5085,"xetu":5086,"mayoon":5087,"beddi":5088,"gaawal":5089,"gaawe":5090,"baril":5091,"kebóoy":5092,"gëmm":5093,"yéemé":5094,"xalaate":5095,"laman":5096,"xéewëlale":5097,"nanguwu":5098,"boobule":5099,"tolluu":5100,"nodd":5101,"sëriñam":5102,"néewal":5103,"soppee":5104,"jubluwaay":5105,"mébét":5106,"digale":5107,"njëlbeen":5108,"nattale":5109,"masula":5110,"mbóoti":5111,"jikkóy":5112,"taarixu":5113,"reetaanlu":5114,"royuwaay":5115,"imbraa":5116,"dagaan":5117,"tërëlii":5118,"liwëpuul":5119,"féewiriyee":5120,"kapernawum":5121,"by":5122,"lla":5123,"pres":5124,"xur":5125,"nacc":5126,"digaale":5127,"kott":5128,"nim":5129,"num":5130,"duu":5131,"dumana":5132,"iid":5133,"fajal":5134,"waxiin":5135,"lebu":5136,"repub":5137,"ruur":5138,"waaja":5139,"laabii":5140,"wisaar":5141,"ñooña":5142,"nguuri":5143,"toobar":5144,"yemul":5145,"ndim":5146,"fani":5147,"xeem":5148,"mënti":5149,"neexe":5150,"ibnu":5151,"yéreem":5152,"desoon":5153,"koomkoomu":5154,"mou":5155,"paccu":5156,"cedd":5157,"taggook":5158,"hamdu":5159,"reylu":5160,"déey":5161,"tukkib":5162,"yéeney":5163,"kërug":5164,"dindil":5165,"meññeef":5166,"ñibbisi":5167,"jonn":5168,"këlëb":5169,"jammaarlook":5170,"toxal":5171,"tukke":5172,"oktoobar":5173,"gémmiñam":5174,"jébbale":5175,"rafle":5176,"njuuj":5177,"bekkoor":5178,"washington":5179,"ac":5180,"fóo":5181,"jóo":5182,"móolu":5183,"nal":5184,"ona":5185,"ñeex":5186,"ñas":5187,"amoo":5188,"latin":5189,"ngée":5190,"ngalla":5191,"arte":5192,"munul":5193,"tuñ":5194,"cas":5195,"capp":5196,"guddu":5197,"tif":5198,"til":5199,"rid":5200,"ñingi":5201,"sampu":5202,"maat":5203,"yeesoo":5204,"laahu":5205,"nitam":5206,"figg":5207,"rapp":5208,"jog":5209,"jota":5210,"bokkuñu":5211,"jamp":5212,"ball":5213,"xeli":5214,"xewu":5215,"deet":5216,"dundat":5217,"wey":5218,"daanoo":5219,"takkandee":5220,"kaare":5221,"lekkool":5222,"garmi":5223,"ñaas":5224,"ñaane":5225,"bakkaaram":5226,"jaaye":5227,"déeg":5228,"goxi":5229,"este":5230,"wutoon":5231,"wooteb":5232,"puur":5233,"ndéggat":5234,"ngëneel":5235,"mbubbam":5236,"canc":5237,"taariixu":5238,"rangoo":5239,"yittéwóo":5240,"gafaka":5241,"njeexital":5242,"aakimoo":5243,"petorol":5244,"sãawiyee":5245,"bóot":5246,"cre":5247,"sool":5248,"ts":5249,"val":5250,"vet":5251,"amati":5252,"nabu":5253,"bitéel":5254,"libi":5255,"bawol":5256,"nur":5257,"xamale":5258,"jënde":5259,"defati":5260,"ndaxam":5261,"yeete":5262,"fiñ":5263,"finaal":5264,"déndu":5265,"yaat":5266,"mënee":5267,"agari":5268,"dottub":5269,"ndii":5270,"jappu":5271,"wodd":5272,"senegale":5273,"magdala":5274,"andare":5275,"reet":5276,"jaara":5277,"jaaroon":5278,"atuma":5279,"bayyima":5280,"jubsi":5281,"yéex":5282,"picci":5283,"pes":5284,"waybokk":5285,"feeñte":5286,"agge":5287,"xamxami":5288,"mbindaan":5289,"worma":5290,"noonam":5291,"njaga":5292,"ligeeykat":5293,"allaaxiraa":5294,"nirool":5295,"lonkoy":5296,"saaliwu":5297,"ndëgër":5298,"woomal":5299,"ndoorte":5300,"africa":5301,"ñatteelu":5302,"naataango":5303,"idiriisa":5304,"kippaango":5305,"laabiire":5306,"eti":5307,"gres":5308,"kaal":5309,"yell":5310,"anduñu":5311,"temm":5312,"musa":5313,"dekkee":5314,"mada":5315,"bañu":5316,"ndée":5317,"tuma":5318,"misaa":5319,"ori":5320,"orange":5321,"xamleen":5322,"fakk":5323,"jëmbët":5324,"waxaale":5325,"cakku":5326,"abb":5327,"abet":5328,"sidd":5329,"gënul":5330,"manman":5331,"sammu":5332,"kapit":5333,"waroona":5334,"gañe":5335,"ñag":5336,"dom":5337,"dow":5338,"doju":5339,"dongo":5340,"sanke":5341,"magge":5342,"bayyiwul":5343,"jubale":5344,"liggéeykati":5345,"yéngu":5346,"soof":5347,"marck":5348,"tontoo":5349,"moytul":5350,"ragaloon":5351,"féexal":5352,"bismarck":5353,"fomp":5354,"pasti":5355,"jëwri":5356,"kampaañ":5357,"xamuloo":5358,"gëstukat":5359,"ngant":5360,"yeggale":5361,"andaloon":5362,"welo":5363,"dimmbali":5364,"aminata":5365,"naaxsaay":5366,"ceddo":5367,"njuujnjaa":5368,"ey":5369,"gawar":5370,"njëwriñ":5371,"qii":5372,"rlu":5373,"ëer":5374,"alseri":5375,"nari":5376,"bili":5377,"ngoom":5378,"ney":5379,"kori":5380,"matug":5381,"duwaar":5382,"dusen":5383,"naanu":5384,"naagu":5385,"xamadi":5386,"sadusen":5387,"kiñaan":5388,"sedeg":5389,"baana":5390,"laale":5391,"fuur":5392,"yeesum":5393,"natte":5394,"xarbaax":5395,"week":5396,"mbootaayi":5397,"bëri":5398,"senelec":5399,"maggalukaay":5400,"lëjal":5401,"toppee":5402,"jalloo":5403,"delsi":5404,"sooga":5405,"marsan":5406,"xadi":5407,"sakkal":5408,"xira":5409,"wëy":5410,"yellee":5411,"surgaam":5412,"ndaanaan":5413,"ponkal":5414,"xalima":5415,"soppey":5416,"mbootaayug":5417,"yërmandeem":5418,"xarañte":5419,"garabug":5420,"kilifteefu":5421,"tappe":5422,"wëndeelu":5423,"mkyaama":5424,"gafak":5425,"pólitig":5426,"leget":5427,"cangaay":5428,"abadan":5429,"melkisedeg":5430,"oseyaani":5431,"sapoŋ":5432,"affaire":5433,"agaripa":5434,"ae":5435,"abii":5436,"baaru":5437,"cet":5438,"daaru":5439,"gaay":5440,"mpi":5441,"pala":5442,"senn":5443,"ñal":5444,"aayi":5445,"alkan":5446,"dil":5447,"dugël":5448,"yukaay":5449,"iinam":5450,"defuma":5451,"rikk":5452,"sesare":5453,"fere":5454,"boot":5455,"leerul":5456,"jammi":5457,"nattukaay":5458,"seeri":5459,"donga":5460,"neenañu":5461,"you":5462,"yombul":5463,"sanq":5464,"jappandi":5465,"layal":5466,"kele":5467,"banaana":5468,"gëmloo":5469,"toppal":5470,"bañee":5471,"peau":5472,"askani":5473,"ins":5474,"inture":5475,"nank":5476,"yëgle":5477,"ubbite":5478,"pasteef":5479,"ñaawlu":5480,"sulli":5481,"caada":5482,"pexem":5483,"loraange":5484,"dunyaa":5485,"sóobe":5486,"jéego":5487,"mbaxane":5488,"keeñaa":5489,"bëggbëggu":5490,"xettli":5491,"xoromu":5492,"ŋaññi":5493,"kéwél":5494,"tisbaar":5495,"boroomug":5496,"umple":5497,"prési":5498,"juntuwaay":5499,"babilon":5500,"bël":5501,"dóom":5502,"gang":5503,"has":5504,"len":5505,"mbii":5506,"pre":5507,"pib":5508,"ration":5509,"xus":5510,"ooru":5511,"amam":5512,"anda":5513,"antoo":5514,"ance":5515,"bilik":5516,"mage":5517,"dawaanu":5518,"orãas":5519,"fasu":5520,"waxleen":5521,"guma":5522,"gurub":5523,"sine":5524,"fun":5525,"kasaw":5526,"radi":5527,"teeg":5528,"bëggé":5529,"addinaa":5530,"tegaat":5531,"maggug":5532,"fayal":5533,"ñakkum":5534,"lamu":5535,"tabe":5536,"ces":5537,"fattee":5538,"tërël":5539,"naqqar":5540,"noppam":5541,"penc":5542,"meram":5543,"merloo":5544,"jokkale":5545,"sabar":5546,"kurel":5547,"peeñu":5548,"kaalag":5549,"yaakaaru":5550,"goxgoxaat":5551,"sesteer":5552,"dr":5553,"elis":5554,"gaan":5555,"nti":5556,"peer":5557,"piis":5558,"raas":5559,"xit":5560,"aleek":5561,"naj":5562,"lare":5563,"biro":5564,"maq":5565,"baq":5566,"dawu":5567,"yunus":5568,"kukk":5569,"loolee":5570,"cais":5571,"tik":5572,"mandoo":5573,"manch":5574,"samaw":5575,"maalik":5576,"japon":5577,"óona":5578,"baas":5579,"kaggu":5580,"yeb":5581,"yef":5582,"xemes":5583,"ndigë":5584,"ndijoo":5585,"neem":5586,"tos":5587,"sëer":5588,"gandoo":5589,"bindukaay":5590,"faagaa":5591,"bakku":5592,"soxlaa":5593,"teddnga":5594,"tuddé":5595,"papp":5596,"yërël":5597,"soppeem":5598,"maddina":5599,"tannal":5600,"njaame":5601,"moomul":5602,"deretam":5603,"bette":5604,"jégglu":5605,"tho":5606,"nuyul":5607,"juróomñeentfukk":5608,"jéppi":5609,"dootuñu":5610,"toxu":5611,"wëndéelu":5612,"ñatteel":5613,"national":5614,"yitewoo":5615,"jëfëndikóo":5616,"ofisiye":5617,"xadiim":5618,"këyitu":5619,"dekkuwaay":5620,"drapeau":5621,"biddiw":5622,"sunguf":5623,"elisabet":5624,"manchester":5625,"ener":5626,"noom":5627,"xëpp":5628,"aah":5629,"alam":5630,"alan":5631,"ngóob":5632,"demul":5633,"macë":5634,"gile":5635,"nub":5636,"yub":5637,"juri":5638,"fabbi":5639,"jëfu":5640,"lew":5641,"oxor":5642,"fif":5643,"nguy":5644,"yaatoo":5645,"mëm":5646,"soq":5647,"yobb":5648,"suukër":5649,"ubbée":5650,"déggul":5651,"déggadi":5652,"wéq":5653,"ndawul":5654,"coté":5655,"addinay":5656,"bañaale":5657,"kaaba":5658,"xéewë":5659,"ñeenfukki":5660,"peinture":5661,"xarey":5662,"xëtt":5663,"cuune":5664,"chel":5665,"tawfeex":5666,"mbey":5667,"xiis":5668,"jëwrin":5669,"amaloon":5670,"farãa":5671,"puus":5672,"ligeeyal":5673,"basket":5674,"juróomñaarfukki":5675,"ngóora":5676,"soldaari":5677,"lonkoo":5678,"goornamaa":5679,"egliis":5680,"wuññiy":5681,"kaccoor":5682,"loppitaal":5683,"yëgyëgi":5684,"fam":5685,"góom":5686,"këpp":5687,"ome":5688,"rnd":5689,"téen":5690,"wak":5691,"ze":5692,"ãŋ":5693,"liber":5694,"jëmu":5695,"moone":5696,"moodu":5697,"siw":5698,"sidi":5699,"baak":5700,"boob":5701,"warnaa":5702,"meloy":5703,"doora":5704,"tooro":5705,"dëggi":5706,"jaajëf":5707,"toŋ":5708,"yong":5709,"jappoo":5710,"doxu":5711,"tëdde":5712,"wérë":5713,"lansaar":5714,"marron":5715,"siir":5716,"yónéntam":5717,"ñaax":5718,"moto":5719,"lawiir":5720,"kare":5721,"gétt":5722,"bunti":5723,"milyon":5724,"mbënn":5725,"cuun":5726,"taarub":5727,"jikky":5728,"anas":5729,"sakket":5730,"dimblé":5731,"nëx":5732,"bamu":5733,"maslaa":5734,"doxalee":5735,"shu":5736,"ruuam":5737,"seexi":5738,"jëndal":5739,"xarafal":5740,"kuréeli":5741,"teguwul":5742,"raññeeku":5743,"ekibu":5744,"dootuma":5745,"yoxoom":5746,"maandute":5747,"banqaasu":5748,"peresidaŋ":5749,"lammiñu":5750,"cëslaayu":5751,"kanadaa":5752,"ndeyjooram":5753,"jefandikoo":5754,"farataal":5755,"njaaxum":5756,"madagas":5757,"abi":5758,"pati":5759,"qam":5760,"sali":5761,"use":5762,"ét":5763,"aafi":5764,"alxemes":5765,"nati":5766,"nataali":5767,"dijj":5768,"lati":5769,"lawoon":5770,"mux":5771,"muni":5772,"murii":5773,"bum":5774,"lima":5775,"limaa":5776,"yiñ":5777,"lusi":5778,"demandoo":5779,"niñ":5780,"suñuy":5781,"suley":5782,"fagg":5783,"jëlaat":5784,"reds":5785,"rio":5786,"ribaa":5787,"sebe":5788,"festus":5789,"jafee":5790,"baamu":5791,"yeeg":5792,"yeewoo":5793,"kastor":5794,"doone":5795,"gafa":5796,"jomb":5797,"bokkee":5798,"saxee":5799,"yooy":5800,"diiŋ":5801,"xaam":5802,"jëmmu":5803,"doxee":5804,"tëy":5805,"jaaree":5806,"leeram":5807,"laajoon":5808,"pexeem":5809,"akim":5810,"doolerandu":5811,"sémb":5812,"xacc":5813,"wann":5814,"xanjar":5815,"dugalee":5816,"bëjsaalumu":5817,"baabakar":5818,"dikke":5819,"dogalub":5820,"jaamub":5821,"céri":5822,"campee":5823,"lori":5824,"xasaw":5825,"jaaxaan":5826,"toroxte":5827,"yaxantukat":5828,"burg":5829,"taalifkat":5830,"mënatul":5831,"dégloo":5832,"njureef":5833,"wëlbati":5834,"lammiñam":5835,"tanqam":5836,"nijaayam":5837,"kayif":5838,"komite":5839,"gunóor":5840,"lijaasa":5841,"sosete":5842,"kapiteen":5843,"faagaagal":5844,"népp":5845,"px":5846,"pale":5847,"qa":5848,"xiin":5849,"éy":5850,"mudoon":5851,"yitam":5852,"dekere":5853,"maŋ":5854,"tubaar":5855,"nib":5856,"xaman":5857,"kuman":5858,"cadolli":5859,"sapon":5860,"mansesteer":5861,"dëbb":5862,"uray":5863,"sunub":5864,"woowa":5865,"béjj":5866,"xareem":5867,"bayer":5868,"téerey":5869,"yëngatu":5870,"jëmsi":5871,"rob":5872,"takke":5873,"jotaayu":5874,"yéege":5875,"ñeenfukk":5876,"jógewul":5877,"rawgaddu":5878,"yëgoon":5879,"woru":5880,"dëgërël":5881,"tekkiwul":5882,"xaalisam":5883,"weesuwul":5884,"raxcadolli":5885,"cosaanam":5886,"mbégté":5887,"dellusiwaat":5888,"ther":5889,"ndankndank":5890,"mbóotum":5891,"jonjoo":5892,"tirki":5893,"koolute":5894,"uemoa":5895,"sidãa":5896,"addiisam":5897,"alxames":5898,"madagaskaar":5899,"akk":5900,"cati":5901,"déem":5902,"tóo":5903,"taksi":5904,"amaa":5905,"kkoo":5906,"tebbi":5907,"luma":5908,"bajj":5909,"sudaan":5910,"mit":5911,"allaterete":5912,"facc":5913,"fagaru":5914,"waxin":5915,"regg":5916,"gëpp":5917,"gall":5918,"galaas":5919,"taab":5920,"tooyal":5921,"yaale":5922,"sosi":5923,"seetaat":5924,"tanc":5925,"jaamoo":5926,"feer":5927,"bedd":5928,"kaayleen":5929,"andandoom":5930,"jëlleen":5931,"suufam":5932,"jém":5933,"mbuur":5934,"dañudaa":5935,"njëkkë":5936,"ceek":5937,"iskari":5938,"xoli":5939,"reyaal":5940,"naqadi":5941,"fatteliku":5942,"nég":5943,"méngale":5944,"diglé":5945,"goney":5946,"seddale":5947,"bakan":5948,"njugub":5949,"jéeri":5950,"raññale":5951,"deggoo":5952,"wuyyu":5953,"njariñam":5954,"kódiwaar":5955,"nasaraanalkat":5956,"wëlbëti":5957,"luubal":5958,"rangers":5959,"sénégala":5960,"macron":5961,"ndokkeel":5962,"njëlbéenug":5963,"dawud":5964,"thomas":5965,"fiftin":5966,"sebede":5967,"iskariyo":5968,"ddul":5969,"ly":5970,"otel":5971,"pri":5972,"pds":5973,"rr":5974,"xëm":5975,"éw":5976,"óróo":5977,"aax":5978,"ooy":5979,"amari":5980,"diwax":5981,"muse":5982,"lune":5983,"bad":5984,"tumb":5985,"gisam":5986,"ens":5987,"dat":5988,"dadoon":5989,"xamme":5990,"kudd":5991,"gumbë":5992,"silas":5993,"nekkatul":5994,"mandaa":5995,"fegg":5996,"jaŋ":5997,"fune":5998,"leelee":5999,"etaasi":6000,"kooy":6001,"yegle":6002,"yendoo":6003,"seem":6004,"wagul":6005,"mayleen":6006,"xaral":6007,"ndir":6008,"nataalam":6009,"feesal":6010,"bëtt":6011,"wecci":6012,"jiin":6013,"ñëpp":6014,"maggaay":6015,"fayyu":6016,"ñakkee":6017,"takkoon":6018,"potu":6019,"laajte":6020,"garet":6021,"xuu":6022,"feeñee":6023,"moytoo":6024,"yërë":6025,"boston":6026,"nanngu":6027,"féetale":6028,"cup":6029,"yanj":6030,"apolo":6031,"njangam":6032,"jaxaay":6033,"musël":6034,"guygéwél":6035,"fenk":6036,"jégglé":6037,"ngëmu":6038,"texeg":6039,"yóbbul":6040,"garabi":6041,"tekkaaral":6042,"awiril":6043,"lammiñi":6044,"booleek":6045,"publi":6046,"suturaal":6047,"suleymaan":6048,"kastorel":6049,"bayern":6050,"etaasini":6051,"his":6052,"iraa":6053,"km":6054,"tron":6055,"alhamdu":6056,"ande":6057,"dipite":6058,"bijj":6059,"ngato":6060,"deru":6061,"bawal":6062,"naatal":6063,"atam":6064,"waxuñu":6065,"lex":6066,"tinisi":6067,"wuru":6068,"simi":6069,"jimbu":6070,"jagle":6071,"angle":6072,"walle":6073,"gënee":6074,"geño":6075,"wooyee":6076,"wah":6077,"dëkkee":6078,"joxleen":6079,"meters":6080,"yëfu":6081,"yawmal":6082,"jëmmël":6083,"seneweb":6084,"neexu":6085,"barewul":6086,"daaldi":6087,"jëfëm":6088,"pecc":6089,"peppu":6090,"fukkeeli":6091,"géejug":6092,"manatu":6093,"hil":6094,"soxlawul":6095,"bismil":6096,"soril":6097,"ngoor":6098,"xaare":6099,"saraxu":6100,"sangoo":6101,"sinwaa":6102,"penaa":6103,"njangalem":6104,"jeek":6105,"juuyoo":6106,"futbalkatu":6107,"fenkat":6108,"seytu":6109,"juróombenneelu":6110,"leegleeg":6111,"juróomñeentfukki":6112,"poobar":6113,"ndimboy":6114,"njékk":6115,"méngook":6116,"bittim":6117,"madirit":6118,"araamal":6119,"xultu":6120,"xadar":6121,"tëyye":6122,"campeefi":6123,"gëpplante":6124,"br":6125,"colo":6126,"fc":6127,"fóot":6128,"gr":6129,"mãa":6130,"one":6131,"póo":6132,"peek":6133,"shi":6134,"wen":6135,"yaboo":6136,"ëttub":6137,"aak":6138,"alfa":6139,"nako":6140,"kkiir":6141,"lawal":6142,"ayca":6143,"lunu":6144,"basan":6145,"basii":6146,"ndul":6147,"tun":6148,"sunami":6149,"yum":6150,"yus":6151,"awril":6152,"kurus":6153,"iif":6154,"olaa":6155,"resil":6156,"laak":6157,"fuñ":6158,"fitu":6159,"teefi":6160,"daloo":6161,"koog":6162,"saat":6163,"saabu":6164,"saaafrig":6165,"jambu":6166,"sondeel":6167,"nattoo":6168,"liise":6169,"xewe":6170,"jaawale":6171,"kontaan":6172,"xaaxaam":6173,"feetale":6174,"bënn":6175,"bene":6176,"layyi":6177,"polis":6178,"bañkat":6179,"rafetul":6180,"yiir":6181,"tayit":6182,"aluñu":6183,"ynéntam":6184,"xobu":6185,"nduur":6186,"yëngutu":6187,"fom":6188,"manuñoo":6189,"mbëggeelu":6190,"chris":6191,"woroo":6192,"rambaa":6193,"surnaal":6194,"njaggat":6195,"toggal":6196,"bëccë":6197,"fëkk":6198,"seereel":6199,"dinndi":6200,"téeréb":6201,"kiliftéef":6202,"tuumal":6203,"ndonngo":6204,"kabbar":6205,"wegeel":6206,"digganteek":6207,"labbe":6208,"pourcent":6209,"wayjuram":6210,"gabri":6211,"akuw":6212,"gannaayoo":6213,"ngéej":6214,"jotagul":6215,"njuujnjaaj":6216,"bilikeen":6217,"ff":6218,"ig":6219,"tak":6220,"upp":6221,"vel":6222,"xor":6223,"nafa":6224,"naso":6225,"late":6226,"lawax":6227,"newul":6228,"tem":6229,"luxus":6230,"ndéem":6231,"ndeer":6232,"sune":6233,"xamb":6234,"xamlu":6235,"kudul":6236,"mbol":6237,"sasin":6238,"rew":6239,"repi":6240,"jibal":6241,"gëj":6242,"fett":6243,"maamaa":6244,"finaalu":6245,"bennoog":6246,"boru":6247,"ges":6248,"yere":6249,"damas":6250,"ëlëm":6251,"tannee":6252,"dott":6253,"ndigël":6254,"jaas":6255,"ganale":6256,"yëgul":6257,"doxub":6258,"taxawee":6259,"taxawaalu":6260,"sarii":6261,"lëmës":6262,"dello":6263,"jangkat":6264,"yégu":6265,"lekku":6266,"danaa":6267,"metiit":6268,"hima":6269,"jaral":6270,"juroombenn":6271,"dimbalante":6272,"ramad":6273,"mero":6274,"ngom":6275,"loolooy":6276,"réeral":6277,"séet":6278,"njukkal":6279,"yóbboo":6280,"yeggali":6281,"keppaar":6282,"gindiku":6283,"film":6284,"safaanub":6285,"sahara":6286,"njaatigeem":6287,"protes":6288,"sosug":6289,"ndekkitel":6290,"soññee":6291,"xajjale":6292,"lingeer":6293,"balluwaayu":6294,"maraakiis":6295,"fawwu":6296,"biddéew":6297,"alkande":6298,"président":6299,"enersi":6300,"béjjén":6301,"óróop":6302,"bru":6303,"eng":6304,"fak":6305,"hul":6306,"móol":6307,"ugan":6308,"labour":6309,"nek":6310,"muwax":6311,"nikale":6312,"supp":6313,"ataaya":6314,"iil":6315,"mbaaru":6316,"tibb":6317,"wune":6318,"wuta":6319,"sigaret":6320,"taŋ":6321,"mankoo":6322,"jafune":6323,"baag":6324,"njaal":6325,"gisoppi":6326,"fila":6327,"talee":6328,"daana":6329,"taakon":6330,"dénga":6331,"wacci":6332,"mengoo":6333,"aliyu":6334,"téek":6335,"woyu":6336,"senegal":6337,"doxul":6338,"jëléef":6339,"juróomeelu":6340,"ñakkoon":6341,"salo":6342,"salfaa":6343,"nootaange":6344,"kaafu":6345,"mbugë":6346,"rabbu":6347,"nonu":6348,"taanee":6349,"boli":6350,"wuutal":6351,"jaaykati":6352,"him":6353,"fondam":6354,"nëb":6355,"nële":6356,"cammo":6357,"dëppale":6358,"ñoŋ":6359,"tukkikat":6360,"yelaa":6361,"juddug":6362,"beral":6363,"taggatyaram":6364,"bareebare":6365,"yaqute":6366,"woyofal":6367,"wommatukaay":6368,"melokaanam":6369,"bintu":6370,"lëkkël":6371,"teggil":6372,"xeltukat":6373,"barabas":6374,"gëmuñu":6375,"gëmuleen":6376,"eggee":6377,"brexit":6378,"jakkarloo":6379,"ndogalu":6380,"ryder":6381,"dóomutaal":6382,"kéedugu":6383,"foytéef":6384,"santimet":6385,"callala":6386,"euro":6387,"gabriyelaa":6388,"nasonaal":6389,"nikaleyeer":6390,"jëléefna":6391,"coxor":6392,"dc":6393,"gram":6394,"my":6395,"male":6396,"qib":6397,"van":6398,"vin":6399,"yya":6400,"ñeek":6401,"nasi":6402,"bim":6403,"ngén":6404,"muranke":6405,"deram":6406,"dereet":6407,"tube":6408,"tumuranke":6409,"aara":6410,"faddu":6411,"situ":6412,"sibbi":6413,"risi":6414,"rimé":6415,"jin":6416,"gëwée":6417,"manuñu":6418,"yappu":6419,"fin":6420,"dinay":6421,"dëxë":6422,"bokkuma":6423,"mësu":6424,"gejj":6425,"yemu":6426,"yemoo":6427,"natan":6428,"xepp":6429,"deesi":6430,"wasin":6431,"tanne":6432,"jaag":6433,"bayaal":6434,"sëtam":6435,"dundaat":6436,"feete":6437,"bësu":6438,"kërëm":6439,"gaana":6440,"tëri":6441,"juróomñetteelu":6442,"rees":6443,"lëkkal":6444,"beef":6445,"bantu":6446,"léet":6447,"jalu":6448,"yare":6449,"rëq":6450,"yónne":6451,"mujjantal":6452,"sédde":6453,"tablo":6454,"rabbi":6455,"këbóoy":6456,"tasaw":6457,"soppali":6458,"ruslu":6459,"mettital":6460,"nammeel":6461,"fowukaay":6462,"taarale":6463,"mbëggée":6464,"ndajeem":6465,"jegeñaale":6466,"noppal":6467,"gaawtu":6468,"mbébé":6469,"cammiñ":6470,"taqook":6471,"saytukat":6472,"watara":6473,"danay":6474,"dogale":6475,"yeesalaat":6476,"juróombennfukki":6477,"ponki":6478,"buumi":6479,"péey":6480,"salaamu":6481,"sikkim":6482,"kawaram":6483,"korent":6484,"tukkloor":6485,"ndeyjooru":6486,"fatig":6487,"baadoolo":6488,"chaise":6489,"sakariya":6490,"jegeñsi":6491,"facebook":6492,"tambaaku":6493,"kelefaa":6494,"diiŋat":6495,"xamantane":6496,"protestant":6497,"salonig":6498,"sibbiru":6499,"balla":6500,"dand":6501,"doro":6502,"ef":6503,"faan":6504,"geel":6505,"hor":6506,"isi":6507,"moro":6508,"qal":6509,"yer":6510,"yolo":6511,"ór":6512,"ŋoy":6513,"aajoom":6514,"alaan":6515,"nad":6516,"laxa":6517,"koñu":6518,"bash":6519,"gindee":6520,"numa":6521,"suj":6522,"suye":6523,"dagana":6524,"naanaa":6525,"loos":6526,"cahi":6527,"gue":6528,"gug":6529,"lef":6530,"wuloo":6531,"sefas":6532,"teeli":6533,"saafoon":6534,"yengal":6535,"ado":6536,"jey":6537,"doyu":6538,"xarab":6539,"mexi":6540,"téefu":6541,"xelli":6542,"woññiku":6543,"darajaam":6544,"mënta":6545,"déggu":6546,"wéttali":6547,"langi":6548,"gëmleen":6549,"toppaat":6550,"rëddu":6551,"jénd":6552,"goñ":6553,"gongi":6554,"saytoo":6555,"ñaat":6556,"dankaafu":6557,"foor":6558,"foofee":6559,"génnée":6560,"xawoon":6561,"doomuaadama":6562,"mission":6563,"soppoon":6564,"yënguy":6565,"raye":6566,"char":6567,"dimbalee":6568,"mask":6569,"sanniy":6570,"entale":6571,"péncu":6572,"mbëjbijjaakon":6573,"taqalikoo":6574,"tangaay":6575,"gënatee":6576,"penkug":6577,"gëlëm":6578,"dawalkatu":6579,"sorewul":6580,"soppeb":6581,"aten":6582,"munnañu":6583,"mbaamxuux":6584,"ligéeyël":6585,"jambaare":6586,"wéetaay":6587,"weccoo":6588,"njégg":6589,"minist":6590,"pattali":6591,"móto":6592,"daganal":6593,"ngérum":6594,"afrique":6595,"cerno":6596,"moonte":6597,"sëlmu":6598,"sëlmël":6599,"biritaañ":6600,"celsi":6601,"gregor":6602,"dencukaay":6603,"mbañeel":6604,"uhun":6605,"comprimé":6606,"keyta":6607,"republik":6608,"tanqamlu":6609,"ugandaa":6610,"blu":6611,"cri":6612,"fóor":6613,"hat":6614,"indonesi":6615,"taayu":6616,"xaddi":6617,"eefi":6618,"amnañu":6619,"amagul":6620,"cis":6621,"nafar":6622,"bitig":6623,"tesalonig":6624,"mudaa":6625,"akat":6626,"bulo":6627,"luther":6628,"gisi":6629,"suñ":6630,"june":6631,"atle":6632,"xamlee":6633,"faje":6634,"faŋŋ":6635,"leente":6636,"jënu":6637,"jëmë":6638,"sik":6639,"real":6640,"seg":6641,"seng":6642,"waasi":6643,"laanu":6644,"laaje":6645,"njor":6646,"baraada":6647,"wile":6648,"gacc":6649,"gaññ":6650,"jotaat":6651,"taani":6652,"déjj":6653,"yaamam":6654,"yeboo":6655,"jamaa":6656,"mbisaan":6657,"xecc":6658,"wootee":6659,"bési":6660,"dogoo":6661,"bindee":6662,"jóox":6663,"wéyoon":6664,"ketu":6665,"cour":6666,"barele":6667,"réseñ":6668,"askanoo":6669,"dani":6670,"nanguwuñu":6671,"kiliyaan":6672,"xallal":6673,"internet":6674,"rawe":6675,"jullig":6676,"néegub":6677,"jaaykatu":6678,"woyam":6679,"wóoral":6680,"sakke":6681,"dimblante":6682,"mbeddi":6683,"naari":6684,"njaag":6685,"daggate":6686,"négan":6687,"koppari":6688,"xamlena":6689,"doxalinam":6690,"taqal":6691,"vertes":6692,"sabbaal":6693,"sonnal":6694,"mbëggeelam":6695,"fattalikuleen":6696,"fonkoon":6697,"xiirtalu":6698,"dakkentale":6699,"xarañteef":6700,"marigabriyelaa":6701,"iraan":6702,"aguñu":6703,"cammooñam":6704,"euh":6705,"péeyub":6706,"xabaar":6707,"ñaarelu":6708,"kulóor":6709,"mbambulaanug":6710,"elektron":6711,"wisaare":6712,"marsandiis":6713,"sinemaa":6714,"gafag":6715,"bc":6716,"caay":6717,"cation":6718,"dro":6719,"eru":6720,"hd":6721,"kame":6722,"ktoor":6723,"stin":6724,"thi":6725,"ute":6726,"ves":6727,"ërun":6728,"ŋu":6729,"ngam":6730,"ngoy":6731,"tegul":6732,"mut":6733,"mujug":6734,"buru":6735,"luye":6736,"deñuy":6737,"matee":6738,"gisa":6739,"dug":6740,"duusi":6741,"enne":6742,"daba":6743,"waxak":6744,"guléet":6745,"lemu":6746,"siddi":6747,"sidon":6748,"oll":6749,"nekkuma":6750,"kil":6751,"setee":6752,"fesëer":6753,"maami":6754,"baawaan":6755,"laaji":6756,"laajal":6757,"barax":6758,"futti":6759,"gisal":6760,"dëdd":6761,"asaa":6762,"astu":6763,"jotul":6764,"saaña":6765,"arah":6766,"gënël":6767,"yaangi":6768,"yaatar":6769,"mëx":6770,"ñaqu":6771,"seedee":6772,"wakkiir":6773,"dëkkë":6774,"jekku":6775,"doŋ":6776,"medina":6777,"yob":6778,"biirëm":6779,"xellu":6780,"doxi":6781,"doxoon":6782,"doxinu":6783,"keccax":6784,"rose":6785,"saret":6786,"beey":6787,"jamonoo":6788,"pedia":6789,"lekkul":6790,"meelu":6791,"mettee":6792,"tarxiis":6793,"moykat":6794,"ceae":6795,"tasoon":6796,"déegu":6797,"fowe":6798,"manunu":6799,"noppu":6800,"alah":6801,"mbalit":6802,"donal":6803,"kami":6804,"kamërun":6805,"xayug":6806,"léy":6807,"milyaari":6808,"njubte":6809,"haz":6810,"seral":6811,"jaxasook":6812,"dundinu":6813,"egsi":6814,"niroole":6815,"woroomi":6816,"tanqal":6817,"tóx":6818,"waccuwaay":6819,"bokkaalekat":6820,"univer":6821,"holand":6822,"ndemsi":6823,"ndénkaan":6824,"imbraatoor":6825,"tifli":6826,"crevet":6827,"jimbulang":6828,"rambaaj":6829,"cahier":6830,"bãŋ":6831,"cokk":6832,"coy":6833,"free":6834,"gra":6835,"ilimaan":6836,"keen":6837,"qq":6838,"qan":6839,"rati":6840,"sch":6841,"tri":6842,"uw":6843,"ood":6844,"nav":6845,"bisoppi":6846,"ngalu":6847,"kot":6848,"muam":6849,"ñug":6850,"butéel":6851,"limoŋ":6852,"luwis":6853,"masaan":6854,"ndamul":6855,"duppee":6856,"mile":6857,"iina":6858,"iimi":6859,"fadd":6860,"wuj":6861,"defna":6862,"defloo":6863,"rie":6864,"ritani":6865,"moomit":6866,"leere":6867,"dalul":6868,"bëgguñu":6869,"kooka":6870,"daane":6871,"daajaale":6872,"taafan":6873,"tooke":6874,"mbindi":6875,"ëlëg":6876,"dëkkandoom":6877,"aliw":6878,"sëng":6879,"dundee":6880,"feem":6881,"gaalu":6882,"ñëwe":6883,"ñëwaat":6884,"njiitam":6885,"fayu":6886,"robi":6887,"lën":6888,"ñakkug":6889,"coggal":6890,"jangul":6891,"yitteem":6892,"jotna":6893,"yéefar":6894,"lami":6895,"nuyyu":6896,"génnleen":6897,"yaggee":6898,"rabbe":6899,"ynni":6900,"islaam":6901,"dajji":6902,"karaa":6903,"parlam":6904,"rusloo":6905,"mënuloo":6906,"féek":6907,"cumbur":6908,"fattalikoo":6909,"muslu":6910,"tambale":6911,"raxa":6912,"guddaayam":6913,"porto":6914,"diwlin":6915,"fës":6916,"carre":6917,"ñorul":6918,"péex":6919,"caytug":6920,"muusaa":6921,"ëndil":6922,"bëggbëggam":6923,"dakar":6924,"kilometers":6925,"baamtu":6926,"ndabb":6927,"nappkat":6928,"yenguyengu":6929,"stein":6930,"naataangoom":6931,"sëqët":6932,"daraapóo":6933,"baadoola":6934,"nërm":6935,"jiggéen":6936,"curr":6937,"lonkoyoonu":6938,"gafakag":6939,"pencum":6940,"ramadaan":6941,"tambaakundaa":6942,"gongiku":6943,"ai":6944,"age":6945,"anañ":6946,"em":6947,"fax":6948,"hay":6949,"jkat":6950,"ob":6951,"plo":6952,"yatti":6953,"éle":6954,"alji":6955,"albat":6956,"alfur":6957,"nais":6958,"anna":6959,"digë":6960,"munekk":6961,"magum":6962,"mabba":6963,"niw":6964,"gil":6965,"yuda":6966,"orãs":6967,"xamam":6968,"xamatul":6969,"kuli":6970,"kuddu":6971,"leyem":6972,"tinu":6973,"aanam":6974,"siwo":6975,"elle":6976,"nekkuñu":6977,"gëtam":6978,"selaw":6979,"yeef":6980,"laaju":6981,"laaha":6982,"ddee":6983,"njara":6984,"biiri":6985,"gisati":6986,"fik":6987,"kadeer":6988,"dinan":6989,"widé":6990,"teet":6991,"teemeeri":6992,"dalli":6993,"ural":6994,"joy":6995,"kanja":6996,"tooge":6997,"xewi":6998,"wooteem":6999,"tandiku":7000,"jegeel":7001,"meru":7002,"fanaane":7003,"tegle":7004,"gannar":7005,"téefi":7006,"aris":7007,"doxiin":7008,"nden":7009,"mënal":7010,"rongo":7011,"daanee":7012,"janeer":7013,"soowu":7014,"soose":7015,"yoro":7016,"pikiir":7017,"jëflan":7018,"peyu":7019,"matsa":7020,"lekkee":7021,"lekkandoo":7022,"dank":7023,"jeexee":7024,"googa":7025,"sélim":7026,"seetloo":7027,"gannaawsi":7028,"yalwaan":7029,"xareful":7030,"xeexe":7031,"anamu":7032,"baaraamu":7033,"nama":7034,"jargoñ":7035,"daqee":7036,"wóoradi":7037,"kero":7038,"cuub":7039,"dëgërlu":7040,"raayab":7041,"sukkëndi":7042,"caabal":7043,"yuuxoo":7044,"médd":7045,"méngal":7046,"ahlu":7047,"juddoom":7048,"setlu":7049,"wëñ":7050,"taxawaloon":7051,"yaatuwaay":7052,"guddee":7053,"judduwaat":7054,"betleyem":7055,"séddaliku":7056,"roos":7057,"root":7058,"bert":7059,"sañul":7060,"yeggee":7061,"gatandu":7062,"bammeelam":7063,"wuutuloxo":7064,"niral":7065,"yékkatiku":7066,"tolluwaayam":7067,"xarekatam":7068,"yoxoy":7069,"laqatu":7070,"demok":7071,"jëfin":7072,"banqaasi":7073,"saken":7074,"yooryoor":7075,"news":7076,"nóoyin":7077,"ñemewu":7078,"ibraahima":7079,"kuuy":7080,"krist":7081,"ecen":7082,"télépho":7083,"addinaam":7084,"muxtaar":7085,"bajjen":7086,"sujóot":7087,"mexico":7088,"anañas":7089,"alfurqan":7090,"air":7091,"cca":7092,"etu":7093,"gari":7094,"gent":7095,"góol":7096,"indee":7097,"lalal":7098,"md":7099,"non":7100,"pol":7101,"tóok":7102,"ven":7103,"alaraf":7104,"alhaaji":7105,"nawe":7106,"dit":7107,"ngël":7108,"tex":7109,"tembe":7110,"kote":7111,"koman":7112,"kodd":7113,"libé":7114,"demu":7115,"desul":7116,"bag":7117,"baj":7118,"bajjan":7119,"ndaam":7120,"nik":7121,"gisatu":7122,"duni":7123,"dabu":7124,"attey":7125,"ora":7126,"fasam":7127,"mbeex":7128,"loolii":7129,"cakk":7130,"wuyoo":7131,"defkati":7132,"jinax":7133,"seenum":7134,"mang":7135,"manóo":7136,"manke":7137,"manoona":7138,"kib":7139,"sammi":7140,"sea":7141,"sep":7142,"waas":7143,"waaji":7144,"maag":7145,"aley":7146,"barma":7147,"fis":7148,"fileek":7149,"ñaartéeméeri":7150,"dëgë":7151,"talli":7152,"dalub":7153,"bëggée":7154,"joyal":7155,"saafar":7156,"kandi":7157,"sob":7158,"mbisin":7159,"xef":7160,"ndiku":7161,"yoot":7162,"menu":7163,"xaati":7164,"yos":7165,"sance":7166,"bëtub":7167,"jiité":7168,"xeebu":7169,"tëŋ":7170,"faas":7171,"toppu":7172,"yitteel":7173,"yarub":7174,"ibra":7175,"sooke":7176,"yoree":7177,"uton":7178,"nooyal":7179,"pikin":7180,"martin":7181,"ñaanleen":7182,"lou":7183,"yónnent":7184,"peggu":7185,"tayyeel":7186,"defarkatu":7187,"mott":7188,"xeexub":7189,"sonnoon":7190,"cemp":7191,"lakkal":7192,"mbasum":7193,"doye":7194,"doyna":7195,"ñamu":7196,"darab":7197,"yaxan":7198,"daqal":7199,"sammon":7200,"saraxalukaay":7201,"dimbli":7202,"ilyaas":7203,"dikkée":7204,"njëriñ":7205,"tooñkat":7206,"jawriñu":7207,"sóol":7208,"ving":7209,"lëndë":7210,"xatxat":7211,"taggatkatu":7212,"moytuwul":7213,"soriwul":7214,"dawalkat":7215,"masumaa":7216,"jeexiitalu":7217,"safaanoo":7218,"kókk":7219,"ndeene":7220,"pettaaw":7221,"wottuleen":7222,"ndimbël":7223,"siyaaresi":7224,"móritani":7225,"deefna":7226,"machi":7227,"covidbi":7228,"kayiti":7229,"mbambulaanu":7230,"sandarm":7231,"wuutale":7232,"esteban":7233,"palais":7234,"bëlë":7235,"maamaati":7236,"nataneel":7237,"wakkiirlu":7238,"ndemsiyalla":7239,"tóokóor":7240,"cham":7241,"ekk":7242,"eduwaar":7243,"fbi":7244,"fër":7245,"nte":7246,"pam":7247,"pla":7248,"put":7249,"wëgg":7250,"wiin":7251,"waksi":7252,"alli":7253,"kke":7254,"bitu":7255,"newu":7256,"konaa":7257,"koddu":7258,"mumana":7259,"akayi":7260,"limi":7261,"dendak":7262,"ndóo":7263,"nie":7264,"nitug":7265,"nimero":7266,"gie":7267,"atlan":7268,"fajoo":7269,"waxees":7270,"wub":7271,"wun":7272,"sie":7273,"sipar":7274,"reseñ":7275,"restor":7276,"nekkatu":7277,"gëmadi":7278,"itte":7279,"setam":7280,"fegu":7281,"waajuri":7282,"baatin":7283,"laalul":7284,"laajaat":7285,"njoo":7286,"furi":7287,"rai":7288,"teewee":7289,"dali":7290,"dallam":7291,"joante":7292,"saasu":7293,"saabal":7294,"yaaxam":7295,"yetu":7296,"saxleen":7297,"nattal":7298,"seedes":7299,"ganjaru":7300,"santar":7301,"yëgee":7302,"weti":7303,"jappante":7304,"doxin":7305,"juróomñaareelu":7306,"rocci":7307,"reere":7308,"lëg":7309,"mbaaxam":7310,"bayyiloo":7311,"jubloo":7312,"diggdóomu":7313,"mbirëm":7314,"laajante":7315,"peter":7316,"mbuu":7317,"fukkeel":7318,"garaafi":7319,"sayda":7320,"miim":7321,"kilifaam":7322,"inke":7323,"yallaay":7324,"ques":7325,"aluma":7326,"sañoon":7327,"néegi":7328,"cey":7329,"xot":7330,"coowal":7331,"doomiaadama":7332,"wertë":7333,"rammu":7334,"fatteli":7335,"ndigalul":7336,"mbayum":7337,"taqoo":7338,"riis":7339,"jugoon":7340,"jawwi":7341,"banneexi":7342,"betsayda":7343,"wotekat":7344,"habii":7345,"kuréli":7346,"jéey":7347,"pital":7348,"port":7349,"jalooreem":7350,"sunnaam":7351,"masuma":7352,"waruta":7353,"burki":7354,"dakkan":7355,"mendi":7356,"dëppoowul":7357,"wommatal":7358,"móodumóodu":7359,"maris":7360,"metitlu":7361,"jollee":7362,"teraangay":7363,"ziz":7364,"wottukat":7365,"rahiimi":7366,"féewale":7367,"kalaas":7368,"faaydaal":7369,"korney":7370,"pompe":7371,"faalewul":7372,"bisaawo":7373,"laŋket":7374,"comme":7375,"janglekat":7376,"maseduwaan":7377,"lëkkalekaay":7378,"tegaloo":7379,"jakkarlook":7380,"halay":7381,"sóoraale":7382,"cafka":7383,"alluwa":7384,"nettalib":7385,"senateer":7386,"wikipedia":7387,"ndëgërlu":7388,"bilisite":7389,"premi":7390,"caisse":7391,"wérëdi":7392,"apolos":7393,"grand":7394,"sariiya":7395,"salfaañe":7396,"cammoñ":7397,"tasawuf":7398,"dorog":7399,"gel":7400,"keer":7401,"nji":7402,"omi":7403,"pel":7404,"paf":7405,"ral":7406,"sde":7407,"sari":7408,"sco":7409,"toppi":7410,"vil":7411,"xer":7412,"aaŋ":7413,"oomu":7414,"oolu":7415,"eekoo":7416,"alma":7417,"nasax":7418,"naree":7419,"napoli":7420,"disee":7421,"ngar":7422,"nemm":7423,"kongo":7424,"mub":7425,"lus":7426,"luqi":7427,"naali":7428,"miku":7429,"micro":7430,"atta":7431,"awaay":7432,"fasoŋ":7433,"till":7434,"aaleel":7435,"refe":7436,"defkatu":7437,"tasee":7438,"taire":7439,"ñiŋ":7440,"feder":7441,"waame":7442,"jafan":7443,"baatukaay":7444,"njar":7445,"njol":7446,"gisiinu":7447,"wiccax":7448,"rakki":7449,"teeñ":7450,"dalam":7451,"bëggoona":7452,"astin":7453,"jurom":7454,"taabul":7455,"dékk":7456,"sof":7457,"tamsiir":7458,"balle":7459,"dëggël":7460,"xebaaru":7461,"deesul":7462,"rekka":7463,"dëkkal":7464,"maysa":7465,"bérabu":7466,"mecce":7467,"feelu":7468,"yoni":7469,"bëmëx":7470,"jëmoon":7471,"wedam":7472,"woteel":7473,"jëlsi":7474,"fayeeku":7475,"génnul":7476,"wérul":7477,"kes":7478,"robo":7479,"beeco":7480,"leerale":7481,"muccu":7482,"ginnaw":7483,"dollil":7484,"siiñ":7485,"jéyya":7486,"garan":7487,"tiiñal":7488,"foot":7489,"kiin":7490,"wanq":7491,"xewxewu":7492,"hir":7493,"namaab":7494,"fomm":7495,"pastéef":7496,"waxtaanam":7497,"soxnas":7498,"raasi":7499,"denk":7500,"jooytu":7501,"ñow":7502,"lore":7503,"verre":7504,"futbalu":7505,"kopparu":7506,"mandargaam":7507,"vie":7508,"kuréelug":7509,"payug":7510,"hopital":7511,"masuta":7512,"sekkare":7513,"qalikoo":7514,"mënatu":7515,"rahmaa":7516,"kafrin":7517,"tukkeem":7518,"tëlé":7519,"yett":7520,"feddli":7521,"addiya":7522,"rosali":7523,"hiima":7524,"tefesug":7525,"kéemaane":7526,"azzu":7527,"toppekat":7528,"yóotu":7529,"faramfa":7530,"rangooñ":7531,"libidoor":7532,"wëlbëtiku":7533,"bëccëgu":7534,"mbugëlum":7535,"boliwi":7536,"universi":7537,"azzuhd":7538,"bbee":7539,"brë":7540,"cs":7541,"cul":7542,"folli":7543,"foro":7544,"jén":7545,"jaboo":7546,"osi":7547,"palin":7548,"ttal":7549,"toy":7550,"usa":7551,"well":7552,"yy":7553,"ão":7554,"éco":7555,"digi":7556,"ngeena":7557,"aras":7558,"kojug":7559,"mud":7560,"mudef":7561,"ayero":7562,"bundu":7563,"lun":7564,"ental":7565,"dawe":7566,"danañ":7567,"kubu":7568,"iiru":7569,"catu":7570,"tique":7571,"tiyaatar":7572,"siléy":7573,"safar":7574,"gës":7575,"gëlé":7576,"gëléem":7577,"ruy":7578,"ruut":7579,"moomoon":7580,"waate":7581,"maamu":7582,"jagal":7583,"barsaq":7584,"fus":7585,"asiis":7586,"daad":7587,"daagu":7588,"jomaay":7589,"boram":7590,"bokkmoomeel":7591,"anter":7592,"jamu":7593,"tambar":7594,"boppi":7595,"jean":7596,"jebbi":7597,"neer":7598,"baaxoon":7599,"jaayi":7600,"sëriñu":7601,"yope":7602,"sangub":7603,"téelu":7604,"bëyit":7605,"jiitoo":7606,"bindkati":7607,"njiiteefu":7608,"déggée":7609,"génnaat":7610,"kembaar":7611,"rosa":7612,"reeru":7613,"nanuy":7614,"lanket":7615,"janool":7616,"takkoo":7617,"nton":7618,"yéegé":7619,"yorinu":7620,"noos":7621,"jéngu":7622,"kaarange":7623,"gos":7624,"geer":7625,"xalaatoon":7626,"xalaatkat":7627,"xasi":7628,"wayadi":7629,"tarii":7630,"tarbiya":7631,"solos":7632,"njëkke":7633,"taggale":7634,"terale":7635,"xottu":7636,"parloo":7637,"baara":7638,"yambaa":7639,"yëngug":7640,"estaat":7641,"sammal":7642,"taaroo":7643,"taaram":7644,"mbokkoo":7645,"jikkom":7646,"wonk":7647,"gennwallu":7648,"ndoddu":7649,"ramu":7650,"njangle":7651,"tannoon":7652,"sannil":7653,"camm":7654,"ëllëk":7655,"péncoo":7656,"torlu":7657,"torche":7658,"bégleen":7659,"ajja":7660,"séenu":7661,"jawrin":7662,"vic":7663,"vienne":7664,"jokkalante":7665,"póol":7666,"sancoom":7667,"allaaji":7668,"féetewoo":7669,"kaaraangeg":7670,"coonoom":7671,"yërëmé":7672,"xutba":7673,"njéeréer":7674,"waruñoo":7675,"serv":7676,"yabbi":7677,"sellam":7678,"gaddaaye":7679,"sowujant":7680,"yilifoon":7681,"ndayam":7682,"rahmaan":7683,"kaalawoo":7684,"qatal":7685,"méngoowul":7686,"brett":7687,"bënti":7688,"jankoonteel":7689,"deppaas":7690,"yahood":7691,"ordinatée":7692,"faatiya":7693,"ddat":7694,"sofiet":7695,"yewwi":7696,"mbëjfeppal":7697,"kureelug":7698,"ndimmbal":7699,"nuróol":7700,"ndigëlul":7701,"ndijooram":7702,"muriid":7703,"resilta":7704,"tanneefu":7705,"laxasu":7706,"gregori":7707,"donald":7708,"carreaux":7709,"sukkëndiku":7710,"kandidaa":7711,"kókkali":7712,"añu":7713,"coro":7714,"dy":7715,"faar":7716,"fcfa":7717,"góolu":7718,"kma":7719,"kéew":7720,"mée":7721,"uy":7722,"wëpp":7723,"eeti":7724,"amadu":7725,"dise":7726,"lawe":7727,"bitéy":7728,"neko":7729,"texee":7730,"kok":7731,"akay":7732,"bus":7733,"buma":7734,"lile":7735,"libe":7736,"demug":7737,"batu":7738,"tupp":7739,"gindée":7740,"nuur":7741,"oris":7742,"mbel":7743,"cadd":7744,"tipp":7745,"rido":7746,"manta":7747,"samam":7748,"ruwan":7749,"feq":7750,"taxañ":7751,"gala":7752,"raj":7753,"benneelu":7754,"saane":7755,"tooli":7756,"toogandoo":7757,"yemb":7758,"jamñaa":7759,"sou":7760,"sodom":7761,"seereer":7762,"xejj":7763,"melul":7764,"diigal":7765,"alist":7766,"yoqat":7767,"sandarma":7768,"wesar":7769,"jappleen":7770,"maggaayu":7771,"naanal":7772,"ndeyi":7773,"mënoo":7774,"taxawaayam":7775,"léppam":7776,"wéradi":7777,"niis":7778,"kanamug":7779,"costu":7780,"lanc":7781,"ibrë":7782,"yéegal":7783,"yégg":7784,"maryaamam":7785,"duggoon":7786,"duggul":7787,"ëpple":7788,"yónnée":7789,"matoon":7790,"ñaani":7791,"rafetaay":7792,"mees":7793,"xunti":7794,"xaq":7795,"tabbee":7796,"feeñalal":7797,"paul":7798,"kaye":7799,"ceer":7800,"anamug":7801,"këti":7802,"hip":7803,"mënumaa":7804,"fata":7805,"rayn":7806,"pasar":7807,"paspa":7808,"jiituji":7809,"naqq":7810,"wori":7811,"ndodd":7812,"falee":7813,"tabaxe":7814,"feesak":7815,"jógleen":7816,"dénkoon":7817,"jeewo":7818,"joŋantey":7819,"ñoddi":7820,"lempi":7821,"laalee":7822,"xaste":7823,"guddeek":7824,"vir":7825,"jokkook":7826,"sosoon":7827,"randal":7828,"séytaane":7829,"jëfekaay":7830,"buux":7831,"coppiteg":7832,"jeexiiti":7833,"yallaak":7834,"laqoo":7835,"saaliw":7836,"ngërëmam":7837,"njéggal":7838,"sãri":7839,"bëggunu":7840,"politigu":7841,"baaraamam":7842,"matadi":7843,"yënguyënguy":7844,"lillaahi":7845,"imran":7846,"goxgoxaan":7847,"dóox":7848,"munuñu":7849,"alasaan":7850,"takkandeer":7851,"ndiiwaan":7852,"misaale":7853,"yelleefu":7854,"penaatii":7855,"basiiru":7856,"négandiku":7857,"kamerun":7858,"parlamaa":7859,"albatros":7860,"kulibali":7861,"widéwoo":7862,"xarefulwoon":7863,"rahmaanir":7864,"faramfacce":7865,"ruwandaa":7866,"jamñaajo":7867,"costume":7868,"cëpp":7869,"dre":7870,"fopp":7871,"fleur":7872,"ix":7873,"iy":7874,"iya":7875,"ogo":7876,"olempi":7877,"taaya":7878,"torop":7879,"wóon":7880,"xël":7881,"eew":7882,"aleel":7883,"amale":7884,"amtee":7885,"lag":7886,"ngaam":7887,"ngeer":7888,"teku":7889,"tekkee":7890,"koŋ":7891,"ñurum":7892,"éefi":7893,"liv":7894,"batale":7895,"tut":7896,"niit":7897,"niya":7898,"gini":7899,"nuk":7900,"numu":7901,"dum":7902,"duuf":7903,"duun":7904,"ence":7905,"yudd":7906,"mina":7907,"allah":7908,"kus":7909,"kuran":7910,"iii":7911,"iini":7912,"caga":7913,"lewon":7914,"siyon":7915,"elson":7916,"regle":7917,"defuñu":7918,"tafu":7919,"taseek":7920,"jibi":7921,"jibe":7922,"gëñ":7923,"feg":7924,"fem":7925,"fet":7926,"felig":7927,"waali":7928,"waaxu":7929,"maatam":7930,"jaga":7931,"barsal":7932,"nité":7933,"radio":7934,"ñaartéeméer":7935,"doonee":7936,"ette":7937,"teeree":7938,"jurbel":7939,"daas":7940,"daawuñu":7941,"saab":7942,"walug":7943,"gënale":7944,"tooñu":7945,"gene":7946,"saxoon":7947,"soj":7948,"socc":7949,"tamar":7950,"deewul":7951,"wagg":7952,"santaanee":7953,"ñëwul":7954,"fekku":7955,"taxawoo":7956,"sarxe":7957,"sarwii":7958,"waawaw":7959,"lëngoo":7960,"ñakkal":7961,"faawu":7962,"tollee":7963,"jubb":7964,"jubbënti":7965,"takkee":7966,"yittey":7967,"deltu":7968,"yoreel":7969,"yorin":7970,"duggaat":7971,"siife":7972,"tayle":7973,"bésniki":7974,"kiimaan":7975,"waypólotig":7976,"ngela":7977,"quo":7978,"xëyee":7979,"bou":7980,"karaama":7981,"miskiin":7982,"laltaay":7983,"teralal":7984,"boolewuñu":7985,"mënuleen":7986,"tëraloon":7987,"juroomñaari":7988,"teersi":7989,"illal":7990,"bambara":7991,"morso":7992,"yaqqu":7993,"jaxu":7994,"shay":7995,"dëppóok":7996,"liggéeyub":7997,"futbalkati":7998,"séeni":7999,"yéenekaayu":8000,"naqaru":8001,"bërét":8002,"xaraful":8003,"jaglee":8004,"wirdu":8005,"dencoon":8006,"monjaal":8007,"feyyu":8008,"kurélug":8009,"cofeelam":8010,"sampoon":8011,"sooninke":8012,"fattli":8013,"tuuroo":8014,"kollëre":8015,"ekipu":8016,"peese":8017,"séqq":8018,"ndabam":8019,"maxtaar":8020,"jolaa":8021,"petr":8022,"xëyna":8023,"foogoon":8024,"musóoroo":8025,"andeek":8026,"siggil":8027,"tembte":8028,"nemmiku":8029,"wuyuji":8030,"sammoonte":8031,"jëfëndikoo":8032,"kallaf":8033,"depparte":8034,"mbubbum":8035,"tiitaru":8036,"metitu":8037,"jéllale":8038,"lótt":8039,"kalidu":8040,"dëgmal":8041,"cuuj":8042,"qiima":8043,"youtube":8044,"fondamaa":8045,"vingston":8046,"diseene":8047,"referan":8048,"naqqari":8049,"feligsë":8050,"cli":8051,"copp":8052,"clas":8053,"hen":8054,"haw":8055,"ige":8056,"ikalla":8057,"jw":8058,"ong":8059,"otan":8060,"pur":8061,"qoo":8062,"spi":8063,"ster":8064,"uleen":8065,"ura":8066,"ñaay":8067,"alha":8068,"anaa":8069,"andaa":8070,"dition":8071,"kong":8072,"kokki":8073,"akum":8074,"ñudoon":8075,"yici":8076,"luug":8077,"madd":8078,"tubay":8079,"dur":8080,"duppe":8081,"dawi":8082,"naas":8083,"naalub":8084,"awul":8085,"mbale":8086,"guar":8087,"lett":8088,"tiset":8089,"wujje":8090,"abar":8091,"sindi":8092,"defoo":8093,"nekkiinu":8094,"rique":8095,"manut":8096,"sami":8097,"maase":8098,"laaxira":8099,"njéem":8100,"bartele":8101,"biis":8102,"fiq":8103,"rabii":8104,"rasuul":8105,"jongo":8106,"arafi":8107,"mbiteer":8108,"mbill":8109,"damoo":8110,"damba":8111,"dammeel":8112,"balde":8113,"wasi":8114,"dëkkul":8115,"doq":8116,"ndijoor":8117,"baynuk":8118,"toqi":8119,"tegtali":8120,"sani":8121,"sannee":8122,"yëkëti":8123,"ñëwug":8124,"suufi":8125,"sareet":8126,"pombiteer":8127,"teddngay":8128,"jëfka":8129,"laajleen":8130,"mats":8131,"lekkal":8132,"ñaanu":8133,"génnal":8134,"génnam":8135,"xoolante":8136,"dellul":8137,"tég":8138,"ténj":8139,"pajum":8140,"xëti":8141,"boddi":8142,"soppaliku":8143,"géttu":8144,"féeteek":8145,"géejawaay":8146,"xonk":8147,"mbënd":8148,"wóorna":8149,"kerook":8150,"tërale":8151,"mbokkum":8152,"ndate":8153,"bëjgannaaru":8154,"tabaxkat":8155,"jógloo":8156,"doxaliinu":8157,"fitnay":8158,"njariñal":8159,"nééw":8160,"jawali":8161,"jokku":8162,"mont":8163,"ligéeyu":8164,"tollale":8165,"barkeem":8166,"daleko":8167,"lakkuw":8168,"hop":8169,"firil":8170,"warula":8171,"warunoo":8172,"muntax":8173,"juróomñettfukki":8174,"digëntéem":8175,"kéemtaan":8176,"muuraay":8177,"yakkamtee":8178,"fransa":8179,"dundiin":8180,"ndënd":8181,"banqaa":8182,"njuréef":8183,"wëlbatiku":8184,"dollee":8185,"ibraahiima":8186,"boobaak":8187,"xulli":8188,"laksidaŋ":8189,"beresil":8190,"nettalee":8191,"mbëkkante":8192,"widewoo":8193,"jëflëntéek":8194,"xariti":8195,"béreb":8196,"tërëliin":8197,"maqaama":8198,"alamaan":8199,"tubaarikalla":8200,"kumandan":8201,"ngénte":8202,"kamiyoŋ":8203,"nërméelu":8204,"éleve":8205,"aljihad":8206,"téléphone":8207,"sandarmóori":8208,"ekkool":8209,"habiibul":8210,"tekuruur":8211,"bartelemi":8212,"aññ":8213,"caw":8214,"cari":8215,"call":8216,"ex":8217,"hah":8218,"kóol":8219,"ld":8220,"loon":8221,"lël":8222,"nokk":8223,"pus":8224,"prin":8225,"rn":8226,"sñ":8227,"tëm":8228,"za":8229,"ñé":8230,"aag":8231,"oori":8232,"eesi":8233,"almu":8234,"albir":8235,"kkël":8236,"die":8237,"teye":8238,"koko":8239,"muju":8240,"musii":8241,"akam":8242,"ñuu":8243,"ayam":8244,"liitam":8245,"lutax":8246,"deglu":8247,"ggee":8248,"ndandoo":8249,"gilli":8250,"sud":8251,"enndonesi":8252,"aaroo":8253,"das":8254,"dañiy":8255,"jugal":8256,"awo":8257,"kug":8258,"iila":8259,"mbée":8260,"guu":8261,"guural":8262,"leagu":8263,"tiri":8264,"siyaa":8265,"sime":8266,"sadd":8267,"reb":8268,"nekki":8269,"nekkug":8270,"mante":8271,"mansa":8272,"sem":8273,"feu":8274,"moomel":8275,"waane":8276,"yazi":8277,"baayi":8278,"yeewe":8279,"njangal":8280,"eth":8281,"assa":8282,"asol":8283,"astalu":8284,"doog":8285,"saalif":8286,"taataan":8287,"walu":8288,"bokksi":8289,"sona":8290,"tamxarit":8291,"kkirlu":8292,"wool":8293,"waqi":8294,"wakkirlu":8295,"neey":8296,"yoona":8297,"kawee":8298,"meññi":8299,"media":8300,"diinaar":8301,"diineem":8302,"sëg":8303,"sën":8304,"gantal":8305,"dundul":8306,"feey":8307,"maggale":8308,"doxaan":8309,"faraa":8310,"bandiko":8311,"diggam":8312,"leeraayu":8313,"poset":8314,"liggéeyandoo":8315,"ntaan":8316,"yékk":8317,"kaabu":8318,"góorjigéen":8319,"penda":8320,"lekkoon":8321,"meet":8322,"google":8323,"géey":8324,"tayel":8325,"nuyyoo":8326,"xajul":8327,"waccal":8328,"waccoon":8329,"xareñ":8330,"rawoon":8331,"yokkug":8332,"xeexkat":8333,"feeñale":8334,"njëkka":8335,"wërale":8336,"tasxibaar":8337,"wuuf":8338,"xoqatal":8339,"nduwaan":8340,"yamb":8341,"jumaay":8342,"keraan":8343,"mbokku":8344,"malaakay":8345,"sakklin":8346,"ndoktoor":8347,"fasoon":8348,"mbeng":8349,"madrid":8350,"wiiri":8351,"mbalka":8352,"raxul":8353,"bëree":8354,"dimbalikat":8355,"dëgguwul":8356,"ronal":8357,"jéeg":8358,"pont":8359,"yombalal":8360,"aqq":8361,"aqqi":8362,"sekkit":8363,"lumumbaa":8364,"serbi":8365,"dakkantal":8366,"taaxum":8367,"njege":8368,"wommatu":8369,"jambaari":8370,"njariñi":8371,"mbamb":8372,"goornamaab":8373,"franse":8374,"laahir":8375,"roppalaan":8376,"palaasu":8377,"demokarat":8378,"sãs":8379,"awiyoŋ":8380,"xeeñtu":8381,"ndoorteelu":8382,"gabon":8383,"bënbën":8384,"jankoonteek":8385,"kangami":8386,"nationale":8387,"karim":8388,"satala":8389,"metital":8390,"silisi":8391,"siddéem":8392,"jalloore":8393,"yëglekaay":8394,"ubbéeku":8395,"chelsea":8396,"jaajëfal":8397,"repibilikeen":8398,"soppalikaay":8399,"saafoonte":8400,"njéggël":8401,"jëmëlé":8402,"naissance":8403,"bésnikitey":8404,"wirduw":8405,"albirr":8406,"league":8407,"simeyon":8408,"bandikoto":8409,"ave":8410,"bli":8411,"cy":8412,"cla":8413,"cen":8414,"cub":8415,"caat":8416,"ction":8417,"epp":8418,"fre":8419,"fra":8420,"inde":8421,"qati":8422,"quray":8423,"ud":8424,"watt":8425,"yang":8426,"ñée":8427,"amba":8428,"amut":8429,"nagu":8430,"naxaa":8431,"anii":8432,"angu":8433,"kkat":8434,"diplo":8435,"bimu":8436,"newee":8437,"art":8438,"buti":8439,"lujum":8440,"denari":8441,"badar":8442,"ppa":8443,"tubaa":8444,"tuyaa":8445,"niseeri":8446,"sudd":8447,"sunj":8448,"dakku":8449,"david":8450,"jubul":8451,"mbenni":8452,"waxloo":8453,"guyaa":8454,"tige":8455,"defãas":8456,"riko":8457,"mandax":8458,"yeexe":8459,"barak":8460,"barag":8461,"gisgisam":8462,"galasi":8463,"win":8464,"dëël":8465,"dalug":8466,"ñooñee":8467,"asar":8468,"dooree":8469,"juram":8470,"daayi":8471,"gakkal":8472,"arabi":8473,"déj":8474,"yaakar":8475,"gem":8476,"jammu":8477,"ëlaan":8478,"deeyee":8479,"deeye":8480,"mayee":8481,"mayul":8482,"neeg":8483,"baaxu":8484,"baye":8485,"diinat":8486,"konn":8487,"sancaa":8488,"jëmmëm":8489,"jappukaay":8490,"wot":8491,"gaajoo":8492,"yót":8493,"dayoom":8494,"fekkeente":8495,"farmasi":8496,"rosen":8497,"lëmbe":8498,"mbaali":8499,"gëmee":8500,"léena":8501,"toppul":8502,"jalle":8503,"ginnaa":8504,"liggéeykatu":8505,"delfi":8506,"xalaatul":8507,"ëppe":8508,"yónnen":8509,"pep":8510,"pekk":8511,"pend":8512,"peyoor":8513,"lama":8514,"garã":8515,"amewoon":8516,"tuutee":8517,"xaley":8518,"meeru":8519,"usmaani":8520,"xupp":8521,"tabar":8522,"wayndare":8523,"wayantoo":8524,"weeram":8525,"lakke":8526,"karo":8527,"tagge":8528,"ndumbe":8529,"daqoon":8530,"yonnent":8531,"ngoone":8532,"waaree":8533,"espa":8534,"juroomñaar":8535,"juroomñett":8536,"leeralna":8537,"workat":8538,"dëkkukaw":8539,"nëxal":8540,"moroomu":8541,"ajuwul":8542,"aladab":8543,"sukkandi":8544,"feesale":8545,"jabet":8546,"jooyloo":8547,"mébé":8548,"kampaa":8549,"ruuj":8550,"taqaloo":8551,"yelwaan":8552,"ngalam":8553,"vies":8554,"jangukaay":8555,"surn":8556,"berg":8557,"berlin":8558,"rank":8559,"taggatoo":8560,"bataaxalu":8561,"dunq":8562,"coonoy":8563,"kañseer":8564,"taalubeem":8565,"raññe":8566,"fële":8567,"digaloon":8568,"lonku":8569,"xett":8570,"dendal":8571,"couleurs":8572,"fanaanee":8573,"wërsëgëlé":8574,"maxu":8575,"roppëlaan":8576,"belsig":8577,"yegsee":8578,"jumtuwaay":8579,"sahel":8580,"tirbi":8581,"furno":8582,"kuura":8583,"jékkijékki":8584,"xelalkat":8585,"diola":8586,"dënnam":8587,"mahmud":8588,"loppitaan":8589,"sababub":8590,"rakkaaju":8591,"nikodem":8592,"xóotal":8593,"dajalee":8594,"woddoo":8595,"etijaŋ":8596,"beddeeku":8597,"xaralay":8598,"xuuge":8599,"keppaarug":8600,"libération":8601,"konaakiri":8602,"xaqtaay":8603,"tamarax":8604,"muntaxaa":8605,"quraysin":8606,"denariyon":8607,"ajaa":8608,"bra":8609,"blanc":8610,"dj":8611,"eni":8612,"ecoo":8613,"fs":8614,"gh":8615,"géen":8616,"ines":8617,"jóor":8618,"klimaa":8619,"laar":8620,"ny":8621,"pr":8622,"renn":8623,"ratt":8624,"twit":8625,"uh":8626,"wóom":8627,"aljana":8628,"amleen":8629,"natul":8630,"diwi":8631,"labal":8632,"lake":8633,"lañii":8634,"binee":8635,"arri":8636,"mula":8637,"mumel":8638,"mubëgg":8639,"aye":8640,"ays":8641,"liyaar":8642,"yiak":8643,"deri":8644,"desal":8645,"masamba":8646,"gge":8647,"bacc":8648,"ndaat":8649,"tuwaar":8650,"tuxoo":8651,"gir":8652,"entere":8653,"atteem":8654,"xamnañu":8655,"xamees":8656,"fafal":8657,"jëmb":8658,"guro":8659,"guux":8660,"tili":8661,"tiku":8662,"abel":8663,"singa":8664,"siren":8665,"sippi":8666,"aalam":8667,"defukaay":8668,"segam":8669,"boori":8670,"fifa":8671,"fiel":8672,"leet":8673,"rañaan":8674,"rajax":8675,"dootoo":8676,"mëni":8677,"yeriko":8678,"saxoo":8679,"tammbali":8680,"seelu":8681,"ëlleg":8682,"dëggë":8683,"wañ":8684,"mayi":8685,"dos":8686,"dou":8687,"xaree":8688,"jaaxa":8689,"alaate":8690,"mek":8691,"fanq":8692,"toc":8693,"sëpp":8694,"sëqat":8695,"ganj":8696,"yaway":8697,"jappul":8698,"bew":8699,"gaawa":8700,"ñëwi":8701,"maggee":8702,"maggaayam":8703,"yóbbal":8704,"mënna":8705,"farandoom":8706,"taxawul":8707,"déggé":8708,"staan":8709,"jjee":8710,"niim":8711,"lish":8712,"mbaaw":8713,"mbaaké":8714,"salam":8715,"jaari":8716,"faak":8717,"takkaay":8718,"takktakk":8719,"mucce":8720,"liggéeyloo":8721,"yéesu":8722,"yéyu":8723,"yoral":8724,"xalaatee":8725,"ñaanee":8726,"ëppale":8727,"xéewale":8728,"lopit":8729,"fiiriir":8730,"jégén":8731,"dangéen":8732,"xajam":8733,"yaggoon":8734,"xarekati":8735,"nakajekk":8736,"yaakaarnaa":8737,"ismay":8738,"istamb":8739,"mbatiit":8740,"yëglu":8741,"doyoon":8742,"xoj":8743,"gétën":8744,"juroomeelu":8745,"waante":8746,"ndomb":8747,"dogalee":8748,"dogalam":8749,"ramm":8750,"penaal":8751,"caabiy":8752,"frank":8753,"doxaliinam":8754,"daggeeku":8755,"jumtukaayam":8756,"andil":8757,"bégoon":8758,"ëmboon":8759,"sancoon":8760,"ligeeyam":8761,"monde":8762,"jangalee":8763,"penkub":8764,"formula":8765,"payooru":8766,"taggatal":8767,"palug":8768,"mammoor":8769,"genaay":8770,"jéemu":8771,"kurr":8772,"mbaxan":8773,"cëtëŋ":8774,"seetaankat":8775,"sekker":8776,"caytu":8777,"poos":8778,"cërci":8779,"france":8780,"safaanukaay":8781,"bisaawóo":8782,"heat":8783,"ndampaayu":8784,"toftaloo":8785,"jollil":8786,"meññet":8787,"puukare":8788,"golf":8789,"nobeel":8790,"bëkknéeg":8791,"déeyante":8792,"yénguyéngu":8793,"korite":8794,"tappewu":8795,"xéewëli":8796,"xéewëlug":8797,"sénégalaise":8798,"prix":8799,"mãasuur":8800,"english":8801,"taafantoo":8802,"dakkantale":8803,"halaykum":8804,"njolloor":8805,"école":8806,"ayeropoor":8807,"wëppa":8808,"kóollëré":8809,"musiiba":8810,"yékkatee":8811,"cubb":8812,"usmaaniyoona":8813,"ecoopi":8814,"twitter":8815,"bineegar":8816,"istambóol":8817,"ceen":8818,"gj":8819,"jpp":8820,"jale":8821,"jjuma":8822,"rfm":8823,"vol":8824,"wokk":8825,"what":8826,"xatu":8827,"yël":8828,"zz":8829,"zay":8830,"ária":8831,"ário":8832,"ção":8833,"ëdi":8834,"ële":8835,"ów":8836,"alle":8837,"albaq":8838,"amário":8839,"cien":8840,"naba":8841,"nani":8842,"anni":8843,"laz":8844,"lapp":8845,"latul":8846,"lahuu":8847,"bilaal":8848,"nef":8849,"teq":8850,"aru":8851,"araa":8852,"arti":8853,"muhar":8854,"mukallaf":8855,"ñudaa":8856,"ayr":8857,"buco":8858,"linu":8859,"demi":8860,"demb":8861,"mation":8862,"bair":8863,"tumbar":8864,"naani":8865,"mike":8866,"xamna":8867,"kuñ":8868,"fatu":8869,"faid":8870,"mbalu":8871,"mooñaale":8872,"casa":8873,"sim":8874,"sina":8875,"sagal":8876,"oland":8877,"nekkam":8878,"nekkak":8879,"nekkati":8880,"tañ":8881,"rib":8882,"manal":8883,"mandu":8884,"rua":8885,"seriñ":8886,"sedaar":8887,"seker":8888,"sekere":8889,"feyu":8890,"feccu":8891,"moomal":8892,"yeeme":8893,"laaxu":8894,"laajul":8895,"galan":8896,"leetar":8897,"warlu":8898,"doonal":8899,"teewaay":8900,"bëggal":8901,"asante":8902,"demam":8903,"demlante":8904,"juroon":8905,"eraa":8906,"gag":8907,"joq":8908,"joamário":8909,"saalu":8910,"arafu":8911,"wali":8912,"bokkoo":8913,"jami":8914,"sott":8915,"balaam":8916,"dëggug":8917,"wave":8918,"domini":8919,"kawlak":8920,"aliman":8921,"kont":8922,"dundale":8923,"jappalante":8924,"beñe":8925,"wowe":8926,"ñëwagul":8927,"barina":8928,"bindaat":8929,"tëf":8930,"tëngéej":8931,"déggante":8932,"straa":8933,"seeniy":8934,"wéye":8935,"wérug":8936,"kekk":8937,"niil":8938,"reek":8939,"reeloo":8940,"mbaale":8941,"jigéenam":8942,"diggbëccëg":8943,"jallu":8944,"pov":8945,"podoor":8946,"bañal":8947,"noongi":8948,"récc":8949,"ñaanoon":8950,"jélal":8951,"lambi":8952,"ñaanug":8953,"danmark":8954,"tuutal":8955,"taalifi":8956,"miis":8957,"koomam":8958,"sellale":8959,"wayfippu":8960,"yallaam":8961,"nocci":8962,"taraa":8963,"yokkal":8964,"aggul":8965,"bot":8966,"ragalul":8967,"dugaloon":8968,"manatul":8969,"paree":8970,"darra":8971,"yaxam":8972,"nambuco":8973,"soxlawoo":8974,"keroo":8975,"ngoogu":8976,"fog":8977,"fond":8978,"manuel":8979,"cuq":8980,"xoot":8981,"jiituwoon":8982,"ché":8983,"cher":8984,"ndongoy":8985,"mbej":8986,"caagée":8987,"tabaxoon":8988,"faatug":8989,"fraas":8990,"yaqal":8991,"yaqkat":8992,"séenee":8993,"daggasante":8994,"pernambuco":8995,"birël":8996,"pólótigam":8997,"ruuwam":8998,"wëtt":8999,"saytug":9000,"xasee":9001,"sófóor":9002,"sabopp":9003,"roof":9004,"tegukaayu":9005,"haq":9006,"haqi":9007,"amuleen":9008,"siinwaa":9009,"tëddee":9010,"palastin":9011,"tuubleen":9012,"xalifab":9013,"house":9014,"rëcce":9015,"nataalub":9016,"appli":9017,"séqoo":9018,"marseille":9019,"woppoon":9020,"satumbar":9021,"wattukat":9022,"njureefi":9023,"reeni":9024,"jommal":9025,"jaarjaaru":9026,"sampiyo":9027,"amtiku":9028,"psg":9029,"laksidãa":9030,"wareesu":9031,"dimmali":9032,"ofisel":9033,"layookat":9034,"raphi":9035,"posetu":9036,"njeexitalu":9037,"seenuw":9038,"misik":9039,"sattumbar":9040,"dencukaayu":9041,"yonentam":9042,"ngérte":9043,"njaxlaf":9044,"jëwrini":9045,"kilifteefug":9046,"wëndeeluwaan":9047,"mbiita":9048,"kasawkasaw":9049,"pappa":9050,"munich":9051,"tumbrank":9052,"lëkkëlóo":9053,"nasiyo":9054,"mbébétu":9055,"missionária":9056,"dëkkëndo":9057,"raxasu":9058,"oração":9059,"brëtaañ":9060,"guardiola":9061,"sancaago":9062,"muharram":9063,"bairro":9064,"faidher":9065,"cëgg":9066,"cfu":9067,"dri":9068,"ete":9069,"eggal":9070,"fitam":9071,"ikoñu":9072,"ks":9073,"ota":9074,"pak":9075,"për":9076,"pag":9077,"pyong":9078,"raan":9079,"sn":9080,"stam":9081,"sërë":9082,"umay":9083,"ulug":9084,"var":9085,"vis":9086,"wn":9087,"yak":9088,"ylla":9089,"ñale":9090,"ŋank":9091,"aatal":9092,"aakon":9093,"alton":9094,"cil":9095,"nap":9096,"nañuy":9097,"antar":9098,"diŋ":9099,"newi":9100,"temboo":9101,"kongóo":9102,"ñukk":9103,"ñune":9104,"axal":9105,"bulu":9106,"liw":9107,"livingston":9108,"bagaa":9109,"ndum":9110,"tup":9111,"ning":9112,"nugg":9113,"sulay":9114,"dajul":9115,"fason":9116,"mooko":9117,"gutt":9118,"leru":9119,"leggal":9120,"tibbe":9121,"oxo":9122,"oxu":9123,"siwis":9124,"sims":9125,"aaleem":9126,"reso":9127,"defaas":9128,"defiin":9129,"tah":9130,"kit":9131,"sambi":9132,"sebul":9133,"feye":9134,"janax":9135,"yacc":9136,"yeey":9137,"kase":9138,"wari":9139,"wiye":9140,"rasuu":9141,"dëmm":9142,"bëggon":9143,"kookee":9144,"jonante":9145,"saaw":9146,"taaxi":9147,"déwén":9148,"toolub":9149,"bokke":9150,"bokkaloon":9151,"gey":9152,"james":9153,"sole":9154,"somali":9155,"seefa":9156,"dammel":9157,"dammit":9158,"wood":9159,"wooleen":9160,"woowaat":9161,"waq":9162,"dëkkaan":9163,"mayuñu":9164,"dofu":9165,"neexam":9166,"neegu":9167,"yooyoo":9168,"yooyii":9169,"joxal":9170,"med":9171,"mekan":9172,"fanu":9173,"fannu":9174,"mbootayu":9175,"konte":9176,"gani":9177,"ganaaw":9178,"jiixi":9179,"ñëwu":9180,"solof":9181,"bindé":9182,"tëje":9183,"tëjal":9184,"ubn":9185,"farmata":9186,"janti":9187,"toppkatu":9188,"poto":9189,"bañatee":9190,"bakkaaru":9191,"yéré":9192,"rése":9193,"rëkk":9194,"rëpp":9195,"kaaf":9196,"kaat":9197,"london":9198,"peyug":9199,"fukkéelu":9200,"noppil":9201,"gou":9202,"garaaw":9203,"tiin":9204,"tiisu":9205,"tuuba":9206,"nangug":9207,"usman":9208,"géewu":9209,"ndoxu":9210,"gannaawam":9211,"xadd":9212,"xaqat":9213,"ngere":9214,"téj":9215,"téyee":9216,"wërlaay":9217,"xëdd":9218,"cep":9219,"bocci":9220,"lawdise":9221,"tontul":9222,"xewxewi":9223,"kartu":9224,"doyo":9225,"hikma":9226,"milyoni":9227,"yaaram":9228,"daarul":9229,"yonne":9230,"raykatu":9231,"wóorul":9232,"waaraam":9233,"xoox":9234,"santoon":9235,"dimbal":9236,"gennwall":9237,"ndogu":9238,"bammeelu":9239,"yani":9240,"tawati":9241,"raasin":9242,"faloo":9243,"njangaan":9244,"tabaxaat":9245,"masoon":9246,"joŋan":9247,"ngone":9248,"mbott":9249,"yaqoo":9250,"jaxaaw":9251,"mbébét":9252,"ëllëgam":9253,"puso":9254,"dëppoog":9255,"kamis":9256,"guyy":9257,"wëri":9258,"ndés":9259,"almaami":9260,"gayndey":9261,"reewam":9262,"bbali":9263,"seexu":9264,"guddaayu":9265,"xél":9266,"sancug":9267,"njublan":9268,"dofdof":9269,"ngëmadi":9270,"thé":9271,"dawalkati":9272,"haaj":9273,"baxam":9274,"gëtëm":9275,"ñaxtukat":9276,"tallaliku":9277,"zia":9278,"kolobaan":9279,"rahman":9280,"deñc":9281,"ndëndam":9282,"sãru":9283,"patrio":9284,"sunnas":9285,"pomme":9286,"nandal":9287,"dóotu":9288,"móris":9289,"peresidãa":9290,"donggala":9291,"ndiggam":9292,"rattax":9293,"ndombotank":9294,"ners":9295,"nelson":9296,"lillaah":9297,"boyetu":9298,"waññikug":9299,"tiitaroo":9300,"jefandiku":9301,"alhakim":9302,"bóris":9303,"gërëmul":9304,"torowas":9305,"kalifor":9306,"jurukaayu":9307,"munulwoon":9308,"misaalu":9309,"yelleefi":9310,"pibbilisite":9311,"nuyulleen":9312,"wurusu":9313,"lekkukaayu":9314,"dëxëñ":9315,"baraxlu":9316,"navy":9317,"wujjam":9318,"gongikuwaay":9319,"gannaawsitey":9320,"demokraasi":9321,"septambar":9322,"setammbur":9323,"aaŋkay":9324,"jaboot":9325,"ordinatéer":9326,"petrol":9327,"njéemé":9328,"jongoma":9329,"awokaa":9330,"naxaate":9331,"niseeriyaa":9332,"sunjata":9333,"xettliku":9334,"fafalnaaw":9335,"ismayla":9336,"yëlëb":9337,"albaqarah":9338,"straali":9339,"keroogee":9340,"nasiyonaal":9341,"faidherbe":9342,"ikoñum":9343,"solofrayn":9344,"xaqataay":9345,"ajan":9346,"beel":9347,"fof":9348,"gran":9349,"ht":9350,"ia":9351,"ipres":9352,"image":9353,"kel":9354,"kala":9355,"naayu":9356,"njudd":9357,"nërëm":9358,"ole":9359,"phil":9360,"qad":9361,"tfm":9362,"yóor":9363,"aatee":9364,"almana":9365,"allub":9366,"ambil":9367,"amutoon":9368,"amatuñu":9369,"diwu":9370,"ngen":9371,"ngand":9372,"ted":9373,"teyu":9374,"tech":9375,"arrahman":9376,"komini":9377,"budee":9378,"lifeek":9379,"detaa":9380,"magu":9381,"aaroona":9382,"daqu":9383,"datt":9384,"dattu":9385,"naane":9386,"naale":9387,"jure":9388,"jugee":9389,"julit":9390,"mik":9391,"mir":9392,"awra":9393,"xamnaa":9394,"jëndi":9395,"guwar":9396,"absa":9397,"sinee":9398,"silo":9399,"safi":9400,"reyal":9401,"tacc":9402,"takki":9403,"jis":9404,"gëni":9405,"naga":9406,"manduwaar":9407,"kis":9408,"sexaw":9409,"maali":9410,"baali":9411,"yeeku":9412,"laayi":9413,"laand":9414,"ddante":9415,"njaw":9416,"bartélé":9417,"boolu":9418,"fuqale":9419,"filo":9420,"katub":9421,"waralu":9422,"waruñu":9423,"teewu":9424,"doolee":9425,"oonug":9426,"gajjan":9427,"joggi":9428,"taawam":9429,"gënaloon":9430,"tooru":9431,"yekk":9432,"songu":9433,"tampe":9434,"nattee":9435,"seef":9436,"waters":9437,"tansani":9438,"mayam":9439,"bége":9440,"doge":9441,"ndimë":9442,"neewal":9443,"jaabir":9444,"jaaseem":9445,"yoolub":9446,"bayhaqi":9447,"gaalam":9448,"diin":9449,"toji":9450,"togo":9451,"bëer":9452,"jappndal":9453,"liggdee":9454,"beppu":9455,"xeesal":9456,"daymaan":9457,"soloon":9458,"ugóor":9459,"jëkkoon":9460,"jógu":9461,"ddum":9462,"wétt":9463,"reewu":9464,"lëlu":9465,"mbaalug":9466,"banneexam":9467,"jaaraat":9468,"neexalu":9469,"bayyiwuñu":9470,"powum":9471,"jangoon":9472,"yorul":9473,"soxlaam":9474,"marsey":9475,"rëbbi":9476,"rafete":9477,"góorgi":9478,"ëppul":9479,"siirul":9480,"xuri":9481,"xumbal":9482,"tayba":9483,"taysiirul":9484,"séyee":9485,"innaa":9486,"nose":9487,"tartar":9488,"rawee":9489,"xeexi":9490,"dinaatëer":9491,"wërngal":9492,"ceet":9493,"sañam":9494,"bakkaari":9495,"israa":9496,"lakkam":9497,"karce":9498,"daraame":9499,"géejpeek":9500,"soxlawuma":9501,"wergu":9502,"sammkat":9503,"njaayam":9504,"wutsi":9505,"meree":9506,"sukkur":9507,"massa":9508,"dénkaan":9509,"amalul":9510,"yuux":9511,"farãans":9512,"eefna":9513,"ahad":9514,"nooni":9515,"muñël":9516,"yaatuwaayam":9517,"liggéeyukaayu":9518,"taqali":9519,"tënkoo":9520,"saytubiddiw":9521,"fentaakon":9522,"wattandiku":9523,"séeju":9524,"gëstuy":9525,"bërki":9526,"bërgël":9527,"xéyee":9528,"xaajale":9529,"surgab":9530,"ngaañ":9531,"séddalee":9532,"sabóor":9533,"fortaatu":9534,"ngannaayu":9535,"naxante":9536,"jéggale":9537,"fattalikul":9538,"barkeelu":9539,"mambulaan":9540,"njuuma":9541,"béey":9542,"yërmëndéem":9543,"waajale":9544,"waajtaayu":9545,"xóotaayu":9546,"masuñoo":9547,"coupe":9548,"ateur":9549,"keesu":9550,"muritam":9551,"wiyet":9552,"vene":9553,"yërmandey":9554,"ngóorjigéen":9555,"dootuloo":9556,"wéetël":9557,"dégtal":9558,"waxunu":9559,"albuyu":9560,"jottalikat":9561,"toontu":9562,"jommi":9563,"ngënéelul":9564,"ecopi":9565,"iniwér":9566,"ndoorteel":9567,"wëndéel":9568,"maggalukaayu":9569,"attanul":9570,"bëjsaalumpenkug":9571,"sóoru":9572,"greja":9573,"porofesëer":9574,"tilimal":9575,"azz":9576,"tiwaawan":9577,"ants":9578,"komiseer":9579,"faratay":9580,"union":9581,"ektaar":9582,"trop":9583,"bourg":9584,"tonowu":9585,"international":9586,"uhud":9587,"mandela":9588,"artemis":9589,"fakkastalu":9590,"hasiir":9591,"drak":9592,"alanbiya":9593,"déggadil":9594,"faggul":9595,"sénégalais":9596,"badrin":9597,"yeglekaay":9598,"fompal":9599,"luxuskat":9600,"ñoŋal":9601,"mbëggéelam":9602,"charles":9603,"komandaŋ":9604,"koddaay":9605,"cakkeef":9606,"machine":9607,"burkinaa":9608,"jafandu":9609,"football":9610,"texeedi":9611,"jagleele":9612,"classe":9613,"surnalist":9614,"lopitaalu":9615,"ndomboy":9616,"zayd":9617,"application":9618,"tumbrankeel":9619,"patriotes":9620,"beelsebul":9621,"bartélémi":9622,"av":9623,"aut":9624,"adama":9625,"aziz":9626,"bro":9627,"cn":9628,"crr":9629,"dante":9630,"emoa":9631,"fmi":9632,"goy":9633,"gaaru":9634,"hit":9635,"hus":9636,"ite":9637,"ikri":9638,"kell":9639,"kãa":9640,"lolo":9641,"nmaŋ":9642,"oh":9643,"phi":9644,"póot":9645,"rali":9646,"ss":9647,"tara":9648,"wheat":9649,"yol":9650,"zona":9651,"ér":9652,"ëmbal":9653,"ŋañ":9654,"alqi":9655,"almusta":9656,"alseeri":9657,"alkamis":9658,"albayhaqi":9659,"dik":9660,"direk":9661,"bibli":9662,"teri":9663,"tereem":9664,"muraa":9665,"but":9666,"bund":9667,"buub":9668,"liŋ":9669,"det":9670,"bate":9671,"bata":9672,"ndoom":9673,"ndaan":9674,"ndëgg":9675,"git":9676,"aaytal":9677,"sulawe":9678,"dugale":9679,"juur":9680,"xamagul":9681,"xamutoon":9682,"kuru":9683,"fad":9684,"loof":9685,"cad":9686,"lekoolu":9687,"tite":9688,"siya":9689,"simp":9690,"elaas":9691,"sasam":9692,"aaleek":9693,"relu":9694,"reccu":9695,"defaa":9696,"jing":9697,"jiba":9698,"kir":9699,"king":9700,"kiloy":9701,"sampe":9702,"sex":9703,"setul":9704,"seppi":9705,"fest":9706,"yakkal":9707,"laago":9708,"wartéef":9709,"warren":9710,"talib":9711,"aste":9712,"ngeenndax":9713,"erre":9714,"daañu":9715,"gañee":9716,"jou":9717,"jotal":9718,"jones":9719,"gedd":9720,"tammal":9721,"sees":9722,"baleen":9723,"wooteg":9724,"mayees":9725,"béj":9726,"doc":9727,"jaani":9728,"yoof":9729,"joxante":9730,"baydi":9731,"bayre":9732,"bayliku":9733,"bayruut":9734,"meni":9735,"fanni":9736,"tok":9737,"tou":9738,"mbooram":9739,"sankar":9740,"beg":9741,"beti":9742,"woyi":9743,"gaaf":9744,"maggam":9745,"bariwaa":9746,"laytaay":9747,"laylatul":9748,"tëwa":9749,"mënmënu":9750,"joow":9751,"jëkkë":9752,"jëkkee":9753,"génnu":9754,"kebooy":9755,"rocc":9756,"robb":9757,"bantam":9758,"janng":9759,"jantub":9760,"toppleen":9761,"takkleen":9762,"nty":9763,"laayu":9764,"soobe":9765,"yoriinu":9766,"uth":9767,"nooam":9768,"piri":9769,"réeré":9770,"maréew":9771,"rënk":9772,"lot":9773,"jéndal":9774,"mbubu":9775,"toogleen":9776,"dane":9777,"miil":9778,"xunn":9779,"defaroon":9780,"séddu":9781,"jullée":9782,"yagge":9783,"tabje":9784,"insta":9785,"rabbil":9786,"noir":9787,"tare":9788,"kayitam":9789,"néewug":9790,"xënte":9791,"bop":9792,"bomb":9793,"kaweg":9794,"lalam":9795,"wuuteeg":9796,"paroolu":9797,"parparloo":9798,"wallante":9799,"yaxal":9800,"yaxeet":9801,"namu":9802,"ubbitég":9803,"xoosu":9804,"saraxe":9805,"jikkóom":9806,"tawu":9807,"mbeg":9808,"pendent":9809,"wutale":9810,"fatteloo":9811,"tekkil":9812,"dence":9813,"caaf":9814,"caageen":9815,"naarugóor":9816,"tabaxal":9817,"saara":9818,"fitt":9819,"daggal":9820,"wéetoo":9821,"jéemleen":9822,"defalee":9823,"kowski":9824,"tukkim":9825,"dereti":9826,"olog":9827,"militaire":9828,"huemoa":9829,"indilleen":9830,"xattaab":9831,"bernde":9832,"berners":9833,"yégleb":9834,"moytuloo":9835,"kaaraangey":9836,"ndaama":9837,"bareebari":9838,"aajoy":9839,"jëfeleen":9840,"mbaxna":9841,"noflaayu":9842,"bërëbi":9843,"móoyu":9844,"county":9845,"firisi":9846,"rëccee":9847,"yégalee":9848,"yéglee":9849,"mbóoj":9850,"muure":9851,"muuji":9852,"yeenee":9853,"pooj":9854,"ñawkat":9855,"kujjeg":9856,"lonk":9857,"bayyeeku":9858,"ngornmaŋ":9859,"langaamu":9860,"franc":9861,"maars":9862,"njalbée":9863,"minis":9864,"patri":9865,"toxoro":9866,"yëguma":9867,"faalewu":9868,"perefe":9869,"daganul":9870,"tuuttank":9871,"kuurãa":9872,"ndoortel":9873,"hepati":9874,"gaboŋ":9875,"lliyu":9876,"lliyun":9877,"ographi":9878,"kuuraŋ":9879,"gawwu":9880,"witt":9881,"warugaru":9882,"tunduw":9883,"dundëlé":9884,"taayif":9885,"ngërëmu":9886,"jortoon":9887,"musuleen":9888,"centre":9889,"kasara":9890,"yóoyu":9891,"johnson":9892,"widewo":9893,"jurukaay":9894,"saint":9895,"saipov":9896,"njëlbeenu":9897,"meññeefam":9898,"lonkoyoon":9899,"tumbranke":9900,"iraak":9901,"suppome":9902,"lëkkaloo":9903,"senghor":9904,"crevette":9905,"foroñ":9906,"spieth":9907,"yazid":9908,"independent":9909,"aniifata":9910,"daayira":9911,"dëggëntaan":9912,"eggaliis":9913,"kominike":9914,"venezia":9915,"crrhuemoa":9916,"wheatley":9917,"alqiyam":9918,"sulawesi":9919,"bernerslee":9920,"ajoo":9921,"bs":9922,"box":9923,"cra":9924,"cëg":9925,"ekon":9926,"fle":9927,"falaa":9928,"galla":9929,"hy":9930,"hab":9931,"halaa":9932,"jg":9933,"jy":9934,"llar":9935,"nó":9936,"olim":9937,"othe":9938,"para":9939,"rã":9940,"sli":9941,"tdiwaar":9942,"ubu":9943,"ube":9944,"voy":9945,"vard":9946,"xlu":9947,"xum":9948,"yén":9949,"yara":9950,"zab":9951,"zer":9952,"ëcc":9953,"ëtal":9954,"ŋaayoo":9955,"eefu":9956,"eetar":9957,"almet":9958,"amub":9959,"nasu":9960,"andam":9961,"digaal":9962,"digan":9963,"lawug":9964,"bitéelu":9965,"ngoro":9966,"ngeem":9967,"tepp":9968,"teqalikoo":9969,"muxam":9970,"bubakar":9971,"libaa":9972,"list":9973,"listar":9974,"liféek":9975,"yil":9976,"yili":9977,"deŋ":9978,"madaldi":9979,"mauri":9980,"ndor":9981,"nuwara":9982,"subaa":9983,"suppu":9984,"davies":9985,"naaje":9986,"naalam":9987,"micha":9988,"ath":9989,"xamnga":9990,"xamug":9991,"fana":9992,"waxeek":9993,"cag":9994,"cap":9995,"lerax":9996,"tiyu":9997,"tijaan":9998,"wur":9999,"wutali":10000,"sasu":10001,"reye":10002,"riya":10003,"ñiak":10004,"oppu":10005,"mann":10006,"manni":10007,"maneef":10008,"samme":10009,"maaŋ":10010,"maanaan":10011,"jafar":10012,"ales":10013,"yeem":10014,"laaw":10015,"laalu":10016,"njox":10017,"barcel":10018,"boobii":10019,"fula":10020,"futt":10021,"firee":10022,"gallu":10023,"leewu":10024,"kadi":10025,"warnañoo":10026,"warlul":10027,"rajab":10028,"teereem":10029,"assu":10030,"asaan":10031,"gacca":10032,"jola":10033,"jodd":10034,"mëne":10035,"yeŋ":10036,"saxi":10037,"somp":10038,"tama":10039,"liisu":10040,"liiru":10041,"mbindam":10042,"mbiski":10043,"watu":10044,"tannée":10045,"jekkal":10046,"bérë":10047,"toma":10048,"gangu":10049,"yom":10050,"sandikaa":10051,"bëcëg":10052,"wegu":10053,"wowee":10054,"arimate":10055,"xeelu":10056,"suuxu":10057,"barig":10058,"laykat":10059,"bindul":10060,"andaar":10061,"tëwul":10062,"tëddi":10063,"fare":10064,"faru":10065,"joop":10066,"taxawleen":10067,"wulli":10068,"niitu":10069,"cous":10070,"janj":10071,"gëmal":10072,"takkul":10073,"yittéem":10074,"bakkoo":10075,"jotale":10076,"yéy":10077,"pin":10078,"pir":10079,"xalaatal":10080,"réye":10081,"réeru":10082,"marõ":10083,"marché":10084,"rafeti":10085,"attekaayu":10086,"siit":10087,"siiwoon":10088,"pek":10089,"mburam":10090,"lampu":10091,"garaam":10092,"akilas":10093,"dangin":10094,"wallusi":10095,"weexal":10096,"séyi":10097,"xala":10098,"metz":10099,"waytawat":10100,"notal":10101,"taraayu":10102,"xawwi":10103,"alukaayu":10104,"yaakaaree":10105,"indiwaale":10106,"bombol":10107,"nantam":10108,"ragala":10109,"soppikoo":10110,"laltu":10111,"wuutee":10112,"doywaar":10113,"jaayaat":10114,"xomaag":10115,"ñambi":10116,"hill":10117,"jëfandiko":10118,"ndugal":10119,"woykatu":10120,"féetee":10121,"daqat":10122,"rayy":10123,"wóore":10124,"ngooñ":10125,"tëriin":10126,"wore":10127,"woree":10128,"bambi":10129,"waxtaanal":10130,"dogali":10131,"tawféex":10132,"meroon":10133,"caaxaa":10134,"xiyaam":10135,"gamu":10136,"gamaar":10137,"mbottu":10138,"dagge":10139,"daggee":10140,"firnd":10141,"jéemal":10142,"shaam":10143,"puj":10144,"koppu":10145,"xayadi":10146,"polici":10147,"réeroon":10148,"alqur":10149,"yaatuwaayu":10150,"wetug":10151,"miliyaar":10152,"miliyoŋ":10153,"jëndkat":10154,"jawri":10155,"xélu":10156,"jangub":10157,"tambalig":10158,"ligeeyu":10159,"njaf":10160,"formation":10161,"baalante":10162,"kasog":10163,"tolloon":10164,"rombee":10165,"demewul":10166,"dawalal":10167,"firndeg":10168,"bóobu":10169,"xamene":10170,"saxaloon":10171,"rakka":10172,"ayubis":10173,"yéegleen":10174,"fullaal":10175,"nostey":10176,"werantey":10177,"ligeeykatu":10178,"ferñent":10179,"jeexiitu":10180,"songoon":10181,"carax":10182,"erojadd":10183,"taalifam":10184,"tëggal":10185,"soldaaram":10186,"kemkattan":10187,"dootuleen":10188,"fajuwaay":10189,"marie":10190,"xéewalam":10191,"benne":10192,"ngornam":10193,"kóli":10194,"kóngoo":10195,"kótdiwaar":10196,"saaliyu":10197,"pëndu":10198,"wasaare":10199,"tappale":10200,"wóoy":10201,"njég":10202,"këlë":10203,"këló":10204,"nekkunu":10205,"maasale":10206,"minal":10207,"ouage":10208,"toftale":10209,"andeem":10210,"gëmuloo":10211,"yittéwo":10212,"bokkunu":10213,"karawaat":10214,"signa":10215,"tarixa":10216,"jakkarlool":10217,"bóomkat":10218,"langug":10219,"feesewoon":10220,"arminaat":10221,"porose":10222,"trait":10223,"poseti":10224,"musumaa":10225,"ordinatëer":10226,"ordinateur":10227,"misira":10228,"meññul":10229,"dessiné":10230,"xemmemtéef":10231,"tatouage":10232,"ashshu":10233,"njëlbéenu":10234,"wikimedia":10235,"maraakes":10236,"bérebu":10237,"kiiraayu":10238,"xemmeemtéef":10239,"jiggeen":10240,"tërëliinu":10241,"cakkuteef":10242,"ndijooru":10243,"olaand":10244,"filadelfi":10245,"jinné":10246,"gëwéelub":10247,"blues":10248,"aleykum":10249,"sammonte":10250,"lëndëmi":10251,"federaal":10252,"université":10253,"sëriñub":10254,"fransais":10255,"ronaldo":10256,"whatsapp":10257,"sampiyonaa":10258,"sërëx":10259,"silowe":10260,"iniwérsite":10261,"almustadrak":10262,"llarba":10263,"michael":10264,"mbiskit":10265,"bombolon":10266,"brig":10267,"bjor":10268,"cnn":10269,"crom":10270,"dkk":10271,"ed":10272,"fariñ":10273,"flake":10274,"glo":10275,"gorob":10276,"iz":10277,"jp":10278,"kr":10279,"lfr":10280,"lóot":10281,"naaru":10282,"nbc":10283,"onu":10284,"paal":10285,"panam":10286,"sti":10287,"sport":10288,"tman":10289,"ubay":10290,"wad":10291,"xoy":10292,"xatt":10293,"yá":10294,"yaal":10295,"ëf":10296,"aawo":10297,"oos":10298,"alfe":10299,"alfun":10300,"amdi":10301,"amagu":10302,"amsatu":10303,"nabi":10304,"anngalteer":10305,"dian":10306,"lacc":10307,"ladab":10308,"teŋ":10309,"tette":10310,"armeel":10311,"armal":10312,"munoon":10313,"muhaaji":10314,"akan":10315,"ñuwara":10316,"axu":10317,"oondoo":10318,"yilimaan":10319,"demin":10320,"matam":10321,"mahi":10322,"mail":10323,"baton":10324,"tuku":10325,"tuleen":10326,"tukulóor":10327,"niwaa":10328,"nuam":10329,"nuñu":10330,"sudee":10331,"duwaañ":10332,"envoy":10333,"ore":10334,"xamanta":10335,"kurelu":10336,"iitu":10337,"jëgg":10338,"leo":10339,"leket":10340,"abaa":10341,"sau":10342,"sagaru":10343,"ons":10344,"ont":10345,"onoris":10346,"nekkoo":10347,"nekkon":10348,"nekkaloon":10349,"tasar":10350,"tañax":10351,"riyaa":10352,"riye":10353,"ñibbee":10354,"gëy":10355,"gësë":10356,"manq":10357,"manalu":10358,"manden":10359,"ruug":10360,"sempi":10361,"seddat":10362,"baaxam":10363,"ddale":10364,"gisoo":10365,"gisleen":10366,"galat":10367,"leeree":10368,"wilaaya":10369,"ragg":10370,"dëri":10371,"dëgar":10372,"bëggël":10373,"saamii":10374,"taale":10375,"walbati":10376,"toogul":10377,"jammar":10378,"sowee":10379,"tammbale":10380,"nattub":10381,"woods":10382,"doma":10383,"baaxal":10384,"menga":10385,"weet":10386,"top":10387,"tegdóor":10388,"ganee":10389,"ganna":10390,"feeñoo":10391,"yoq":10392,"yolet":10393,"santa":10394,"sandiri":10395,"téemeeri":10396,"yëng":10397,"yëngoo":10398,"weddina":10399,"bej":10400,"wogaraafi":10401,"arizona":10402,"ñëwuma":10403,"xeexam":10404,"xeeri":10405,"laylaa":10406,"andre":10407,"jooyi":10408,"fayda":10409,"stras":10410,"kenu":10411,"kemb":10412,"niiri":10413,"reeri":10414,"reewan":10415,"liste":10416,"lëpp":10417,"mbaalu":10418,"daanoon":10419,"salv":10420,"salle":10421,"saltige":10422,"faatim":10423,"yéeri":10424,"soos":10425,"soox":10426,"xalaatin":10427,"maral":10428,"mareem":10429,"rëbës":10430,"ëppël":10431,"lough":10432,"peb":10433,"peru":10434,"jékkee":10435,"godaar":10436,"lekkukaay":10437,"toogaay":10438,"sayyi":10439,"giim":10440,"tuubar":10441,"fooge":10442,"ndamal":10443,"tuddoo":10444,"xaju":10445,"xajoo":10446,"mot":10447,"yalu":10448,"waccoo":10449,"tars":10450,"xawaare":10451,"joxey":10452,"pasi":10453,"turandoo":10454,"garabam":10455,"xëyu":10456,"cese":10457,"ispaañ":10458,"bola":10459,"bombar":10460,"tontuwul":10461,"dawleen":10462,"karta":10463,"kartoŋ":10464,"mbaq":10465,"bonn":10466,"ndugg":10467,"hami":10468,"reyaan":10469,"jarbaat":10470,"wóorëdi":10471,"ubbiteg":10472,"kereet":10473,"fowu":10474,"four":10475,"xaarul":10476,"manuleen":10477,"dañal":10478,"ñaawteefi":10479,"xonqnopp":10480,"paase":10481,"illes":10482,"gennee":10483,"dikkaat":10484,"raange":10485,"mbege":10486,"ramatu":10487,"pentuur":10488,"fattewuma":10489,"denci":10490,"mbébet":10491,"shar":10492,"aha":10493,"ahma":10494,"dëppóo":10495,"bakkanu":10496,"juddo":10497,"léttu":10498,"goroom":10499,"wëliif":10500,"tëjleen":10501,"tooñee":10502,"dellooti":10503,"taqq":10504,"saytukatu":10505,"verres":10506,"ologie":10507,"ngalee":10508,"tangoon":10509,"vier":10510,"diisaayu":10511,"tambaliwaat":10512,"jekkul":10513,"ngande":10514,"jéggaani":10515,"njukkël":10516,"bóotam":10517,"doktor":10518,"porte":10519,"mujji":10520,"cëru":10521,"nny":10522,"aqam":10523,"yaxantug":10524,"sunnë":10525,"feeñul":10526,"meññent":10527,"ndarakam":10528,"waruwaay":10529,"koldaa":10530,"muucu":10531,"baxdaad":10532,"pooru":10533,"salaad":10534,"bennaanu":10535,"jonkan":10536,"safaanook":10537,"asani":10538,"francais":10539,"pólotigu":10540,"ropplaanu":10541,"albustam":10542,"ñenteelu":10543,"njambat":10544,"wóoloo":10545,"egel":10546,"njombe":10547,"niroowul":10548,"bëggumaa":10549,"nammoon":10550,"billaahi":10551,"imbrat":10552,"feppmaandu":10553,"fentkat":10554,"fëlóor":10555,"stem":10556,"rataxal":10557,"waxtaani":10558,"fury":10559,"jiroomi":10560,"sappoŋ":10561,"délsee":10562,"ayibi":10563,"ayibal":10564,"jakkarlo":10565,"jébblé":10566,"mbóotammingi":10567,"lajjee":10568,"pólisu":10569,"wilson":10570,"willough":10571,"warugaram":10572,"maneesula":10573,"jëfëndiko":10574,"dërkiis":10575,"njambaarte":10576,"njambaarteg":10577,"manifes":10578,"manifest":10579,"sëriis":10580,"afandi":10581,"yóbbante":10582,"laabiiré":10583,"toqq":10584,"xadiija":10585,"wóppa":10586,"alegsandiri":10587,"jeegoy":10588,"yéenékaay":10589,"njobbaxtanu":10590,"bolkowski":10591,"dagaanyaw":10592,"acti":10593,"yërëme":10594,"histo":10595,"bijjaan":10596,"temmbe":10597,"metiitlu":10598,"qibla":10599,"gëwéel":10600,"yolomal":10601,"jeynaba":10602,"téefug":10603,"pattaliku":10604,"sëlmuji":10605,"atleti":10606,"yobboo":10607,"cokkaas":10608,"aristo":10609,"dëgërluwiin":10610,"pelosi":10611,"liberiyaa":10612,"virgini":10613,"buuxante":10614,"kampaañu":10615,"rajaxe":10616,"xajamal":10617,"wëttéen":10618,"jiixijaaxa":10619,"dofdoflu":10620,"kaliforñi":10621,"guwarjolaa":10622,"filosofi":10623,"liggdeesampiyoŋ":10624,"wiyetnaam":10625,"ikrima":10626,"bibliothe":10627,"simpson":10628,"jëkkëru":10629,"foroñceer":10630,"manniyu":10631,"bjorn":10632,"ndarakamm":10633,"willoughby":10634,"virginia":10635,"bibliotheque":10636,"adam":10637,"añe":10638,"bm":10639,"deen":10640,"get":10641,"hum":10642,"ksi":10643,"khu":10644,"ow":10645,"ola":10646,"opitaal":10647,"përëm":10648,"panta":10649,"qo":10650,"qaq":10651,"rd":10652,"seel":10653,"unu":10654,"uve":10655,"vé":10656,"whi":10657,"xaaru":10658,"yale":10659,"ñol":10660,"aati":10661,"aadaa":10662,"alo":10663,"almus":10664,"aljami":10665,"naxi":10666,"dium":10667,"dindee":10668,"laj":10669,"ladi":10670,"bic":10671,"binj":10672,"ngoonug":10673,"newaat":10674,"nekoon":10675,"tenne":10676,"temp":10677,"kob":10678,"komu":10679,"koli":10680,"koll":10681,"muuma":10682,"ñujox":10683,"ñudaldi":10684,"lih":10685,"lisi":10686,"lijanti":10687,"lukaay":10688,"luyaas":10689,"demati":10690,"madam":10691,"ndalal":10692,"ndoll":10693,"tuxale":10694,"niser":10695,"numé":10696,"nuróo":10697,"duñuy":10698,"data":10699,"ngirug":10700,"jukkee":10701,"misig":10702,"xamagu":10703,"kumu":10704,"fasi":10705,"jëëm":10706,"waxit":10707,"gunu":10708,"tinul":10709,"times":10710,"abbu":10711,"sidaan":10712,"sikar":10713,"sagu":10714,"rip":10715,"jinaan":10716,"jibri":10717,"gëne":10718,"samki":10719,"seli":10720,"senge":10721,"moomsabopp":10722,"waam":10723,"waati":10724,"yadd":10725,"wik":10726,"rana":10727,"racc":10728,"ñooñii":10729,"bëggam":10730,"assag":10731,"jurël":10732,"saana":10733,"saayi":10734,"saatu":10735,"saanii":10736,"taaba":10737,"wallaay":10738,"oyof":10739,"bokkug":10740,"sowe":10741,"seete":10742,"baldi":10743,"dëggam":10744,"xey":10745,"jeggi":10746,"mayo":10747,"jaab":10748,"alaam":10749,"diisal":10750,"mbooy":10751,"ëmp":10752,"ëmbu":10753,"santee":10754,"téeréy":10755,"xelñaar":10756,"wereyaan":10757,"jappndalal":10758,"aristar":10759,"gaawo":10760,"bindël":10761,"tëxam":10762,"farba":10763,"joola":10764,"stv":10765,"sté":10766,"ronu":10767,"robert":10768,"mbaaxu":10769,"ndawaan":10770,"cof":10771,"lane":10772,"faaw":10773,"tollool":10774,"toppante":10775,"takkub":10776,"leeraay":10777,"jallal":10778,"nook":10779,"nootoon":10780,"soxlaal":10781,"rédi":10782,"rëer":10783,"rafetug":10784,"lob":10785,"los":10786,"peyam":10787,"mbuusi":10788,"askanale":10789,"lambaay":10790,"fukkéel":10791,"kaaraa":10792,"geeju":10793,"dañudaan":10794,"nanguwuleen":10795,"miiru":10796,"xuru":10797,"defarug":10798,"séyaat":10799,"xalii":10800,"xalangu":10801,"xate":10802,"xajal":10803,"génnoon":10804,"waydëkk":10805,"rabal":10806,"noteel":10807,"attaw":10808,"ngemb":10809,"témboo":10810,"feeñoon":10811,"njëkkoon":10812,"ceeñee":10813,"bbc":10814,"ceññ":10815,"cendu":10816,"xewle":10817,"jaayu":10818,"sopplu":10819,"géj":10820,"parax":10821,"parsel":10822,"mënunu":10823,"rayi":10824,"tukaayu":10825,"kersay":10826,"juroomñeent":10827,"saraxi":10828,"sakkul":10829,"dimblee":10830,"jegewul":10831,"wonleen":10832,"nëgëni":10833,"dikkleen":10834,"ndom":10835,"yandoo":10836,"naroona":10837,"penal":10838,"feesoon":10839,"masaar":10840,"masji":10841,"jabari":10842,"saari":10843,"yuunus":10844,"juunu":10845,"defalul":10846,"mbalkam":10847,"njëgi":10848,"donne":10849,"daanug":10850,"taxawalee":10851,"liggéeyukaayi":10852,"watatu":10853,"fonkadi":10854,"kopparfoor":10855,"jawu":10856,"kóllare":10857,"jokko":10858,"péncée":10859,"janguleen":10860,"surgay":10861,"njañse":10862,"jekkadi":10863,"jëwriñam":10864,"ligéeyub":10865,"togge":10866,"niruwul":10867,"woowule":10868,"genru":10869,"seetlukat":10870,"nattuwaayu":10871,"sóobee":10872,"bóoti":10873,"bóome":10874,"naayoo":10875,"porox":10876,"festi":10877,"jangalekatu":10878,"dekkil":10879,"xalif":10880,"sheexu":10881,"gasal":10882,"ndimbalam":10883,"ndimbalul":10884,"xutbë":10885,"alxur":10886,"ñoree":10887,"kolla":10888,"sikket":10889,"muusa":10890,"baxal":10891,"sañsañam":10892,"digalee":10893,"yaboy":10894,"laqqu":10895,"batiment":10896,"sellaay":10897,"sellul":10898,"qalikook":10899,"sumaare":10900,"dendandoo":10901,"dendaleek":10902,"goornoor":10903,"wërsëgu":10904,"dégtu":10905,"dekkandoo":10906,"wolla":10907,"wéeruwaay":10908,"alburi":10909,"kérédi":10910,"minise":10911,"filmu":10912,"filma":10913,"sawarloo":10914,"dakkalug":10915,"mbindéefam":10916,"feppsaal":10917,"barabub":10918,"doyadal":10919,"haram":10920,"yeyoowul":10921,"cereek":10922,"rongooñi":10923,"sëllu":10924,"déllusi":10925,"pólitis":10926,"stade":10927,"xarkanamub":10928,"xottiku":10929,"umpale":10930,"suqalikug":10931,"suturaam":10932,"meentu":10933,"defaruwaat":10934,"deseene":10935,"alisti":10936,"alisra":10937,"hanbal":10938,"mangasin":10939,"njobbaxtanul":10940,"ñaasñaas":10941,"gangoor":10942,"toskare":10943,"bañaaleb":10944,"siddit":10945,"alahzab":10946,"emmanuel":10947,"garibaldi":10948,"louis":10949,"yaxantoom":10950,"ajjanay":10951,"victor":10952,"paspasu":10953,"barsaloon":10954,"assadaqat":10955,"arriqaq":10956,"sekerteer":10957,"naples":10958,"joŋanteem":10959,"ambilãs":10960,"ographie":10961,"maneefnaa":10962,"barcelone":10963,"sompaat":10964,"tannéef":10965,"pirsil":10966,"bambiloor":10967,"almusnad":10968,"binjoona":10969,"jibril":10970,"assaghir":10971,"aristark":10972,"cm":10973,"cóo":10974,"cóol":10975,"dgg":10976,"ddiis":10977,"eri":10978,"epaf":10979,"fó":10980,"ftte":10981,"grou":10982,"hton":10983,"huray":10984,"ira":10985,"ikam":10986,"ires":10987,"igreja":10988,"jkk":10989,"mr":10990,"mër":10991,"nq":10992,"nëpp":10993,"njappale":10994,"osaana":10995,"pca":10996,"rfi":10997,"rard":10998,"sk":10999,"sham":11000,"ville":11001,"vité":11002,"ympi":11003,"zin":11004,"aami":11005,"aadaam":11006,"albaa":11007,"amin":11008,"navi":11009,"diq":11010,"dien":11011,"digu":11012,"digaa":11013,"diwaani":11014,"biku":11015,"bilee":11016,"bitam":11017,"teru":11018,"tembam":11019,"arsan":11020,"mum":11021,"muma":11022,"mubaña":11023,"akaa":11024,"ñuwax":11025,"ñubind":11026,"ayoo":11027,"bugg":11028,"bunde":11029,"butit":11030,"line":11031,"limuy":11032,"denga":11033,"madina":11034,"maga":11035,"ndoon":11036,"ndand":11037,"tukat":11038,"nil":11039,"nich":11040,"duam":11041,"dagu":11042,"danan":11043,"dail":11044,"juve":11045,"ming":11046,"misaalum":11047,"mick":11048,"xamatuma":11049,"mbre":11050,"jëlul":11051,"waxatu":11052,"caggan":11053,"lebi":11054,"lenge":11055,"tic":11056,"tiŋ":11057,"tifi":11058,"tiyat":11059,"wure":11060,"wunti":11061,"sinab":11062,"safal":11063,"olympi":11064,"red":11065,"reyoon":11066,"defin":11067,"taine":11068,"jile":11069,"seentu":11070,"gëst":11071,"mantu":11072,"manti":11073,"sepp":11074,"fede":11075,"fenisi":11076,"jap":11077,"jatu":11078,"baasell":11079,"fug":11080,"galu":11081,"kabi":11082,"kañaan":11083,"kataŋ":11084,"wiyee":11085,"rakku":11086,"dëmi":11087,"etaa":11088,"teewaayam":11089,"melale":11090,"taloo":11091,"ñook":11092,"assal":11093,"assalaamu":11094,"demna":11095,"koorug":11096,"jurna":11097,"daani":11098,"gadi":11099,"gajj":11100,"taad":11101,"wallaa":11102,"walliy":11103,"yaax":11104,"mëq":11105,"saxe":11106,"jambaaru":11107,"solul":11108,"noonub":11109,"seeru":11110,"seetaane":11111,"seetaani":11112,"balkaan":11113,"xewee":11114,"woowal":11115,"deewee":11116,"dëkkoo":11117,"dëkkaale":11118,"bégg":11119,"xarkanamu":11120,"jaabi":11121,"joxu":11122,"joxul":11123,"kawu":11124,"kaweel":11125,"medinaa":11126,"fande":11127,"tomas":11128,"alier":11129,"ganjar":11130,"yopas":11131,"sann":11132,"weddee":11133,"bekku":11134,"beqi":11135,"wotee":11136,"gaambi":11137,"bindëm":11138,"andaari":11139,"tëkk":11140,"tëeru":11141,"taxawalaat":11142,"yéeneem":11143,"fayoon":11144,"géné":11145,"génnug":11146,"juróomñenti":11147,"kembaaru":11148,"sartam":11149,"ñëwam":11150,"saloo":11151,"jannaxe":11152,"bayyiwu":11153,"bayyiwoon":11154,"leeroon":11155,"poch":11156,"yaraax":11157,"ibnul":11158,"jott":11159,"yér":11160,"yérey":11161,"laayaam":11162,"soosee":11163,"pisidi":11164,"xalaatub":11165,"rëddi":11166,"kaaw":11167,"kaañ":11168,"ñaanam":11169,"low":11170,"fiil":11171,"mbumbaay":11172,"nguuraan":11173,"lekkleen":11174,"garamba":11175,"giiri":11176,"jeexe":11177,"kilifë":11178,"defarul":11179,"jafey":11180,"sellbaasell":11181,"génneel":11182,"modi":11183,"mone":11184,"moli":11185,"metter":11186,"inte":11187,"waye":11188,"wayde":11189,"notoon":11190,"rawul":11191,"quds":11192,"damaas":11193,"yaakaare":11194,"ñuulal":11195,"turqui":11196,"mbindu":11197,"indileen":11198,"xëbal":11199,"néewam":11200,"ceg":11201,"boddante":11202,"lawiiru":11203,"dawsi":11204,"xandoor":11205,"wuude":11206,"dugalul":11207,"dugalkat":11208,"dugalaat":11209,"xocc":11210,"xott":11211,"hij":11212,"wallaan":11213,"baari":11214,"reyante":11215,"déeyaale":11216,"bisnees":11217,"yonnat":11218,"limal":11219,"fob":11220,"foqati":11221,"xoos":11222,"leeraloon":11223,"saraxale":11224,"tugalasi":11225,"mbokkte":11226,"world":11227,"dëkkuwaayu":11228,"yanti":11229,"nard":11230,"xiixat":11231,"xiiroo":11232,"pende":11233,"sulye":11234,"ñetttus":11235,"fél":11236,"jubluwuma":11237,"sawu":11238,"sawaal":11239,"yaqe":11240,"muhamet":11241,"jakkay":11242,"njaamburam":11243,"dóoree":11244,"réylu":11245,"moomuñu":11246,"permi":11247,"juddal":11248,"lement":11249,"doxalini":11250,"ndépend":11251,"xasan":11252,"milimeet":11253,"saalumam":11254,"ttug":11255,"waññil":11256,"seddoo":11257,"ligeeyi":11258,"mono":11259,"fort":11260,"forox":11261,"feebaroon":11262,"ccin":11263,"genri":11264,"daley":11265,"njubadi":11266,"séydu":11267,"abuub":11268,"gerrard":11269,"silwan":11270,"makkaan":11271,"nawleem":11272,"soppikuwul":11273,"sekkere":11274,"sababoon":11275,"ñówee":11276,"kalasaan":11277,"peey":11278,"yelloowul":11279,"bëggbëggëm":11280,"ligéeykat":11281,"sarxalkaay":11282,"sarxalukaay":11283,"appare":11284,"conomi":11285,"condition":11286,"gaaraas":11287,"gaaraasu":11288,"tallalal":11289,"dendale":11290,"laquji":11291,"franco":11292,"njaalookat":11293,"mbugalu":11294,"kolonel":11295,"sikkisakka":11296,"kaalawu":11297,"likóo":11298,"sãke":11299,"fuutiyu":11300,"bëgguloo":11301,"teereb":11302,"oktuubar":11303,"tóortóori":11304,"tëll":11305,"daawda":11306,"coldaar":11307,"xërëmkat":11308,"wextan":11309,"fekkoonte":11310,"tafsir":11311,"xaadim":11312,"sëlmal":11313,"sappe":11314,"haalam":11315,"qarnu":11316,"matelas":11317,"nowammbur":11318,"ross":11319,"njëndum":11320,"jëfandikukaay":11321,"nelawul":11322,"berenis":11323,"fatik":11324,"aminadab":11325,"sërliif":11326,"lollikoo":11327,"sofico":11328,"alegsandar":11329,"toropi":11330,"yuurnu":11331,"social":11332,"blasey":11333,"foye":11334,"jegeñaaleem":11335,"namibi":11336,"njaxas":11337,"makkaanum":11338,"estaar":11339,"waaxub":11340,"ndimmbalu":11341,"moualem":11342,"africaine":11343,"marsandii":11344,"soqeekoo":11345,"wakaam":11346,"pxraaya":11347,"wahyu":11348,"vann":11349,"nammeelam":11350,"mbëggéelug":11351,"morom":11352,"indonesia":11353,"déjjati":11354,"xiirtalukaay":11355,"kilyaan":11356,"crevettes":11357,"coyy":11358,"robine":11359,"karaamay":11360,"yenguyengub":11361,"xaatimu":11362,"pamfili":11363,"restoraŋ":11364,"njoowaan":11365,"ngarab":11366,"wanqaas":11367,"servateur":11368,"sarwiisu":11369,"uragaan":11370,"njangaleem":11371,"tubaap":11372,"mandaxe":11373,"tabarkalla":11374,"sukkandiko":11375,"field":11376,"annisa":11377,"sulaymaan":11378,"gouver":11379,"ajandi":11380,"phillis":11381,"sineebar":11382,"astemaak":11383,"béjjën":11384,"instagram":11385,"alqiyamah":11386,"firndéel":11387,"cromwell":11388,"pasifik":11389,"albustami":11390,"furyk":11391,"manifestation":11392,"white":11393,"attawbah":11394,"cóolóol":11395,"mickelson":11396,"metternich":11397,"turquie":11398,"aser":11399,"ct":11400,"cti":11401,"ceex":11402,"coppit":11403,"dh":11404,"ese":11405,"era":11406,"ebola":11407,"flu":11408,"fokk":11409,"hiin":11410,"hasan":11411,"iñaan":11412,"iñaane":11413,"jees":11414,"kp":11415,"kã":11416,"ktu":11417,"lsu":11418,"lóor":11419,"llaaji":11420,"rvi":11421,"stan":11422,"slaaf":11423,"ttan":11424,"uters":11425,"yt":11426,"yamul":11427,"zaa":11428,"état":11429,"ñéen":11430,"ŋabb":11431,"oore":11432,"alkol":11433,"amatu":11434,"amaale":11435,"amadi":11436,"nakkal":11437,"antalu":11438,"dijje":11439,"dippee":11440,"laye":11441,"lajji":11442,"biographie":11443,"ngon":11444,"nger":11445,"teb":11446,"tegi":11447,"teyee":11448,"teyit":11449,"tembar":11450,"kog":11451,"kodiwaar":11452,"munaa":11453,"ñumm":11454,"éefu":11455,"lini":11456,"limaale":11457,"ligue":11458,"yirim":11459,"lumuy":11460,"desu":11461,"deŋŋ":11462,"masala":11463,"ndaay":11464,"ndol":11465,"ppit":11466,"tubé":11467,"tumur":11468,"nimu":11469,"nice":11470,"gim":11471,"gimiñ":11472,"nuul":11473,"sue":11474,"sus":11475,"super":11476,"sump":11477,"duli":11478,"duwaan":11479,"dattub":11480,"yusuf":11481,"naata":11482,"naanee":11483,"justin":11484,"miñam":11485,"até":11486,"atteg":11487,"ordinaatëer":11488,"kuñu":11489,"fast":11490,"looco":11491,"jëfee":11492,"jëlati":11493,"waxoo":11494,"waxtoo":11495,"waxukaay":11496,"waxiinu":11497,"waxande":11498,"moolu":11499,"café":11500,"guwer":11501,"lewul":11502,"time":11503,"tiber":11504,"tisig":11505,"tiwit":11506,"tidien":11507,"wunt":11508,"abba":11509,"abaas":11510,"sikaa":11511,"sisil":11512,"siyus":11513,"elk":11514,"elen":11515,"safoo":11516,"reuters":11517,"nekkutoon":11518,"rica":11519,"ñig":11520,"jik":11521,"jiwul":11522,"jibuti":11523,"gëtt":11524,"mangaan":11525,"kirëer":11526,"ruwaay":11527,"ith":11528,"iteem":11529,"sere":11530,"seil":11531,"feñ":11532,"maaka":11533,"yakku":11534,"yason":11535,"baate":11536,"baalul":11537,"yeexal":11538,"yeexa":11539,"laafa":11540,"njel":11541,"baraay":11542,"barsa":11543,"barsaa":11544,"booleel":11545,"fumu":11546,"gisaane":11547,"éentu":11548,"kap":11549,"kaña":11550,"willi":11551,"rad":11552,"doonuñu":11553,"anga":11554,"angaan":11555,"koobe":11556,"loolule":11557,"daadi":11558,"jose":11559,"saaf":11560,"saak":11561,"kanaara":11562,"dédd":11563,"tooñaa":11564,"toogaat":11565,"yaayi":11566,"gei":11567,"gelaw":11568,"yebu":11569,"antey":11570,"jamme":11571,"soccu":11572,"ñatum":11573,"tammoon":11574,"balay":11575,"kennkenn":11576,"deewe":11577,"dëkksi":11578,"donu":11579,"doyee":11580,"dogan":11581,"xaram":11582,"yooru":11583,"bayyeek":11584,"menul":11585,"tote":11586,"toje":11587,"sëti":11588,"nataalkat":11589,"dundalaat":11590,"feeña":11591,"feelug":11592,"yomba":11593,"ëmmë":11594,"sancam":11595,"téewul":11596,"xelmati":11597,"japplante":11598,"gaanu":11599,"yóoxu":11600,"tëli":11601,"jooyoo":11602,"déggóo":11603,"dégguñu":11604,"dégguma":11605,"jógul":11606,"juróomñeenteelu":11607,"ddukaay":11608,"strali":11609,"keñ":11610,"kenuy":11611,"roc":11612,"roŋ":11613,"roman":11614,"sarl":11615,"saraa":11616,"sarbet":11617,"lëng":11618,"mbaamu":11619,"mbaamam":11620,"cofeelug":11621,"banki":11622,"sallam":11623,"jankon":11624,"léebi":11625,"léelée":11626,"takkug":11627,"post":11628,"poñe":11629,"yéegug":11630,"régi":11631,"marti":11632,"marok":11633,"góora":11634,"góornamaa":11635,"ëppi":11636,"fiire":11637,"peñe":11638,"umpu":11639,"fukkak":11640,"toogloo":11641,"garde":11642,"kiris":11643,"xéewëlé":11644,"kilib":11645,"xuppe":11646,"fooy":11647,"njiitug":11648,"mosal":11649,"mosul":11650,"mettiit":11651,"instein":11652,"delluwaay":11653,"rabbin":11654,"nowel":11655,"jammal":11656,"tés":11657,"yaakaaram":11658,"feeñalee":11659,"wëroon":11660,"sonnu":11661,"anamam":11662,"bbet":11663,"néewël":11664,"island":11665,"istuwaar":11666,"tontuwu":11667,"addunay":11668,"këy":11669,"misk":11670,"taggaleek":11671,"dugalal":11672,"parte":11673,"mënula":11674,"buntam":11675,"ajibind":11676,"darr":11677,"ñiiy":11678,"ñebbe":11679,"keram":11680,"kerkeraan":11681,"foŋ":11682,"fofana":11683,"manunoo":11684,"xooj":11685,"juroomñaarfukk":11686,"juroombenni":11687,"melokaani":11688,"ndabi":11689,"dikké":11690,"mbek":11691,"fall":11692,"fét":11693,"féy":11694,"dégluwuñu":11695,"jublug":11696,"jubluwu":11697,"masque":11698,"masrvi":11699,"wiiw":11700,"mbow":11701,"mboqu":11702,"mbonaat":11703,"mbotum":11704,"entre":11705,"jaxi":11706,"fital":11707,"jeewal":11708,"firmi":11709,"firndé":11710,"fajoon":11711,"nettaliji":11712,"farãse":11713,"terewu":11714,"xaymaa":11715,"goree":11716,"joojuy":11717,"gayus":11718,"olom":11719,"yellool":11720,"kóllër":11721,"ligeeye":11722,"njubëm":11723,"musalal":11724,"séddëlé":11725,"oms":11726,"njagg":11727,"xataal":11728,"telegram":11729,"teguñu":11730,"ligéeyam":11731,"kasob":11732,"yéglekaay":11733,"palam":11734,"gental":11735,"thro":11736,"abuu":11737,"gereew":11738,"kumpë":11739,"tuubee":11740,"mbaxal":11741,"waajtaay":11742,"feral":11743,"hou":11744,"coonob":11745,"digeb":11746,"dafrique":11747,"songaay":11748,"bury":11749,"sabablu":11750,"mujjewul":11751,"kaloo":11752,"kalpe":11753,"jiitaloon":11754,"jakkaarlool":11755,"laqal":11756,"maneesul":11757,"jonni":11758,"ngoram":11759,"kóngo":11760,"mbaram":11761,"saalit":11762,"frans":11763,"weccet":11764,"raxasal":11765,"binbin":11766,"maxam":11767,"ndayi":11768,"palaasam":11769,"kolombi":11770,"sikkimam":11771,"nettlee":11772,"jaasiy":11773,"kafaara":11774,"njéggi":11775,"ministar":11776,"njuumteem":11777,"patit":11778,"kawaru":11779,"nandoo":11780,"cosaani":11781,"céetal":11782,"peresidaa":11783,"noyyee":11784,"chei":11785,"yittéy":11786,"sallaaw":11787,"yeyoowuma":11788,"ndombog":11789,"tafsiir":11790,"beggoon":11791,"nement":11792,"jëflanteb":11793,"wuyusi":11794,"fippug":11795,"wérgiyaramu":11796,"jébbël":11797,"diisook":11798,"taarixkat":11799,"stadium":11800,"tektale":11801,"jahlin":11802,"johnny":11803,"bëgganteleen":11804,"njobbaxtalu":11805,"nelawal":11806,"rabuall":11807,"jeneer":11808,"bahru":11809,"holt":11810,"litté":11811,"mandinke":11812,"faramface":11813,"bóli":11814,"mettitlu":11815,"addari":11816,"syste":11817,"aydapoor":11818,"njappum":11819,"kureelub":11820,"gëmméentu":11821,"takkandeeru":11822,"cakkutéef":11823,"feret":11824,"mbiib":11825,"funki":11826,"ndigëlam":11827,"liberte":11828,"demandoodi":11829,"ndirool":11830,"ndiróol":11831,"beneŋ":11832,"gisinu":11833,"waasinton":11834,"yobbaale":11835,"rongoñi":11836,"bajjo":11837,"gëstoo":11838,"tariixab":11839,"añub":11840,"toogandook":11841,"ñurumtu":11842,"livre":11843,"tooñuma":11844,"quotidien":11845,"rabiihus":11846,"tuyaaba":11847,"guyaab":11848,"español":11849,"klimaab":11850,"umayr":11851,"sukkuraat":11852,"olimpi":11853,"diganteem":11854,"maurice":11855,"ndugalum":11856,"tukuloor":11857,"niwaakin":11858,"histoire":11859,"numéro":11860,"pólitisyen":11861,"digaaleb":11862,"tiberyadd":11863,"william":11864,"aga":11865,"abiya":11866,"afeer":11867,"bt":11868,"bgg":11869,"bce":11870,"bbaas":11871,"fd":11872,"fox":11873,"gk":11874,"gã":11875,"gris":11876,"ile":11877,"ilaa":11878,"indépend":11879,"jalla":11880,"jer":11881,"jakar":11882,"kddu":11883,"këppu":11884,"lm":11885,"lá":11886,"llu":11887,"lokk":11888,"mara":11889,"móor":11890,"ogu":11891,"onesi":11892,"plat":11893,"rs":11894,"ró":11895,"sko":11896,"snan":11897,"tã":11898,"tru":11899,"taayam":11900,"ucad":11901,"wolo":11902,"xée":11903,"xaay":11904,"xër":11905,"xati":11906,"ëñ":11907,"ëmbaale":11908,"ñall":11909,"aaje":11910,"eeg":11911,"alay":11912,"alaw":11913,"alul":11914,"alferet":11915,"amon":11916,"cia":11917,"nac":11918,"nawi":11919,"naxu":11920,"anndul":11921,"bire":11922,"neb":11923,"archi":11924,"kondaa":11925,"muh":11926,"muwar":11927,"mulaaj":11928,"mutoll":11929,"musuma":11930,"ñuxañ":11931,"aysa":11932,"bulë":11933,"luk":11934,"dembaa":11935,"masoo":11936,"manante":11937,"bab":11938,"basin":11939,"bañul":11940,"tunu":11941,"tundi":11942,"tumbu":11943,"nique":11944,"ginaa":11945,"giñe":11946,"nubaña":11947,"nuroo":11948,"sunday":11949,"sujóo":11950,"enti":11951,"entaan":11952,"dae":11953,"daga":11954,"dafaa":11955,"yuq":11956,"yuti":11957,"naana":11958,"naanul":11959,"jula":11960,"miti":11961,"awf":11962,"ory":11963,"kung":11964,"mband":11965,"jëlu":11966,"waxantu":11967,"catul":11968,"guñ":11969,"gundaa":11970,"lewo":11971,"lefum":11972,"aanke":11973,"sila":11974,"simaa":11975,"sijaa":11976,"siwil":11977,"eller":11978,"safu":11979,"sains":11980,"ondeŋ":11981,"defnañu":11982,"jibee":11983,"gëmi":11984,"mant":11985,"mangi":11986,"kireer":11987,"sambaab":11988,"rusul":11989,"rupt":11990,"itoo":11991,"fete":11992,"moome":11993,"maasam":11994,"maajoor":11995,"jafeel":11996,"jack":11997,"jajji":11998,"yag":11999,"baangi":12000,"yeena":12001,"njot":12002,"booboo":12003,"fuñu":12004,"fuddu":12005,"biiw":12006,"gisóo":12007,"nitt":12008,"fici":12009,"gallaaj":12010,"leeri":12011,"kaŋ":12012,"kañu":12013,"kabiir":12014,"kapitaal":12015,"kafour":12016,"mooytu":12017,"wisit":12018,"rañ":12019,"rabat":12020,"ñaaral":12021,"dëñ":12022,"etaas":12023,"teela":12024,"teeku":12025,"talal":12026,"kooru":12027,"kookooy":12028,"urs":12029,"looluy":12030,"gasama":12031,"jotaayi":12032,"saada":12033,"saañaa":12034,"saadiq":12035,"wallaahi":12036,"waliis":12037,"kanaan":12038,"kanye":12039,"gënoona":12040,"mësa":12041,"gena":12042,"gepp":12043,"gejji":12044,"sunum":12045,"nattam":12046,"liig":12047,"balaas":12048,"ador":12049,"xej":12050,"wooy":12051,"wooti":12052,"deek":12053,"wage":12054,"tanoor":12055,"dëkké":12056,"dëkkaani":12057,"jef":12058,"mayug":12059,"dogg":12060,"dofe":12061,"xarale":12062,"jaawo":12063,"jaambu":12064,"joxaat":12065,"bayee":12066,"melu":12067,"mesi":12068,"meuve":12069,"diim":12070,"tombe":12071,"alikeñ":12072,"mboole":12073,"daldine":12074,"sësul":12075,"sëppu":12076,"konngere":12077,"ganjaay":12078,"feet":12079,"santal":12080,"yëkku":12081,"weyal":12082,"bei":12083,"wos":12084,"arin":12085,"seneau":12086,"doxug":12087,"doxiinu":12088,"naanleen":12089,"liggéeyee":12090,"jigé":12091,"fekkul":12092,"fayul":12093,"juróomeel":12094,"jjeeku":12095,"wét":12096,"wéttal":12097,"niin":12098,"sartub":12099,"lëmbaa":12100,"lëndam":12101,"ñakku":12102,"ndawndawaan":12103,"bankaasu":12104,"jaaroy":12105,"jaaraama":12106,"neexuma":12107,"gëmmeentu":12108,"toppat":12109,"leeralaat":12110,"yarr":12111,"rékki":12112,"maram":12113,"marwa":12114,"rëyee":12115,"rëccu":12116,"rëŋŋ":12117,"duggagul":12118,"kaana":12119,"kaasa":12120,"mbug":12121,"mbum":12122,"gota":12123,"mujjantalu":12124,"akistaan":12125,"giiroo":12126,"ofitoo":12127,"dañul":12128,"tuus":12129,"taalib":12130,"metiitu":12131,"inrupt":12132,"waydenc":12133,"wayjëfandiku":12134,"gëramul":12135,"yala":12136,"note":12137,"noire":12138,"ngemboo":12139,"waccleen":12140,"taraay":12141,"yokkee":12142,"doomundey":12143,"yaakaarna":12144,"sonalee":12145,"sëriñe":12146,"néewi":12147,"néewte":12148,"isma":12149,"bona":12150,"wani":12151,"mbattu":12152,"taggtoo":12153,"laloon":12154,"doyle":12155,"doytal":12156,"manatee":12157,"xomm":12158,"hiv":12159,"parteem":12160,"russie":12161,"mënuta":12162,"hamil":12163,"yamu":12164,"rayon":12165,"limon":12166,"xaarandi":12167,"tuber":12168,"juroomñetteelu":12169,"sange":12170,"chau":12171,"chos":12172,"sakkee":12173,"dimble":12174,"dimblée":12175,"nëbbal":12176,"dikkoon":12177,"ndogo":12178,"noppaloo":12179,"dogaloon":12180,"tawhii":12181,"xiim":12182,"penkoom":12183,"wutleen":12184,"tabaxu":12185,"ñeelna":12186,"masnaa":12187,"amalee":12188,"saart":12189,"defewoon":12190,"njaamu":12191,"ëllëgee":12192,"sence":12193,"mébat":12194,"moroomi":12195,"kameraa":12196,"ñoñi":12197,"lemp":12198,"xayri":12199,"taalal":12200,"tukkiy":12201,"légé":12202,"ruux":12203,"ruumandaa":12204,"wëyal":12205,"dajewaat":12206,"laalo":12207,"bégloo":12208,"yaatug":12209,"fendi":12210,"wattul":12211,"seexul":12212,"riisu":12213,"militaŋ":12214,"jëndee":12215,"bërab":12216,"xéll":12217,"jekkee":12218,"këruus":12219,"payam":12220,"ngëmëm":12221,"juróombenneel":12222,"sababi":12223,"sóonu":12224,"bareetul":12225,"koomkoomi":12226,"tëralini":12227,"adirati":12228,"silwaa":12229,"porkireer":12230,"porofitoo":12231,"diwtiir":12232,"mujjul":12233,"jaloorey":12234,"buusu":12235,"fëx":12236,"taaruwul":12237,"caxat":12238,"songee":12239,"yégoon":12240,"munti":12241,"woyoflu":12242,"kollar":12243,"kollare":12244,"keesug":12245,"péeté":12246,"jaxaso":12247,"tëgge":12248,"gadday":12249,"mentu":12250,"koonte":12251,"njegenaay":12252,"maneesnaa":12253,"gindikat":12254,"liggéeykatam":12255,"summil":12256,"ngannaayam":12257,"lette":12258,"jariñul":12259,"sëydinaa":12260,"juróomfukkeelu":12261,"aguero":12262,"ndefarug":12263,"tappoo":12264,"tappandaar":12265,"nettle":12266,"dundiinu":12267,"njalbeen":12268,"kéwël":12269,"egy":12270,"cosaanul":12271,"liggeeye":12272,"ngënéelam":12273,"maccaat":12274,"nappaaje":12275,"tóortóoram":12276,"gëmuma":12277,"ñemewul":12278,"sipper":12279,"diinéy":12280,"harvard":12281,"bokkuleen":12282,"bokkuloo":12283,"taariixkat":12284,"kompaa":12285,"nekkinam":12286,"birima":12287,"xérëm":12288,"sëfaan":12289,"daŋar":12290,"toloftolof":12291,"sutuxlu":12292,"xolliwul":12293,"sankara":12294,"alhay":12295,"dóór":12296,"saamóori":12297,"summiku":12298,"sister":12299,"balluwaay":12300,"fimne":12301,"golgota":12302,"gërëmut":12303,"munuma":12304,"alisme":12305,"yewen":12306,"sociaux":12307,"nekkaatna":12308,"xammiwuñu":12309,"sooroor":12310,"jëflënteek":12311,"bolondeŋ":12312,"xóote":12313,"kureeli":12314,"jaaruwaay":12315,"tableau":12316,"buddin":12317,"imbraatoo":12318,"jappuleen":12319,"baanabaana":12320,"abiib":12321,"abiihi":12322,"jappandil":12323,"yeboon":12324,"palestin":12325,"catir":12326,"manatula":12327,"foytéefam":12328,"bashiir":12329,"dëddoo":12330,"graham":12331,"gille":12332,"ndenc":12333,"rongoñ":12334,"méngalee":12335,"méngaleek":12336,"sammonteek":12337,"toyota":12338,"xasidaam":12339,"séenuwul":12340,"referandom":12341,"sterling":12342,"montre":12343,"banqaasoo":12344,"princi":12345,"sonacos":12346,"njegemaar":12347,"diplomasi":12348,"rosenstein":12349,"karolin":12350,"tirbinaal":12351,"fsd":12352,"aysata":12353,"mbaxanaam":12354,"cërcitéeméer":12355,"gagné":12356,"taraawore":12357,"pyongyang":12358,"soleil":12359,"israaiila":12360,"taqalikook":12361,"hitler":12362,"bateau":12363,"batañse":12364,"janngalekat":12365,"patrick":12366,"hepatite":12367,"assuyuti":12368,"policier":12369,"ngornamaŋ":12370,"brighton":12371,"jpg":12372,"galatasar":12373,"jammarloo":12374,"strasbourg":12375,"salvador":12376,"jékkeejékki":12377,"doktoraa":12378,"temmbere":12379,"tennes":12380,"saayir":12381,"kollareg":12382,"seppali":12383,"pochette":12384,"molinari":12385,"pendemoor":12386,"appareil":12387,"ruwaayom":12388,"geiger":12389,"feeñagul":12390,"mbekte":12391,"littéra":12392,"tãasani":12393,"hamilton":12394,"adiratig":12395,"acc":12396,"adii":12397,"ajj":12398,"aus":12399,"cd":12400,"cus":12401,"crayon":12402,"eme":12403,"fttali":12404,"goom":12405,"game":12406,"hib":12407,"hom":12408,"ip":12409,"ian":12410,"int":12411,"imam":12412,"ikib":12413,"lale":12414,"mf":12415,"ojo":12416,"piir":12417,"sokk":12418,"sarah":12419,"tran":12420,"ure":12421,"uwaay":12422,"uil":12423,"utili":12424,"wati":12425,"yaku":12426,"zam":12427,"ég":12428,"ñëgg":12429,"óm":12430,"ót":12431,"oodi":12432,"eetu":12433,"alar":12434,"alka":12435,"annu":12436,"kkiteem":12437,"dir":12438,"digub":12439,"lac":12440,"lako":12441,"layi":12442,"lage":12443,"bici":12444,"bindi":12445,"nene":12446,"nepp":12447,"nenn":12448,"arab":12449,"muñu":12450,"muut":12451,"akasaa":12452,"ñudul":12453,"bure":12454,"éeri":12455,"lie":12456,"lier":12457,"yim":12458,"lunuy":12459,"dege":12460,"deser":12461,"deseer":12462,"deqale":12463,"desitu":12464,"maz":12465,"masee":12466,"maire":12467,"basi":12468,"baga":12469,"ndaali":12470,"tumaa":12471,"giyaram":12472,"nue":12473,"nuyo":12474,"numana":12475,"suwaa":12476,"dudoon":12477,"dabe":12478,"naaf":12479,"naatang":12480,"naafeq":12481,"milan":12482,"atiir":12483,"ataak":12484,"awale":12485,"xamtu":12486,"kuyaa":12487,"kulë":12488,"faji":12489,"faute":12490,"mber":12491,"mbël":12492,"waxsi":12493,"waxset":12494,"guerre":12495,"leŋ":12496,"lebe":12497,"tib":12498,"tiram":12499,"siwe":12500,"siraa":12501,"siyaas":12502,"sistem":12503,"sase":12504,"sasoo":12505,"resa":12506,"redd":12507,"nekkiinam":12508,"rifis":12509,"ñibi":12510,"jil":12511,"gëbla":12512,"mangas":12513,"kif":12514,"sampal":12515,"rusa":12516,"seb":12517,"seq":12518,"semb":12519,"moomeeli":12520,"waaf":12521,"waatee":12522,"waatal":12523,"maada":12524,"maafe":12525,"maandeem":12526,"jaco":12527,"jagul":12528,"yabu":12529,"yafal":12530,"baatal":12531,"laas":12532,"ddy":12533,"njee":12534,"njén":12535,"njoor":12536,"baru":12537,"biirub":12538,"gisnga":12539,"gisante":12540,"leeb":12541,"leeku":12542,"waroo":12543,"warsaw":12544,"wicc":12545,"dëmb":12546,"dëel":12547,"dëger":12548,"teerey":12549,"teerub":12550,"asiir":12551,"jombul":12552,"joue":12553,"jomono":12554,"taakoon":12555,"bori":12556,"boro":12557,"borub":12558,"réewmi":12559,"yaasiin":12560,"yaafus":12561,"yebbi":12562,"saxug":12563,"jame":12564,"jaman":12565,"jamoon":12566,"som":12567,"sour":12568,"sopo":12569,"liiñ":12570,"boppub":12571,"xetug":12572,"waj":12573,"jele":12574,"bésam":12575,"dogi":12576,"dongay":12577,"donaal":12578,"ndiiraan":12579,"baaxi":12580,"baaxaayu":12581,"jaak":12582,"alaaxira":12583,"kawas":12584,"fanaanu":12585,"fanaani":12586,"aliwun":12587,"mboolaayi":12588,"yoyu":12589,"yombe":12590,"yonantam":12591,"sanu":12592,"sangal":12593,"sancee":12594,"téerlu":12595,"bësal":12596,"bëbb":12597,"yëngoom":12598,"doomoo":12599,"yawu":12600,"jëmee":12601,"wend":12602,"jappaat":12603,"jappalekat":12604,"woññi":12605,"senegambi":12606,"senegaale":12607,"gaak":12608,"gaawaay":12609,"suuxal":12610,"soldat":12611,"tës":12612,"tëbal":12613,"tëkkal":12614,"tëbës":12615,"ndekkiteem":12616,"farloo":12617,"jëkke":12618,"jógandoo":12619,"léppi":12620,"kerug":12621,"keppu":12622,"rotal":12623,"lëw":12624,"salte":12625,"lanti":12626,"janoog":12627,"faaso":12628,"toppo":12629,"takkaayu":12630,"takkderi":12631,"leerna":12632,"jallaat":12633,"poe":12634,"noote":12635,"ping":12636,"xalaataat":12637,"républi":12638,"attekatu":12639,"jëfé":12640,"fiiw":12641,"jéri":12642,"umra":12643,"lambu":12644,"lammeñ":12645,"lambatu":12646,"gow":12647,"gomor":12648,"sayloo":12649,"tiitu":12650,"dantite":12651,"geesul":12652,"dañudoon":12653,"gooy":12654,"xun":12655,"xuur":12656,"xaliil":12657,"moham":12658,"tabbu":12659,"inna":12660,"rabbee":12661,"nom":12662,"notee":12663,"nosiin":12664,"yaakaara":12665,"yaakaari":12666,"joxewul":12667,"pacci":12668,"aggug":12669,"wonewul":12670,"sonaloon":12671,"turëm":12672,"indiwul":12673,"xëtër":12674,"boj":12675,"bone":12676,"bosam":12677,"bojj":12678,"xewwi":12679,"karasol":12680,"mbaj":12681,"taggate":12682,"yëgé":12683,"dugalkatu":12684,"xobbet":12685,"taalibeb":12686,"boolewul":12687,"hisaab":12688,"parasol":12689,"jëfandi":12690,"daray":12691,"tambalib":12692,"reykat":12693,"soxlawuñu":12694,"yamuñu":12695,"netti":12696,"jaree":12697,"daqul":12698,"rayante":12699,"fos":12700,"foñ":12701,"fokat":12702,"xootal":12703,"esawu":12704,"juroomfukki":12705,"woroon":12706,"paasu":12707,"dikkalee":12708,"ndofe":12709,"yantoo":12710,"rama":12711,"xiifal":12712,"céru":12713,"céram":12714,"njangatu":12715,"gammug":12716,"mbodj":12717,"qiyaam":12718,"saarata":12719,"xaritook":12720,"fitnaale":12721,"juumul":12722,"jéemoon":12723,"dóoroon":12724,"fajkati":12725,"ders":12726,"maggalkaay":12727,"ahmat":12728,"dëppo":12729,"tereŋ":12730,"dooraat":12731,"pergam":12732,"pénn":12733,"xaysar":12734,"wëndeel":12735,"delloowaat":12736,"taqe":12737,"ajji":12738,"yellul":12739,"séeréeru":12740,"gëstug":12741,"areyopas":12742,"tangooru":12743,"xét":12744,"xarañam":12745,"matalee":12746,"ligeeyub":12747,"séddalikoo":12748,"sabali":12749,"wanewu":12750,"amuñ":12751,"siinsaalum":12752,"mamm":12753,"ngëmug":12754,"gëltappe":12755,"njuñ":12756,"béeru":12757,"waajaloon":12758,"kurpe":12759,"haad":12760,"xëccóo":12761,"makkan":12762,"móodoo":12763,"gattub":12764,"ãasu":12765,"gisuloo":12766,"coppitey":12767,"jigeeni":12768,"sampaat":12769,"ñibbisee":12770,"warumaa":12771,"tëraliin":12772,"roye":12773,"péeyam":12774,"andalusi":12775,"peeg":12776,"tallalee":12777,"tions":12778,"boromkëram":12779,"bëggbëggi":12780,"ligéeykati":12781,"njegamaar":12782,"kóllëreg":12783,"jiitalug":12784,"jeexitali":12785,"selle":12786,"muuroon":12787,"conseil":12788,"bennub":12789,"déggoob":12790,"jonson":12791,"ngoroy":12792,"khali":12793,"mbaxanay":12794,"maxa":12795,"maxrib":12796,"sëydi":12797,"teraangaam":12798,"zig":12799,"agun":12800,"kóoluteg":12801,"bijãa":12802,"tappal":12803,"demokaraat":12804,"ndëng":12805,"kinson":12806,"egsee":12807,"waññee":12808,"filme":12809,"ñaarfukkeelu":12810,"ness":12811,"yoonalug":12812,"céetu":12813,"billet":12814,"liggeeyu":12815,"liggeeyukaay":12816,"faalewuma":12817,"xeeñal":12818,"tissu":12819,"gabong":12820,"jaraafam":12821,"tënkub":12822,"elef":12823,"yeyoowu":12824,"nettlina":12825,"break":12826,"rongooñu":12827,"tefesi":12828,"gawlo":12829,"naataangoo":12830,"xasidag":12831,"boyal":12832,"diop":12833,"telefonam":12834,"feexal":12835,"jortu":12836,"nelawee":12837,"jefandiko":12838,"faatiha":12839,"sëriif":12840,"meññatum":12841,"gërëme":12842,"socié":12843,"këyiti":12844,"yonenti":12845,"addaa":12846,"adday":12847,"syl":12848,"nobante":12849,"góogu":12850,"moomeelug":12851,"republi":12852,"fóotal":12853,"valence":12854,"ndëgërlaay":12855,"gafakaam":12856,"palaŋ":12857,"insti":12858,"gangooru":12859,"shuab":12860,"tubaarkalla":12861,"hisham":12862,"coloni":12863,"gannaayooleen":12864,"rewle":12865,"baagante":12866,"himma":12867,"europe":12868,"kiliyaanam":12869,"digëli":12870,"daaneele":12871,"chamber":12872,"rammukat":12873,"almaseem":12874,"culture":12875,"xasiday":12876,"tariixa":12877,"ndoddam":12878,"femme":12879,"ngelawul":12880,"alhajj":12881,"andaale":12882,"dolleeku":12883,"diego":12884,"seeluwi":12885,"artist":12886,"sinayi":12887,"joqalante":12888,"caagéenug":12889,"bagaasam":12890,"mbegte":12891,"jawriñi":12892,"alfunniy":12893,"activité":12894,"lihsaan":12895,"jaabante":12896,"olympique":12897,"walliyoom":12898,"tumuraanke":12899,"tooñaange":12900,"njéggil":12901,"systeme":12902,"gundaandaat":12903,"sijaada":12904,"beijing":12905,"tawhiid":12906,"ruumandaat":12907,"utiliser":12908,"ataakãa":12909,"fauteuil":12910,"tiramakan":12911,"joueur":12912,"aqu":12913,"añam":12914,"avel":12915,"abijãa":12916,"byn":12917,"cle":12918,"crati":12919,"ela":12920,"eliy":12921,"fel":12922,"ffe":12923,"fleet":12924,"gn":12925,"hari":12926,"halal":12927,"hegel":12928,"iba":12929,"ilay":12930,"ilal":12931,"ilaaha":12932,"jm":12933,"jak":12934,"jge":12935,"kre":12936,"kénn":12937,"léew":12938,"mn":12939,"mén":12940,"nta":12941,"njulli":12942,"njëwriñu":12943,"njëfka":12944,"oc":12945,"omb":12946,"pton":12947,"rmc":12948,"salla":12949,"sto":12950,"tv":12951,"tre":12952,"tóon":12953,"thami":12954,"uut":12955,"vu":12956,"went":12957,"xaf":12958,"ygg":12959,"yante":12960,"yénn":12961,"ópi":12962,"aamii":12963,"aliin":12964,"amaay":12965,"amat":12966,"amatuma":12967,"cie":12968,"citi":12969,"nate":12970,"naru":12971,"nafi":12972,"natal":12973,"naxee":12974,"nappi":12975,"anal":12976,"annes":12977,"anndandoo":12978,"kko":12979,"difa":12980,"digeem":12981,"layool":12982,"bio":12983,"bika":12984,"biyaa":12985,"bill":12986,"ngaay":12987,"neleen":12988,"telu":12989,"texeel":12990,"arrabi":12991,"konit":12992,"koto":12993,"kongoo":12994,"mund":12995,"mujox":12996,"muame":12997,"muwaxee":12998,"ñung":12999,"bub":13000,"éer":13001,"liko":13002,"linga":13003,"lise":13004,"liñuy":13005,"lingu":13006,"likkoo":13007,"liccin":13008,"yiwee":13009,"lumb":13010,"luwaa":13011,"luuma":13012,"lunk":13013,"deo":13014,"deree":13015,"deau":13016,"desatu":13017,"desiti":13018,"mako":13019,"magal":13020,"mademba":13021,"majaxate":13022,"ggatu":13023,"bac":13024,"bana":13025,"bawul":13026,"battu":13027,"bacci":13028,"ndëpp":13029,"tudda":13030,"nih":13031,"nielson":13032,"giri":13033,"gisin":13034,"giants":13035,"aayee":13036,"aayoon":13037,"nuus":13038,"sudaa":13039,"sudan":13040,"subaak":13041,"duut":13042,"daggi":13043,"davis":13044,"ngite":13045,"ngiir":13046,"yuñu":13047,"yusu":13048,"yumaane":13049,"naafila":13050,"jube":13051,"jukaay":13052,"mid":13053,"minit":13054,"mikoro":13055,"atkinson":13056,"ordre":13057,"kuw":13058,"kukaay":13059,"kuut":13060,"kuloos":13061,"fah":13062,"fasoo":13063,"mbó":13064,"yallatey":13065,"loog":13066,"waxkat":13067,"waxtook":13068,"casam":13069,"guwaar":13070,"guere":13071,"led":13072,"lekoo":13073,"lege":13074,"tie":13075,"tien":13076,"tiket":13077,"tijjeeku":13078,"aber":13079,"silu":13080,"sini":13081,"siyo":13082,"sist":13083,"sikim":13084,"elvie":13085,"sañi":13086,"saña":13087,"sasindi":13088,"olóo":13089,"repp":13090,"defante":13091,"nekkandoo":13092,"tap":13093,"tage":13094,"tahi":13095,"taux":13096,"jim":13097,"jihu":13098,"gëti":13099,"manndar":13100,"kibu":13101,"sambu":13102,"itteem":13103,"segal":13104,"seye":13105,"selil":13106,"secre":13107,"feinstein":13108,"moommu":13109,"moomale":13110,"waaafrig":13111,"waaxi":13112,"maab":13113,"yasin":13114,"yeeru":13115,"laame":13116,"njabar":13117,"baral":13118,"baraag":13119,"bootu":13120,"fuma":13121,"galle":13122,"warnay":13123,"ccaar":13124,"rag":13125,"raññi":13126,"rasin":13127,"ragul":13128,"ragale":13129,"benntus":13130,"dëju":13131,"dëtëm":13132,"ett":13133,"tees":13134,"teeyug":13135,"talhah":13136,"asta":13137,"nguu":13138,"ngune":13139,"ngunu":13140,"daax":13141,"jotam":13142,"saanu":13143,"saabay":13144,"taaj":13145,"taam":13146,"wallee":13147,"walangaan":13148,"kante":13149,"kanngam":13150,"kannasu":13151,"déju":13152,"bokkak":13153,"bokkaaleel":13154,"yaasu":13155,"yaamee":13156,"mëdd":13157,"yep":13158,"yeble":13159,"tammee":13160,"nattable":13161,"liiñu":13162,"mbie":13163,"boroomkër":13164,"balli":13165,"dëggër":13166,"xeme":13167,"deeyal":13168,"wañaar":13169,"yoonte":13170,"mayal":13171,"maymuna":13172,"bécci":13173,"done":13174,"doli":13175,"ndiroo":13176,"ndiir":13177,"alaamu":13178,"kawlag":13179,"bayye":13180,"medi":13181,"diil":13182,"tour":13183,"tombu":13184,"tomaas":13185,"mbooj":13186,"sëtaat":13187,"kontine":13188,"xaañ":13189,"feesul":13190,"santam":13191,"bënu":13192,"yëy":13193,"yëddu":13194,"xellee":13195,"wedd":13196,"wecce":13197,"jappees":13198,"becce":13199,"beac":13200,"jiilaa":13201,"ariste":13202,"kaayam":13203,"gaatu":13204,"xeereer":13205,"xeebaate":13206,"bindéefi":13207,"andaay":13208,"tëru":13209,"faroon":13210,"farul":13211,"joojale":13212,"taxawaat":13213,"déggnaa":13214,"déggaat":13215,"déggook":13216,"jëkkar":13217,"fayee":13218,"roe":13219,"rodi":13220,"roger":13221,"reerub":13222,"sarsaara":13223,"lëndem":13224,"beesal":13225,"copi":13226,"banjul":13227,"salmon":13228,"janngal":13229,"jannatul":13230,"neexa":13231,"gëmmentu":13232,"tollo":13233,"toppoto":13234,"muccal":13235,"poliisu":13236,"bañe":13237,"delsee":13238,"amulwoon":13239,"yéefër":13240,"yéréem":13241,"yoru":13242,"nooyi":13243,"xalaas":13244,"rëg":13245,"rën":13246,"dugguñu":13247,"ñaanaluma":13248,"loxam":13249,"losi":13250,"siinu":13251,"siiwee":13252,"fiiri":13253,"peŋ":13254,"mbux":13255,"matsu":13256,"afal":13257,"mujjé":13258,"akilee":13259,"ñaabo":13260,"giif":13261,"giiram":13262,"dans":13263,"tuubul":13264,"tuubuñu":13265,"meef":13266,"jeexul":13267,"jeexagul":13268,"wallukat":13269,"xuy":13270,"foos":13271,"séyam":13272,"séwó":13273,"séwogaraafi":13274,"xañee":13275,"loxom":13276,"inb":13277,"wayli":13278,"gëram":13279,"nou":13280,"nobel":13281,"nosiinu":13282,"ñettiguy":13283,"taroon":13284,"tarde":13285,"xareji":13286,"quer":13287,"xawaari":13288,"paci":13289,"pase":13290,"wërngalu":13291,"aggsi":13292,"sonle":13293,"juntukaay":13294,"kayta":13295,"kayin":13296,"buuram":13297,"moyen":13298,"yëram":13299,"yërmaandeem":13300,"néewoon":13301,"ismaa":13302,"iskale":13303,"bowas":13304,"wanda":13305,"wanteer":13306,"wannent":13307,"dajdëpp":13308,"lakkee":13309,"karmat":13310,"mbab":13311,"mbapp":13312,"këtt":13313,"ngëmngëm":13314,"ragalleen":13315,"xosi":13316,"asamaani":13317,"hikam":13318,"géwal":13319,"part":13320,"mettitu":13321,"aamaan":13322,"hamdi":13323,"yaxxu":13324,"nammee":13325,"coowi":13326,"féer":13327,"daaraam":13328,"déedeet":13329,"yamal":13330,"rayoon":13331,"wóoroon":13332,"ubbiwaat":13333,"tërëmp":13334,"fot":13335,"espon":13336,"essence":13337,"saraxalukaayu":13338,"chet":13339,"ñaawtéefi":13340,"nëbba":13341,"dikkul":13342,"dikkaloon":13343,"bambaali":13344,"yandoor":13345,"waxtaanee":13346,"noppeek":13347,"tawreet":13348,"raax":13349,"raajihu":13350,"wéyale":13351,"pencu":13352,"pentiir":13353,"sukkal":13354,"caaday":13355,"dégluwul":13356,"rëyrëy":13357,"jëwam":13358,"gaawleen":13359,"wiil":13360,"front":13361,"yaqul":13362,"jakkaam":13363,"doxalkat":13364,"mbéy":13365,"mbégum":13366,"njaago":13367,"jeeri":13368,"cammbar":13369,"wéetee":13370,"dóore":13371,"dóorlu":13372,"defaloon":13373,"derbë":13374,"nékk":13375,"nége":13376,"bitib":13377,"shaw":13378,"ahakay":13379,"njëlu":13380,"njëlul":13381,"kamaal":13382,"ñoñu":13383,"jiitewoon":13384,"safwan":13385,"gorn":13386,"wësin":13387,"tortor":13388,"mbëjdoxalukaay":13389,"tooñoon":13390,"taxawalug":13391,"gërëmloo":13392,"taqqalikoo":13393,"taqamtiku":13394,"reewmi":13395,"tënke":13396,"yellook":13397,"riiru":13398,"mandargaay":13399,"betam":13400,"jokkoog":13401,"seydinaa":13402,"póno":13403,"pómpi":13404,"wirdam":13405,"ligeeyukaay":13406,"njubteem":13407,"ngaana":13408,"musalkatu":13409,"forse":13410,"kuréelam":13411,"defaguñu":13412,"nañook":13413,"feyleen":13414,"barabam":13415,"haus":13416,"ligéeyi":13417,"tiitoon":13418,"daawunu":13419,"fattalikuwuleen":13420,"pays":13421,"thom":13422,"juróomñaartéeméer":13423,"jéemul":13424,"rence":13425,"takkute":13426,"faraday":13427,"xamewoon":13428,"yéegoon":13429,"adir":13430,"kurwaa":13431,"porfil":13432,"gganti":13433,"deggal":13434,"yëfam":13435,"fonkleen":13436,"buubu":13437,"dekkiwul":13438,"fëyit":13439,"xóotël":13440,"jariñe":13441,"masinu":13442,"masunoo":13443,"guney":13444,"ñibbil":13445,"likul":13446,"lammiñal":13447,"suuloon":13448,"yégyég":13449,"yégyégu":13450,"warunu":13451,"caram":13452,"rëddrëdd":13453,"batã":13454,"wamaa":13455,"siiwalee":13456,"siiwaloon":13457,"jikkówóo":13458,"dink":13459,"tuswu":13460,"xaymab":13461,"irlaand":13462,"sumpu":13463,"bayyeekoo":13464,"benqal":13465,"bensudaa":13466,"kiliftéefug":13467,"mbarka":13468,"kilomeetar":13469,"tellis":13470,"binta":13471,"maxwell":13472,"dekke":13473,"dekkali":13474,"ngañdembaa":13475,"matuñu":13476,"agua":13477,"beljik":13478,"bijji":13479,"wottukati":13480,"kolos":13481,"animaal":13482,"ñeewantam":13483,"kéwel":13484,"tegtala":13485,"njureel":13486,"bëgguñoo":13487,"reenam":13488,"politiku":13489,"sakso":13490,"liggeeyam":13491,"dongaam":13492,"oksi":13493,"profesëer":13494,"dëkkuwaayam":13495,"doyadig":13496,"jaarjaari":13497,"yiwil":13498,"gennena":13499,"cawarteem":13500,"defukaayu":13501,"sosoogul":13502,"moomeelam":13503,"furne":13504,"komkom":13505,"cëslaayam":13506,"mbaaxug":13507,"ttekat":13508,"laluwul":13509,"jotewul":13510,"sankute":13511,"soww":13512,"kerepeŋ":13513,"lëjlëj":13514,"corps":13515,"corbyn":13516,"ngomblaanu":13517,"statut":13518,"diour":13519,"johannes":13520,"deppoo":13521,"masaalikul":13522,"kaccoore":13523,"sakkanal":13524,"gaawantul":13525,"doxantuji":13526,"waccuwaayu":13527,"kallaamay":13528,"nakka":13529,"yekkatiku":13530,"kimya":13531,"xollitu":13532,"alluway":13533,"alhajja":13534,"tataa":13535,"toqqu":13536,"gakkgakk":13537,"tronik":13538,"wópóol":13539,"addiisub":13540,"njaaxle":13541,"bór":13542,"kebemeer":13543,"ndegem":13544,"ñanga":13545,"ciip":13546,"giiñnaa":13547,"nërmeelu":13548,"salacel":13549,"tiitalaate":13550,"callalag":13551,"jëflëntéem":13552,"nahju":13553,"sungufu":13554,"dahdah":13555,"waaraatekat":13556,"croix":13557,"bérebi":13558,"saxarus":13559,"noddkat":13560,"wisaaroo":13561,"móolukaay":13562,"takkandeeram":13563,"jëwriñi":13564,"fuural":13565,"nattukaayu":13566,"limaamu":13567,"faggoo":13568,"kumandanu":13569,"jonjoodi":13570,"tekkaaralaan":13571,"iraag":13572,"wahshi":13573,"seytukat":13574,"gëpplanteg":13575,"christine":13576,"juroombennfukki":13577,"njaaloom":13578,"lëkkëlóok":13579,"feetewul":13580,"rëqrëq":13581,"yeraange":13582,"wéttalikoo":13583,"caaycaay":13584,"seedeelee":13585,"doŋn":13586,"medinatul":13587,"hazard":13588,"nonn":13589,"ndaamaar":13590,"gisatuñu":13591,"dëgëre":13592,"dëgërul":13593,"rocciku":13594,"fasoŋu":13595,"robowam":13596,"anternet":13597,"tupptupp":13598,"mbelli":13599,"ridob":13600,"paspasam":13601,"femmes":13602,"deppartemãa":13603,"referanndom":13604,"hawfii":13605,"lettres":13606,"mbéefar":13607,"sonatel":13608,"barakaatu":13609,"yaakaroon":13610,"yónnentam":13611,"sekkerteer":13612,"sekkerteeru":13613,"araabi":13614,"tëfli":13615,"réccoo":13616,"antarpi":13617,"qadri":13618,"yekketi":13619,"bërkidémb":13620,"cnra":13621,"direktëer":13622,"sliga":13623,"yaradiku":13624,"wurmbal":13625,"alquran":13626,"këlëbu":13627,"ashshuara":13628,"ramatulaay":13629,"aadaak":13630,"wikbaatukaay":13631,"bundesliga":13632,"tiyataar":13633,"abuubakar":13634,"toropikaal":13635,"totenaam":13636,"bceao":13637,"kondaane":13638,"sambaabóoy":13639,"lëmbaaje":13640,"bonaparte":13641,"tuberkuloos":13642,"kollarante":13643,"sippermarse":13644,"alhaythami":13645,"imbraatoorug":13646,"tennessee":13647,"desert":13648,"mohamet":13649,"kurpeñ":13650,"addaawat":13651,"eliyakim":13652,"ilayhi":13653,"casamance":13654,"séwógaraafi":13655,"esponsoor":13656,"nëbbatu":13657,"raajihuun":13658,"alhajjaj":13659,"asa":13660,"akki":13661,"avi":13662,"agum":13663,"adab":13664,"agit":13665,"band":13666,"blo":13667,"bolog":13668,"emi":13669,"elif":13670,"esas":13671,"feen":13672,"gne":13673,"gnu":13674,"gro":13675,"gool":13676,"haf":13677,"haj":13678,"io":13679,"ide":13680,"ion":13681,"ikoo":13682,"ifan":13683,"iyan":13684,"jéen":13685,"jali":13686,"jps":13687,"kax":13688,"lt":13689,"ltt":13690,"lenni":13691,"malal":13692,"nna":13693,"oul":13694,"out":13695,"oper":13696,"paar":13697,"penn":13698,"play":13699,"qee":13700,"qare":13701,"soom":13702,"swi":13703,"steel":13704,"tr":13705,"vate":13706,"ws":13707,"waw":13708,"wang":13709,"who":13710,"yéew":13711,"yenni":13712,"án":13713,"ññu":13714,"ñoon":13715,"ñóo":13716,"ób":13717,"ŋabbu":13718,"aasam":13719,"aadam":13720,"aalis":13721,"oosu":13722,"eeri":13723,"amar":13724,"amaan":13725,"cité":13726,"nadi":13727,"nawetu":13728,"naxas":13729,"ando":13730,"antul":13731,"angali":13732,"annah":13733,"dier":13734,"digé":13735,"diwaxe":13736,"divo":13737,"lañiy":13738,"labbali":13739,"biit":13740,"biraa":13741,"bilaŋ":13742,"ngeek":13743,"ngóon":13744,"nenu":13745,"newuma":13746,"tene":13747,"teddi":13748,"ardo":13749,"arme":13750,"ares":13751,"kotu":13752,"mung":13753,"mudoonoon":13754,"aksidaŋ":13755,"axam":13756,"axndiku":13757,"aya":13758,"budul":13759,"butéelu":13760,"lidi":13761,"lion":13762,"lidd":13763,"lution":13764,"deng":13765,"dexi":13766,"deseetu":13767,"maharam":13768,"ggeel":13769,"bagg":13770,"ndayu":13771,"ndaari":13772,"tugaal":13773,"nikk":13774,"nima":13775,"gid":13776,"gique":13777,"nunu":13778,"nudef":13779,"aarlook":13780,"aaróona":13781,"danar":13782,"datti":13783,"naako":13784,"naayi":13785,"minu":13786,"mitti":13787,"ataa":13788,"attafsir":13789,"awee":13790,"awal":13791,"awsa":13792,"xamati":13793,"kuko":13794,"kuti":13795,"kura":13796,"kuppe":13797,"kueng":13798,"kujjee":13799,"faso":13800,"mbenn":13801,"mbox":13802,"lootaa":13803,"jëri":13804,"waxagu":13805,"cab":13806,"gur":13807,"guru":13808,"gukaay":13809,"guin":13810,"lewan":13811,"leip":13812,"tikk":13813,"tinii":13814,"wundu":13815,"wumaak":13816,"able":13817,"aano":13818,"sinu":13819,"siyée":13820,"siyas":13821,"saim":13822,"defaasu":13823,"defanteek":13824,"nekkaale":13825,"nekkatuñu":13826,"tacti":13827,"jie":13828,"oppee":13829,"waaygëm":13830,"nagam":13831,"manto":13832,"manutoon":13833,"kigali":13834,"samu":13835,"rufis":13836,"sengoor":13837,"fesoor":13838,"moomoo":13839,"waawi":13840,"maang":13841,"maasaloo":13842,"jafal":13843,"alex":13844,"baatoo":13845,"ëré":13846,"laamu":13847,"laafu":13848,"laabir":13849,"laajuma":13850,"baras":13851,"fuy":13852,"funu":13853,"biibël":13854,"gisaan":13855,"fier":13856,"fiyaa":13857,"galo":13858,"leekol":13859,"kacci":13860,"ward":13861,"wardi":13862,"raggu":13863,"bennbenn":13864,"dërub":13865,"taloon":13866,"talul":13867,"bëggoo":13868,"bëggna":13869,"bëggaat":13870,"bëggutoon":13871,"asmaa":13872,"asom":13873,"kooba":13874,"kooram":13875,"ngue":13876,"ngun":13877,"gabu":13878,"saani":13879,"taala":13880,"taasu":13881,"taanir":13882,"waloo":13883,"kanaari":13884,"bokkut":13885,"yaalist":13886,"ñapp":13887,"noonule":13888,"adee":13889,"adou":13890,"dëggoom":13891,"deefi":13892,"deeyam":13893,"deeyandoo":13894,"jew":13895,"jere":13896,"baaxna":13897,"baaxuñu":13898,"ñoomit":13899,"jaaw":13900,"jaane":13901,"jaaogo":13902,"joxuñu":13903,"kawari":13904,"mete":13905,"mesopo":13906,"weef":13907,"tong":13908,"tombub":13909,"totte":13910,"aliyun":13911,"sëyi":13912,"xaajaloo":13913,"ganam":13914,"gantoo":13915,"feeñaat":13916,"yombu":13917,"sanna":13918,"téeli":13919,"téeye":13920,"bëla":13921,"yëngël":13922,"wes":13923,"japplu":13924,"jappandal":13925,"liggé":13926,"betu":13927,"bele":13928,"jiitale":13929,"seneraa":13930,"magh":13931,"ñëkk":13932,"suufeelu":13933,"solaat":13934,"soldaaru":13935,"binduma":13936,"tëlee":13937,"tëyé":13938,"ndell":13939,"ubale":13940,"joojo":13941,"jooyul":13942,"déggiin":13943,"ddug":13944,"stru":13945,"wéñ":13946,"rop":13947,"reed":13948,"reesal":13949,"reeroo":13950,"sarwi":13951,"sartal":13952,"sargale":13953,"lëwu":13954,"code":13955,"cofeelu":13956,"bani":13957,"banu":13958,"banii":13959,"bankub":13960,"sallal":13961,"lande":13962,"jankal":13963,"jubël":13964,"diggale":13965,"powukaay":13966,"liggéeyleen":13967,"barey":13968,"jangsi":13969,"jotaayam":13970,"yéegaat":13971,"yéwen":13972,"soobu":13973,"yorub":13974,"nootal":13975,"réé":13976,"mary":13977,"marqu":13978,"kaasi":13979,"góoru":13980,"xéewali":13981,"log":13982,"lom":13983,"lombo":13984,"fiis":13985,"fiiraange":13986,"pest":13987,"peŋŋ":13988,"mbuum":13989,"goxam":13990,"goloo":13991,"gobar":13992,"gott":13993,"dooleg":13994,"tuubug":13995,"nanguleen":13996,"usd":13997,"miiy":13998,"miinoon":13999,"jeexoon":14000,"jeexale":14001,"njiituréew":14002,"koomi":14003,"xaleelu":14004,"yaggyagg":14005,"wayu":14006,"waymoomeel":14007,"waytawati":14008,"rabbal":14009,"taral":14010,"yokkoo":14011,"xawee":14012,"weersite":14013,"solowooti":14014,"njëkkee":14015,"wërngël":14016,"aggal":14017,"aggali":14018,"aggalee":14019,"wonewu":14020,"sonne":14021,"sonnee":14022,"junné":14023,"sañse":14024,"indiy":14025,"xëj":14026,"xëccu":14027,"néewdoole":14028,"néewalal":14029,"néewnéew":14030,"cemac":14031,"nanteek":14032,"lawhul":14033,"mbasu":14034,"lalli":14035,"wuuteg":14036,"terre":14037,"jaayee":14038,"xoq":14039,"xos":14040,"ñamal":14041,"boolewuma":14042,"hid":14043,"darkase":14044,"aayumbe":14045,"nduggi":14046,"wallsi":14047,"yaxu":14048,"woyo":14049,"woyal":14050,"féetëlé":14051,"fatou":14052,"fattalee":14053,"doomiréew":14054,"soxlawu":14055,"jaraa":14056,"werandaa":14057,"laamaaru":14058,"yëngub":14059,"mbërum":14060,"limam":14061,"soreel":14062,"waatoon":14063,"fogo":14064,"esta":14065,"juroomfukk":14066,"leeralee":14067,"paskaal":14068,"daño":14069,"jënti":14070,"chré":14071,"maanam":14072,"illaaha":14073,"dikkam":14074,"ndonga":14075,"féri":14076,"eesoon":14077,"deesna":14078,"maska":14079,"mbot":14080,"jabb":14081,"saare":14082,"saareen":14083,"jaxjaxi":14084,"mbéll":14085,"njaambur":14086,"googule":14087,"yuusuf":14088,"juux":14089,"cammug":14090,"camion":14091,"sakkukati":14092,"daggte":14093,"dëggdëggëm":14094,"eeful":14095,"bitik":14096,"méñ":14097,"mbalaan":14098,"njëgg":14099,"xamalee":14100,"donju":14101,"tereg":14102,"daanul":14103,"pers":14104,"perantal":14105,"perkaal":14106,"noonee":14107,"biraan":14108,"lemon":14109,"ruuh":14110,"futbale":14111,"police":14112,"yónniwul":14113,"liggéeyul":14114,"digdaje":14115,"taqaleek":14116,"ajara":14117,"oloji":14118,"yelen":14119,"séeri":14120,"xaswat":14121,"seexal":14122,"guddal":14123,"miliyon":14124,"judduwul":14125,"hun":14126,"huday":14127,"ñeewante":14128,"video":14129,"jokklante":14130,"woteb":14131,"seddalee":14132,"póon":14133,"jangaloon":14134,"fore":14135,"forme":14136,"xatax":14137,"jekke":14138,"feyyul":14139,"teguma":14140,"tiitloo":14141,"tëddal":14142,"tëddoon":14143,"bataaxalam":14144,"palmaan":14145,"jéeju":14146,"jéemaat":14147,"bóof":14148,"séysi":14149,"fexeleen":14150,"tëralinam":14151,"yërëmtalu":14152,"sill":14153,"portale":14154,"porfesoor":14155,"fullëwu":14156,"ñaanalleen":14157,"feeñaloon":14158,"otoom":14159,"sunnay":14160,"yegge":14161,"nangami":14162,"gattañ":14163,"xalifu":14164,"xalimaam":14165,"ndimbalug":14166,"gisuleen":14167,"jikkowoo":14168,"caxatee":14169,"caru":14170,"ñoru":14171,"rëddal":14172,"mbóotu":14173,"caye":14174,"tekkale":14175,"niróo":14176,"kalante":14177,"njaqqare":14178,"appal":14179,"muurée":14180,"gaare":14181,"tallalu":14182,"cëram":14183,"xoromal":14184,"wutaloon":14185,"poñat":14186,"pëy":14187,"lëkkë":14188,"ñaqam":14189,"woppam":14190,"waareji":14191,"dundinam":14192,"demokaraa":14193,"demokarati":14194,"sëggaat":14195,"mustahiin":14196,"nekkuleen":14197,"tegtalam":14198,"kabaa":14199,"njuumtey":14200,"teenu":14201,"minër":14202,"siyaareji":14203,"lijjantee":14204,"sawaroon":14205,"reenu":14206,"politiseŋ":14207,"billaay":14208,"teereŋ":14209,"iniweersite":14210,"bisaawoo":14211,"afrigu":14212,"njeexte":14213,"hepatit":14214,"wëndée":14215,"calaw":14216,"ñattal":14217,"beggee":14218,"taggatug":14219,"mosku":14220,"ameeloon":14221,"wommatiin":14222,"olivier":14223,"oliwiyee":14224,"akundaa":14225,"sankuwul":14226,"ayibis":14227,"yasara":14228,"coroom":14229,"kóosaa":14230,"boyet":14231,"kenya":14232,"pattli":14233,"ndawalum":14234,"saasfaam":14235,"daxelef":14236,"sóori":14237,"sitisën":14238,"jigéenuwérul":14239,"georgefloyd":14240,"ñëwaluma":14241,"xajjalikoo":14242,"melalna":14243,"cafkaam":14244,"wareefam":14245,"wareefnaa":14246,"dëkkandoob":14247,"lebaloon":14248,"lingara":14249,"jotuñu":14250,"idriisa":14251,"musunoo":14252,"fuglug":14253,"foontoo":14254,"alhash":14255,"sotteegul":14256,"farandooram":14257,"eks":14258,"liitar":14259,"muurum":14260,"kippaangoog":14261,"yelleefam":14262,"mënmënam":14263,"ecópi":14264,"petorool":14265,"yéenéy":14266,"gëmgëmam":14267,"dëgmël":14268,"www":14269,"dajalo":14270,"soppeekoo":14271,"tërëliini":14272,"jóoli":14273,"nurool":14274,"yaataayumbe":14275,"mëneesu":14276,"dowski":14277,"jëwrinam":14278,"tiktok":14279,"nationalité":14280,"bañaaley":14281,"yeegoon":14282,"kapiteenu":14283,"sosiyoo":14284,"sosiyaalist":14285,"weccikatu":14286,"saraxule":14287,"penaati":14288,"juroombenneelu":14289,"bruce":14290,"yemuñu":14291,"rabbika":14292,"yolom":14293,"saafoonteek":14294,"gëlëmal":14295,"gisatul":14296,"scher":14297,"raxasul":14298,"faxas":14299,"hayni":14300,"annasai":14301,"pold":14302,"place":14303,"cafkag":14304,"xeraw":14305,"gëstul":14306,"kembaarug":14307,"pasaree":14308,"dummóoyu":14309,"jagadi":14310,"barsalon":14311,"henri":14312,"anaanaas":14313,"ndateyalla":14314,"pusó":14315,"ñéññ":14316,"faraañse":14317,"ñéep":14318,"mébétam":14319,"meksig":14320,"laziina":14321,"feccukaay":14322,"yakaar":14323,"mekanise":14324,"mekanig":14325,"réseaux":14326,"rëppëtal":14327,"massach":14328,"diktaa":14329,"njalbéenu":14330,"jym":14331,"gangunaay":14332,"amdijamm":14333,"envoyer":14334,"jëggaani":14335,"abaabakar":14336,"reewande":14337,"pantakot":14338,"niseryaa":14339,"lobservateur":14340,"garambasaa":14341,"francopho":14342,"tubéyam":14343,"indépendance":14344,"ogust":14345,"silatigi":14346,"waydencante":14347,"saartjie":14348,"lempoy":14349,"caxatcaxatee":14350,"yewenal":14351,"bureau":14352,"source":14353,"wendéelu":14354,"tëbëski":14355,"toppotoo":14356,"yeyoowumaa":14357,"pacifik":14358,"pómpiyee":14359,"bórdoo":14360,"ciipatu":14361,"lewandowski":14362,"leipzig":14363,"tiniisi":14364,"tactical":14365,"rufisque":14366,"jankalaar":14367,"gattañlu":14368,"alhashr":14369,"asu":14370,"aca":14371,"ajam":14372,"afee":14373,"aset":14374,"asaf":14375,"bã":14376,"boon":14377,"boom":14378,"bnu":14379,"bst":14380,"colli":14381,"cteur":14382,"cze":14383,"dw":14384,"dãa":14385,"dãas":14386,"dërë":14387,"edi":14388,"endo":14389,"eden":14390,"emani":14391,"endonesi":14392,"economi":14393,"fell":14394,"famu":14395,"fww":14396,"flori":14397,"gation":14398,"hda":14399,"hnawi":14400,"ij":14401,"imaa":14402,"ime":14403,"jgée":14404,"jallar":14405,"kaaru":14406,"kris":14407,"ldc":14408,"mma":14409,"mol":14410,"mmiñ":14411,"mamu":14412,"nént":14413,"njum":14414,"njakk":14415,"njirim":14416,"nëppal":14417,"otom":14418,"open":14419,"osad":14420,"ostraali":14421,"peex":14422,"plas":14423,"përë":14424,"paddi":14425,"qe":14426,"qqi":14427,"smb":14428,"soro":14429,"saboo":14430,"salem":14431,"tante":14432,"tóoy":14433,"wab":14434,"woppi":14435,"wlin":14436,"xoom":14437,"xól":14438,"xuraan":14439,"xëppu":14440,"zae":14441,"ãse":14442,"ãari":14443,"él":14444,"éri":14445,"ëk":14446,"ëkk":14447,"ënu":14448,"ëtti":14449,"ñoxor":14450,"ñoll":14451,"órob":14452,"óstraali":14453,"ŋe":14454,"aaju":14455,"eeru":14456,"alg":14457,"almag":14458,"almat":14459,"aman":14460,"ameelu":14461,"nai":14462,"nase":14463,"nawoon":14464,"nataale":14465,"nadiim":14466,"anet":14467,"antaan":14468,"andag":14469,"ancien":14470,"did":14471,"dire":14472,"digam":14473,"dimaas":14474,"distri":14475,"laci":14476,"latii":14477,"laker":14478,"latiir":14479,"bidi":14480,"bite":14481,"bidaa":14482,"bituu":14483,"ngel":14484,"neu":14485,"tenue":14486,"aree":14487,"areen":14488,"arch":14489,"arth":14490,"arbiit":14491,"kof":14492,"kou":14493,"kone":14494,"komoor":14495,"muul":14496,"mudaan":14497,"muwéy":14498,"mueller":14499,"ñunekk":14500,"ñubëgg":14501,"ñudund":14502,"ñujapp":14503,"ñubaña":14504,"ñuaajowoo":14505,"ayug":14506,"buñuy":14507,"liñu":14508,"lind":14509,"liyu":14510,"liya":14511,"lime":14512,"lith":14513,"linjiil":14514,"yimu":14515,"yinu":14516,"yiwaaye":14517,"yikkat":14518,"luq":14519,"lulu":14520,"deu":14521,"dengi":14522,"maf":14523,"mait":14524,"magis":14525,"masuñu":14526,"makoddu":14527,"ggée":14528,"baw":14529,"base":14530,"ndaale":14531,"tula":14532,"tuddul":14533,"nisee":14534,"niniw":14535,"suli":14536,"suleen":14537,"suka":14538,"sumat":14539,"suwë":14540,"sunah":14541,"suwayli":14542,"duur":14543,"enteer":14544,"aaro":14545,"dai":14546,"dawee":14547,"dagaa":14548,"naawal":14549,"jus":14550,"juli":14551,"juin":14552,"jurul":14553,"mimi":14554,"miya":14555,"atal":14556,"awoo":14557,"orité":14558,"fabal":14559,"fanas":14560,"mbalaa":14561,"mbów":14562,"loosu":14563,"jëmul":14564,"waxum":14565,"cana":14566,"gui":14567,"guloo":14568,"guyaar":14569,"gudde":14570,"guleet":14571,"ting":14572,"tikku":14573,"tiggi":14574,"tiens":14575,"wuli":14576,"wutaakon":14577,"sibi":14578,"siyee":14579,"sira":14580,"sikkal":14581,"sage":14582,"sajj":14583,"sabul":14584,"savo":14585,"ret":14586,"reja":14587,"repor":14588,"tabi":14589,"tasam":14590,"tagul":14591,"tasug":14592,"rif":14593,"rippi":14594,"ñing":14595,"jige":14596,"jiñaabo":14597,"mange":14598,"manmanu":14599,"kipp":14600,"kiku":14601,"kies":14602,"sambaa":14603,"samwiye":14604,"itani":14605,"sera":14606,"sebet":14607,"sesoŋ":14608,"sedat":14609,"moomi":14610,"waatul":14611,"waawug":14612,"maate":14613,"maanu":14614,"jada":14615,"yana":14616,"ulaayi":14617,"óomam":14618,"baaw":14619,"baalu":14620,"baasi":14621,"baawo":14622,"baayima":14623,"njóo":14624,"baré":14625,"barñi":14626,"fulu":14627,"fuut":14628,"biiñu":14629,"gisees":14630,"taxal":14631,"taxutoon":14632,"firée":14633,"finan":14634,"kasamaas":14635,"warab":14636,"waruma":14637,"cct":14638,"katal":14639,"rajii":14640,"rasist":14641,"benneel":14642,"dëne":14643,"dëngal":14644,"etat":14645,"melna":14646,"melrose":14647,"ñooŋ":14648,"ñooñam":14649,"asoŋ":14650,"asalaamu":14651,"ngum":14652,"erdogan":14653,"daataa":14654,"daanel":14655,"gate":14656,"gagganti":14657,"job":14658,"josees":14659,"saañ":14660,"saala":14661,"saasapoŋ":14662,"arafa":14663,"walaa":14664,"walan":14665,"walii":14666,"kane":14667,"déll":14668,"bokkleen":14669,"yaasa":14670,"gere":14671,"yegal":14672,"yemook":14673,"yengatu":14674,"saxu":14675,"sosee":14676,"somer":14677,"tamper":14678,"mbin":14679,"damp":14680,"dammee":14681,"wooyi":14682,"wade":14683,"wajj":14684,"tantu":14685,"jeñ":14686,"jend":14687,"jepp":14688,"jemm":14689,"béraŋ":14690,"bénin":14691,"dot":14692,"doxam":14693,"xarum":14694,"ndima":14695,"ndiggu":14696,"neeleen":14697,"neeru":14698,"neewuma":14699,"baaxa":14700,"baaxee":14701,"jaawat":14702,"mey":14703,"mengal":14704,"weeje":14705,"tokor":14706,"town":14707,"sëb":14708,"sëkre":14709,"konde":14710,"konsilu":14711,"xaaji":14712,"xaajee":14713,"ganu":14714,"sane":14715,"sandi":14716,"sanders":14717,"téeñ":14718,"bëñi":14719,"bëñam":14720,"wesel":14721,"jappalee":14722,"liggu":14723,"woñ":14724,"woli":14725,"wonu":14726,"wobaab":14727,"wotoom":14728,"këriis":14729,"gaawoon":14730,"bariwaana":14731,"bindam":14732,"bindloo":14733,"bindub":14734,"bindalal":14735,"bindkatu":14736,"tëw":14737,"tëjj":14738,"tëjee":14739,"fekkuñu":14740,"farle":14741,"jooye":14742,"taxawlu":14743,"déggale":14744,"déggati":14745,"jóolóo":14746,"juróomñatti":14747,"juróomñent":14748,"roma":14749,"rodd":14750,"rogal":14751,"roho":14752,"rock":14753,"robeer":14754,"sard":14755,
[...]
